<pad>	0
<unk>	0
<s>	0
</s>	0
<|lang:asm|>	0
<|lang:ben|>	0
<|lang:brx|>	0
<|lang:doi|>	0
<|lang:guj|>	0
<|lang:hin|>	0
<|lang:kan|>	0
<|lang:kas|>	0
<|lang:kok|>	0
<|lang:mai|>	0
<|lang:mal|>	0
<|lang:mni|>	0
<|lang:mar|>	0
<|lang:nep|>	0
<|lang:ori|>	0
<|lang:pan|>	0
<|lang:san|>	0
<|lang:sat|>	0
<|lang:snd|>	0
<|lang:tam|>	0
<|lang:tel|>	0
<|lang:urd|>	0
<|lang:eng|>	0
<|silence|>	0
<|overlap|>	0
<|backch|>	0
<|turn_start|>	0
<|turn_end|>	0
<|lang_switch|>	0
<0x00>	0
<0x01>	0
<0x02>	0
<0x03>	0
<0x04>	0
<0x05>	0
<0x06>	0
<0x07>	0
<0x08>	0
<0x09>	0
<0x0A>	0
<0x0B>	0
<0x0C>	0
<0x0D>	0
<0x0E>	0
<0x0F>	0
<0x10>	0
<0x11>	0
<0x12>	0
<0x13>	0
<0x14>	0
<0x15>	0
<0x16>	0
<0x17>	0
<0x18>	0
<0x19>	0
<0x1A>	0
<0x1B>	0
<0x1C>	0
<0x1D>	0
<0x1E>	0
<0x1F>	0
<0x20>	0
<0x21>	0
<0x22>	0
<0x23>	0
<0x24>	0
<0x25>	0
<0x26>	0
<0x27>	0
<0x28>	0
<0x29>	0
<0x2A>	0
<0x2B>	0
<0x2C>	0
<0x2D>	0
<0x2E>	0
<0x2F>	0
<0x30>	0
<0x31>	0
<0x32>	0
<0x33>	0
<0x34>	0
<0x35>	0
<0x36>	0
<0x37>	0
<0x38>	0
<0x39>	0
<0x3A>	0
<0x3B>	0
<0x3C>	0
<0x3D>	0
<0x3E>	0
<0x3F>	0
<0x40>	0
<0x41>	0
<0x42>	0
<0x43>	0
<0x44>	0
<0x45>	0
<0x46>	0
<0x47>	0
<0x48>	0
<0x49>	0
<0x4A>	0
<0x4B>	0
<0x4C>	0
<0x4D>	0
<0x4E>	0
<0x4F>	0
<0x50>	0
<0x51>	0
<0x52>	0
<0x53>	0
<0x54>	0
<0x55>	0
<0x56>	0
<0x57>	0
<0x58>	0
<0x59>	0
<0x5A>	0
<0x5B>	0
<0x5C>	0
<0x5D>	0
<0x5E>	0
<0x5F>	0
<0x60>	0
<0x61>	0
<0x62>	0
<0x63>	0
<0x64>	0
<0x65>	0
<0x66>	0
<0x67>	0
<0x68>	0
<0x69>	0
<0x6A>	0
<0x6B>	0
<0x6C>	0
<0x6D>	0
<0x6E>	0
<0x6F>	0
<0x70>	0
<0x71>	0
<0x72>	0
<0x73>	0
<0x74>	0
<0x75>	0
<0x76>	0
<0x77>	0
<0x78>	0
<0x79>	0
<0x7A>	0
<0x7B>	0
<0x7C>	0
<0x7D>	0
<0x7E>	0
<0x7F>	0
<0x80>	0
<0x81>	0
<0x82>	0
<0x83>	0
<0x84>	0
<0x85>	0
<0x86>	0
<0x87>	0
<0x88>	0
<0x89>	0
<0x8A>	0
<0x8B>	0
<0x8C>	0
<0x8D>	0
<0x8E>	0
<0x8F>	0
<0x90>	0
<0x91>	0
<0x92>	0
<0x93>	0
<0x94>	0
<0x95>	0
<0x96>	0
<0x97>	0
<0x98>	0
<0x99>	0
<0x9A>	0
<0x9B>	0
<0x9C>	0
<0x9D>	0
<0x9E>	0
<0x9F>	0
<0xA0>	0
<0xA1>	0
<0xA2>	0
<0xA3>	0
<0xA4>	0
<0xA5>	0
<0xA6>	0
<0xA7>	0
<0xA8>	0
<0xA9>	0
<0xAA>	0
<0xAB>	0
<0xAC>	0
<0xAD>	0
<0xAE>	0
<0xAF>	0
<0xB0>	0
<0xB1>	0
<0xB2>	0
<0xB3>	0
<0xB4>	0
<0xB5>	0
<0xB6>	0
<0xB7>	0
<0xB8>	0
<0xB9>	0
<0xBA>	0
<0xBB>	0
<0xBC>	0
<0xBD>	0
<0xBE>	0
<0xBF>	0
<0xC0>	0
<0xC1>	0
<0xC2>	0
<0xC3>	0
<0xC4>	0
<0xC5>	0
<0xC6>	0
<0xC7>	0
<0xC8>	0
<0xC9>	0
<0xCA>	0
<0xCB>	0
<0xCC>	0
<0xCD>	0
<0xCE>	0
<0xCF>	0
<0xD0>	0
<0xD1>	0
<0xD2>	0
<0xD3>	0
<0xD4>	0
<0xD5>	0
<0xD6>	0
<0xD7>	0
<0xD8>	0
<0xD9>	0
<0xDA>	0
<0xDB>	0
<0xDC>	0
<0xDD>	0
<0xDE>	0
<0xDF>	0
<0xE0>	0
<0xE1>	0
<0xE2>	0
<0xE3>	0
<0xE4>	0
<0xE5>	0
<0xE6>	0
<0xE7>	0
<0xE8>	0
<0xE9>	0
<0xEA>	0
<0xEB>	0
<0xEC>	0
<0xED>	0
<0xEE>	0
<0xEF>	0
<0xF0>	0
<0xF1>	0
<0xF2>	0
<0xF3>	0
<0xF4>	0
<0xF5>	0
<0xF6>	0
<0xF7>	0
<0xF8>	0
<0xF9>	0
<0xFA>	0
<0xFB>	0
<0xFC>	0
<0xFD>	0
<0xFE>	0
<0xFF>	0
▁	-3.50422
0	-4.9491
1	-5.18782
▁the	-5.38631
ৰ	-5.38805
।	-5.5603
2	-5.65161
ी	-5.66965
े	-5.70761
-	-5.751
s	-5.789
ा	-5.81061
ು	-5.84612
ੇ	-5.85985
को	-5.87269
▁के	-5.87736
்	-5.90007
▁کے	-5.91286
്	-5.98492
ے	-6.07495
9	-6.08268
मा	-6.11809
▁کی	-6.14572
ی	-6.16043
র	-6.16369
ം	-6.17592
▁છે	-6.20242
.	-6.21848
5	-6.22594
ের	-6.24976
▁of	-6.27293
4	-6.28028
ले	-6.28415
▁to	-6.31815
▁a	-6.32689
▁है	-6.34338
3	-6.34361
▁में	-6.34907
'	-6.35133
માં	-6.38733
▁ਹੈ	-6.38785
▁میں	-6.39971
▁and	-6.40885
ত	-6.40924
▁ہے	-6.41187
6	-6.43173
▁in	-6.45619
▁की	-6.46072
ે	-6.46117
▁ਵਿੱਚ	-6.47257
▁"	-6.47354
8	-6.47477
ों	-6.47548
ed	-6.49848
ে	-6.50906
▁ਦੇ	-6.51888
ਾਂ	-6.53614
وں	-6.57027
ની	-6.57296
ing	-6.57327
▁سے	-6.58541
▁र	-6.60238
ରେ	-6.62625
▁एक	-6.63191
▁اور	-6.67192
▁से	-6.68478
ી	-6.69526
का	-6.69682
نے	-6.73097
ہ	-6.73606
▁को	-6.73795
▁અને	-6.74099
▁کو	-6.75383
▁और	-6.75613
ના	-6.76231
ు	-6.76389
▁आणि	-6.77513
▁আৰু	-6.77614
7	-6.78723
▁ਦੀ	-6.81511
ने	-6.81682
ਾ	-6.82607
ੀ	-6.8333
▁ಮತ್ತು	-6.84613
ும்	-6.85697
ನ್ನು	-6.85786
▁ਨੂੰ	-6.88228
▁এবং	-6.88908
ில்	-6.89658
,	-6.905
▁کا	-6.92516
ને	-6.9257
▁ਅਤ	-6.94887
▁हैं	-6.97156
ൽ	-6.99058
▁پر	-6.99854
▁ہیں	-7.00607
न	-7.0104
ो	-7.04133
ம்	-7.04622
▁is	-7.07583
তে	-7.07585
లో	-7.08836
ित	-7.09527
ਈ	-7.09889
▁اس	-7.1004
ો	-7.10055
▁आहे	-7.1099
ం	-7.11217
ਤੇ	-7.11453
ا	-7.12434
▁ਹਨ	-7.13077
▁का	-7.13083
लाई	-7.13207
▁ਤ	-7.13981
▁be	-7.14567
ੋਂ	-7.16011
▁மற்றும்	-7.16387
ా	-7.1822
▁पर	-7.18631
થી	-7.19409
च्या	-7.20054
ின்	-7.20263
ক	-7.21185
ly	-7.22639
ും	-7.23634
ு	-7.24544
▁ഒരു	-7.24599
ই	-7.25736
ೆ	-7.26159
▁మరియు	-7.26216
ର	-7.26995
ા	-7.27491
ਂ	-7.28776
▁कि	-7.29092
▁કે	-7.29569
"	-7.30479
▁તે	-7.3135
▁کہ	-7.31464
▁या	-7.31827
▁हो	-7.3186
▁ਲ	-7.3193
▁যে	-7.32362
▁ایک	-7.33718
र	-7.35101
▁হয়	-7.35636
କୁ	-7.35721
து	-7.36464
ను	-7.37081
ని	-7.37153
हरू	-7.37641
ও	-7.38149
గా	-7.38934
ದ	-7.41078
▁ਦਾ	-7.42235
▁on	-7.45857
▁ஒரு	-7.48138
▁लिए	-7.48997
▁that	-7.52039
େ	-7.52293
▁ਇੱਕ	-7.52466
▁for	-7.52901
কে	-7.53989
▁માટે	-7.54547
▁ने	-7.54992
▁কৰা	-7.55601
లు	-7.55618
▁are	-7.55941
కు	-7.55947
▁ಅ	-7.56269
▁ਨਾਲ	-7.57345
▁ਸੀ	-7.576
નો	-7.5797
मध्ये	-7.58382
ি	-7.58414
ിൽ	-7.58433
:	-7.59067
ంగా	-7.59449
ું	-7.61169
▁এই	-7.61456
▁একটি	-7.62118
▁ਨੇ	-7.62161
▁छ	-7.63145
▁করে	-7.63784
ை	-7.6399
त	-7.64814
▁এটা	-7.65996
▁ਕਿ	-7.66049
▁कर	-7.6681
▁with	-7.67614
িত	-7.67886
▁स	-7.68689
d	-7.69739
y	-7.69742
ಗಳನ್ನು	-7.69786
▁م	-7.70073
▁જે	-7.70273
▁کر	-7.70353
▁रूप	-7.70659
್	-7.71008
ే	-7.71279
ई	-7.71428
▁ਇਸ	-7.71488
▁as	-7.72161
▁ଏବଂ	-7.72437
ಲ್ಲಿ	-7.72548
য়	-7.73385
ਨ	-7.73734
ै	-7.73744
n	-7.74194
▁ہو	-7.74366
ವನ್ನು	-7.75206
ൻ	-7.75324
▁પર	-7.75389
▁was	-7.75611
ి	-7.76005
ن	-7.7644
ਆਂ	-7.77252
નું	-7.78037
টি	-7.78766
▁বা	-7.79007
ೂ	-7.7943
▁એક	-7.80844
ला	-7.81422
▁یہ	-7.81497
ಗೆ	-7.81852
▁ଏକ	-7.81975
▁આ	-7.82378
▁or	-7.82423
▁পৰা	-7.83408
▁इस	-7.83531
୍	-7.8355
▁ఒక	-7.83614
க்	-7.84136
െ	-7.84397
ل	-7.84706
▁था	-7.84957
▁ਅ	-7.85485
▁জন্য	-7.85823
ন	-7.86586
▁ਇਹ	-7.87025
ப்	-7.87488
▁लागि	-7.87585
▁यह	-7.88284
ਣ	-7.88791
क	-7.89284
▁বাবে	-7.89365
▁એ	-7.89523
ات	-7.89637
▁it	-7.89826
▁करने	-7.8985
▁ਉਹ	-7.90332
ਰ	-7.90431
▁করা	-7.90486
▁हे	-7.90571
▁કરવા	-7.91054
▁क	-7.91214
ક	-7.91423
ಿಗೆ	-7.91931
ী	-7.92046
▁ఈ	-7.93197
യും	-7.94967
ून	-7.94972
్	-7.95126
கள்	-7.95534
▁যা	-7.95679
▁ਕਰਨ	-7.95937
▁ਹੋ	-7.97163
▁থেকে	-7.97183
ील	-7.97276
▁જ	-7.97538
ಕ್ಕೆ	-7.97747
िक	-7.97806
▁کیا	-7.97938
ଁ	-7.97996
▁गर्न	-7.98318
▁ਕਰ	-7.98324
▁ان	-7.98768
/	-7.9893
ான	-7.99619
▁वा	-7.99776
▁'	-8.00248
ਕ	-8.00382
▁হ	-8.00403
▁یا	-8.00707
ക്ക്	-8.00788
▁ਜਾਂ	-8.00892
▁ਗਿਆ	-8.01142
ாக	-8.01191
▁from	-8.01525
स	-8.01632
▁by	-8.01651
▁আ	-8.01658
দের	-8.02332
▁ಎಂದು	-8.02946
▁you	-8.03085
লৈ	-8.03144
▁وہ	-8.03184
▁এক	-8.03239
▁কৰিছিল	-8.0326
ൾ	-8.03476
▁ही	-8.0369
▁جو	-8.03691
తో	-8.03749
▁आप	-8.0384
ல்	-8.04133
▁ପାଇ	-8.04149
en	-8.04325
ಗಳು	-8.04447
ನ್	-8.04638
▁کرنے	-8.05219
्या	-8.05687
ാൻ	-8.05697
એ	-8.06412
्स	-8.06853
▁होते	-8.06933
ಲು	-8.07114
▁have	-8.07278
▁थियो	-8.08346
▁اپن	-8.08823
س	-8.09029
વા	-8.09171
▁जो	-8.09244
e	-8.09421
▁साथ	-8.09735
▁भी	-8.0988
ही	-8.10172
ങ്ങൾ	-8.106
▁अ	-8.11912
ുള്ള	-8.12247
▁at	-8.12863
▁ਬ	-8.12875
▁ਵੀ	-8.13424
▁यस	-8.13758
▁अधिक	-8.13906
ೇ	-8.13935
▁કરી	-8.14617
ది	-8.14812
▁नहीं	-8.16491
ർ	-8.16502
▁પણ	-8.17003
ात	-8.17022
ল	-8.17414
▁بھی	-8.17429
बाट	-8.17494
▁they	-8.17633
▁can	-8.17765
▁تھا	-8.181
ಥವಾ	-8.18119
▁समय	-8.18558
ால்	-8.19078
▁ಅವರ	-8.19578
ానికి	-8.19609
▁ಒಂದ	-8.20121
▁య	-8.20199
▁কৰে	-8.20619
▁என்று	-8.20748
▁আছে	-8.20995
▁அல்ல	-8.21104
▁లేద	-8.21309
ିତ	-8.21386
،	-8.21444
ಾ	-8.2147
चा	-8.21491
స్	-8.21766
یں	-8.21883
ं	-8.22078
साठी	-8.22088
▁మీ	-8.22133
ت	-8.2222
ొక్క	-8.22923
▁धेरै	-8.22964
م	-8.22997
গুলি	-8.2305
ੀਆਂ	-8.23166
▁भने	-8.23355
ीय	-8.23384
▁হৈছিল	-8.23602
पनि	-8.23606
वर	-8.23977
▁نہیں	-8.24053
▁an	-8.24159
▁ನ	-8.24299
▁কৰিব	-8.25167
▁ک	-8.25339
▁ਤੋ	-8.25347
ୁ	-8.25376
▁زیادہ	-8.258
▁చాలా	-8.2582
▁না	-8.25957
t	-8.26038
ਨਾਂ	-8.26049
▁गया	-8.26252
▁"""	-8.26377
ব	-8.27124
▁किंवा	-8.27201
ু	-8.27205
▁ਨਹੀਂ	-8.27589
▁किया	-8.27696
▁હતી	-8.28042
▁যি	-8.28063
▁तर	-8.28262
া	-8.2833
િત	-8.28396
ता	-8.28811
▁this	-8.28953
▁যায়	-8.2926
ே	-8.29483
▁طور	-8.29549
▁देश	-8.30431
चे	-8.30897
▁आहेत	-8.3096
ि	-8.30994
▁କରିବା	-8.31568
ਿਆਂ	-8.31736
▁ते	-8.31952
ल	-8.32102
▁گیا	-8.32322
డానికి	-8.32391
ాన్ని	-8.32489
కి	-8.32531
च	-8.32625
િક	-8.32684
▁আছিল	-8.33637
ীয়	-8.33704
▁थिए	-8.34046
▁ଏହା	-8.34127
ઓ	-8.34158
টো	-8.34241
▁होता	-8.3431
al	-8.34468
▁અ	-8.34574
▁રીત	-8.34692
ରୁ	-8.34772
▁இந்த	-8.35117
▁उन	-8.35192
ുടെ	-8.36106
▁હોય	-8.36557
ਦੀਆਂ	-8.36848
ವಾಗಿ	-8.36962
▁‘	-8.3706
ಸ್	-8.37105
▁তেওঁ	-8.37136
▁यो	-8.37264
ன்	-8.37381
▁कम	-8.37483
▁સાથે	-8.37559
ز	-8.3769
▁সময়	-8.38347
▁ਕ	-8.38643
▁रहे	-8.3912
మైన	-8.3919
▁ले	-8.39285
ದಲ್ಲಿ	-8.39517
▁હતા	-8.39556
▁હતો	-8.39565
▁मा	-8.3973
▁ഈ	-8.39773
▁तपाईं	-8.40575
▁ਕੀਤਾ	-8.41104
▁এর	-8.41547
রা	-8.4192
ವು	-8.42153
▁آپ	-8.42322
▁অ	-8.42599
ना	-8.42718
த்	-8.42899
ir	-8.42965
▁હતું	-8.43234
കൾ	-8.43737
▁কিছু	-8.43789
▁त्या	-8.4394
ിൻ്റെ	-8.44648
రు	-8.4482
▁মধ্যে	-8.44848
ো	-8.44875
বা	-8.44881
▁থাকে	-8.45305
▁has	-8.45367
▁were	-8.45867
▁हा	-8.45914
er	-8.45941
সমূহ	-8.46122
भन्द	-8.4613
▁നിന്ന	-8.46154
▁काम	-8.46479
▁وال	-8.46639
▁थे	-8.46649
▁ਜੋ	-8.46971
ाच्या	-8.47259
▁এটি	-8.47485
▁आ	-8.47548
▁কৰি	-8.4775
வும்	-8.47889
വും	-8.47891
▁जा	-8.47929
▁ا	-8.48015
▁क्षेत्र	-8.48083
ಿನ	-8.48096
▁তাদের	-8.48124
▁ఉన్న	-8.48125
▁तो	-8.48175
▁not	-8.49032
मुळे	-8.49203
ു	-8.49385
▁गरे	-8.49457
▁कुछ	-8.4976
▁دی	-8.49968
▁থকা	-8.50074
▁कारण	-8.50101
▁होती	-8.50334
ਲ	-8.50378
ची	-8.50418
▁بہت	-8.50466
▁ఇ	-8.50611
▁হৈছে	-8.50871
ോ	-8.5089
ச்	-8.50892
▁न	-8.51081
▁ب	-8.51307
▁ज	-8.51525
▁لئے	-8.52105
িক	-8.52251
▁পারে	-8.52471
ण्यासाठी	-8.52532
▁ଏହି	-8.52591
▁ਕੀਤੀ	-8.52599
▁হোৱা	-8.52615
▁পাৰে	-8.52616
▁কোন	-8.53157
▁लोग	-8.53158
▁શકે	-8.53177
▁તમ	-8.5368
▁वे	-8.53954
ಯ	-8.53991
▁ਲੋਕ	-8.54355
▁यात्रा	-8.54994
ट	-8.55254
▁तिनीहरू	-8.55533
▁भएको	-8.55705
▁नाही	-8.56089
ା	-8.56094
ئی	-8.56632
▁તેમ	-8.56784
ுக்கு	-8.56919
ୀ	-8.5721
▁सर्व	-8.57312
▁করতে	-8.57319
ਤ	-8.57359
▁ਬਹੁਤ	-8.5736
▁ছিল	-8.57583
లను	-8.57808
▁ਹੋਣ	-8.5795
ി	-8.58113
ത്തിൽ	-8.58399
▁some	-8.58559
യിൽ	-8.58575
న	-8.58952
▁এখন	-8.59067
▁কৰিবলৈ	-8.59232
▁केले	-8.59275
▁جس	-8.59303
▁he	-8.59464
ਿਤ	-8.59679
▁one	-8.59696
اں	-8.60014
ch	-8.60639
द्वारा	-8.60646
▁ସ	-8.61034
▁হয়েছিল	-8.61054
▁वाले	-8.61056
▁بعد	-8.61085
▁சில	-8.61205
▁भाग	-8.61308
য়ে	-8.61348
▁তার	-8.61524
ओं	-8.61695
▁करते	-8.6186
ম	-8.61961
▁पहल	-8.62239
▁सबै	-8.62335
▁म	-8.6238
ভাবে	-8.62848
ें	-8.62881
▁गर्ने	-8.63073
▁काही	-8.63184
▁छन्	-8.63281
▁કરે	-8.63287
▁কিন্ত	-8.63586
▁अन्य	-8.63613
▁അ	-8.63639
th	-8.6457
ਸੀਂ	-8.64702
▁तुम्ह	-8.64945
▁প্রায়	-8.64968
▁تھے	-8.65581
▁નથી	-8.65622
▁કારણ	-8.65654
▁నుండి	-8.65668
ಾಗಿ	-8.65743
▁تک	-8.65876
تا	-8.65903
▁دو	-8.6613
▁but	-8.66246
▁সেই	-8.66429
▁जस	-8.66448
▁کم	-8.66926
▁എന്ന	-8.67019
▁সাথে	-8.67035
મ	-8.67415
▁आफ्न	-8.67434
▁ও	-8.67447
▁ನಲ್ಲಿ	-8.67962
ஸ்	-8.6802
▁ساتھ	-8.68032
es	-8.68375
ன	-8.68662
▁will	-8.68816
▁more	-8.68932
▁کرتے	-8.68973
▁सकत	-8.68991
ರು	-8.68997
▁तक	-8.69038
▁थी	-8.69113
ভাৱে	-8.69353
ਕਿ	-8.69434
ି	-8.69609
▁ਆਪਣੇ	-8.69646
ੌਰ	-8.70002
▁ఉంటుంది	-8.7038
▁લોકો	-8.71017
▁जब	-8.71047
ಿಂದ	-8.71064
ण	-8.71291
▁बाद	-8.71584
▁had	-8.71711
▁लग	-8.71927
▁most	-8.72058
▁हुन	-8.72079
تے	-8.72082
▁उस	-8.72148
lso	-8.7229
▁there	-8.72493
▁ப	-8.72587
▁त	-8.72728
▁વધુ	-8.72844
▁ଓ	-8.73013
ाला	-8.73022
▁হৈ	-8.73175
ാണ്	-8.73257
ੱਕ	-8.73426
▁করার	-8.73598
▁कहा	-8.736
st	-8.73687
لئے	-8.73773
▁மிக	-8.74344
▁ଅଧିକ	-8.74542
▁جا	-8.74881
▁अपन	-8.75038
▁ਇਕ	-8.75208
▁ଯାହା	-8.75272
ையும்	-8.75753
▁તેઓ	-8.75756
▁లో	-8.75846
ുകൾ	-8.75872
কৈ	-8.75902
▁सं	-8.75997
کسی	-8.76159
টা	-8.76437
யில்	-8.76461
▁केही	-8.76541
▁কম	-8.76664
▁അവ	-8.76834
पछि	-8.77146
ਵਾਂ	-8.77287
▁তা	-8.77471
ਨੂੰ	-8.77474
ਾਅਦ	-8.77497
▁تھی	-8.77514
તા	-8.77754
▁হওয়া	-8.77915
نا	-8.7792
ਿਆ	-8.7834
▁ನೀವ	-8.78428
ન	-8.78657
▁కూడ	-8.78725
▁જો	-8.79104
▁تو	-8.79244
യുടെ	-8.79724
▁لوگ	-8.7973
ായി	-8.79737
▁କିମ୍ବା	-8.79744
।""	-8.80079
▁wh	-8.80299
ੁਝ	-8.80334
▁এ	-8.80431
ర్	-8.80445
▁যদিও	-8.80649
▁whi	-8.81294
▁કોઈ	-8.81301
د	-8.81536
if	-8.81639
▁உள்ள	-8.81719
▁যদি	-8.81965
▁जाता	-8.82166
മാണ്	-8.82272
किन	-8.82497
▁कार	-8.82611
▁દ્વારા	-8.82819
▁हुन्छ	-8.82821
▁ਜਿਸ	-8.82936
▁असे	-8.82997
ൻ്റെ	-8.83006
▁ਪਰ	-8.83334
िय	-8.8354
▁নাই	-8.83697
نگ	-8.83783
म	-8.8397
▁other	-8.84088
▁गरिए	-8.84123
పై	-8.84309
পুনি	-8.84317
▁आज	-8.84347
▁ఉంది	-8.84406
▁অন্য	-8.84436
▁its	-8.84446
▁ನಂತರ	-8.84587
▁ಕೆಲವ	-8.84589
▁ఇంక	-8.84906
▁ایس	-8.84926
ിലെ	-8.85057
▁ഇത്	-8.85324
▁ਵਾਲ	-8.85334
पूर्ण	-8.85409
ں	-8.86026
▁পর	-8.86094
▁అ	-8.86372
▁us	-8.86405
▁all	-8.86492
▁ح	-8.86585
िंग	-8.86738
▁हाल	-8.86837
▁স	-8.86894
▁ಇದು	-8.87032
▁जिस	-8.87157
খন	-8.87286
▁ਹੋਰ	-8.87331
▁ಆದರ	-8.87442
▁ਕਿਸੇ	-8.87654
മായ	-8.87815
▁இது	-8.87817
many	-8.88025
▁لیک	-8.88125
▁शहर	-8.88134
▁उन्ह	-8.88138
▁ज्या	-8.88292
സ്	-8.88308
ते	-8.88314
▁ਤੁ	-8.88378
▁রয়েছে	-8.88466
▁ਕਿਹਾ	-8.88466
▁বুলি	-8.88469
▁ಮೇಲೆ	-8.88505
▁ਹੀ	-8.88527
▁प्रयोग	-8.88582
ਦਾ	-8.88917
▁તો	-8.88931
▁ਜਾਣ	-8.89014
▁ଭାବ	-8.89159
ింగ్	-8.8929
▁अनेक	-8.89294
▁people	-8.89299
▁સુધી	-8.89302
▁ہوئے	-8.89314
▁কৰাৰ	-8.89369
ார்	-8.89681
▁સમય	-8.90142
▁பல	-8.90247
ج	-8.90258
▁ब	-8.90372
ത്	-8.90435
ത്തെ	-8.90538
▁ను	-8.90544
వ	-8.90545
▁सकते	-8.90549
رف	-8.90596
▁ہی	-8.90612
;	-8.90987
న్	-8.91017
▁कुन	-8.91047
ার	-8.91321
▁द	-8.91379
▁your	-8.91493
સ	-8.91687
▁ತಮ್ಮ	-8.91874
ू	-8.92372
▁गए	-8.9282
▁ସହ	-8.92917
তকৈ	-8.93038
▁ਆ	-8.93161
▁جات	-8.93428
ب	-8.93451
ر	-8.93456
ನ	-8.93533
▁after	-8.93588
କ	-8.93916
▁ইয়াৰ	-8.93947
▁آ	-8.94034
▁மேல	-8.94396
▁ଯେ	-8.94448
▁दक्षिण	-8.94516
▁जाते	-8.94695
▁वर्ष	-8.95035
ین	-8.95188
▁و	-8.95323
▁তিনি	-8.9544
यों	-8.95543
و	-8.95636
▁उनक	-8.95649
▁मध्ये	-8.95679
▁হয়ে	-8.95983
▁ਸਭ	-8.96226
▁ਸਮੇ	-8.96333
▁అని	-8.96346
▁प	-8.96475
▁खेल	-8.96661
ં	-8.96755
▁दिया	-8.97139
▁அந்த	-8.97146
▁may	-8.97158
▁विशेष	-8.97338
▁over	-8.97352
▁time	-8.97803
▁આવે	-8.97821
વી	-8.97862
তা	-8.9788
में	-8.98068
▁হয়েছে	-8.98159
▁క	-8.98519
य	-8.9858
▁दिन	-8.98692
டன்	-8.98705
▁થઈ	-8.98956
▁ಹೆಚ್ಚು	-8.9899
▁അല്ലെങ്കിൽ	-8.99001
▁ت	-8.99508
ీ	-8.99722
ూ	-8.99791
▁اگر	-8.99905
▁دوسر	-8.99924
▁کرنا	-8.99935
▁لیے	-8.99968
बसे	-8.99996
▁ਕਈ	-9.00058
▁என்பது	-9.00069
”	-9.0012
▁நீங்கள	-9.00134
چھ	-9.00173
স	-9.00314
▁ভাষা	-9.00482
ଗୁଡ଼ିକ	-9.0057
ਮ	-9.00632
▁ମଧ୍ୟ	-9.00685
या	-9.00689
▁ଆ	-9.0077
ವಾದ	-9.0094
▁वह	-9.01346
▁सामान्य	-9.01511
ிலிருந்து	-9.01622
▁તમાર	-9.01843
▁پہل	-9.01853
▁प्राप्त	-9.01867
ಂತೆ	-9.02138
▁ભાગ	-9.0217
ਤਾ	-9.02475
▁നിങ്ങൾ	-9.02738
▁no	-9.02783
▁ਉਸ	-9.02786
भग	-9.03106
▁ज़्यादा	-9.03128
▁आवश्यक	-9.03587
▁অতি	-9.03727
▁কিছুমান	-9.03727
ां	-9.03893
ୀୟ	-9.03912
सँग	-9.03979
se	-9.03986
دہ	-9.04011
▁अपनी	-9.04137
▁অনেক	-9.04212
گر	-9.04526
▁جب	-9.04644
▁সৈতে	-9.04644
▁than	-9.04648
▁बहुत	-9.04654
▁ব্যৱহাৰ	-9.0466
▁ના	-9.04661
▁ਤਾਂ	-9.04676
ਕੇ	-9.04765
▁world	-9.0487
গুলো	-9.04995
▁त्यांन	-9.05126
▁ह	-9.05131
▁ਜਾ	-9.05131
▁దాని	-9.0542
▁ସମୟ	-9.05459
▁અથ	-9.05597
▁થાય	-9.05625
▁হবে	-9.05784
ங்கள்	-9.05827
▁ಹಾಗ	-9.06549
▁म्हणून	-9.06617
▁শক্তি	-9.06617
▁ਕਰਦੇ	-9.06647
▁जुन	-9.06682
▁प्रदा	-9.06957
▁ਪ੍ਰ	-9.07063
▁জন	-9.07073
▁سب	-9.07187
able	-9.0735
▁પછી	-9.07549
▁প্রতি	-9.07571
▁ਜ਼ਿਆਦਾ	-9.07615
▁प्रति	-9.07639
তবে	-9.07671
▁त्यांच्या	-9.07677
▁முதல	-9.07899
▁घर	-9.08095
▁অংশ	-9.08187
۔	-9.08262
▁সালে	-9.08266
▁તેના	-9.08276
ः	-9.08305
▁ಜನರ	-9.08317
ମାନ	-9.08542
▁سال	-9.08703
▁وقت	-9.08734
▁ক	-9.09061
▁गरेको	-9.0913
ਸ	-9.09269
▁new	-9.09335
ುತ್ತದೆ	-9.09348
ಲ್	-9.094
▁प्रकार	-9.09401
ર	-9.0942
▁ஆனால	-9.09423
ைக்	-9.09537
▁करता	-9.09593
▁দেশ	-9.09823
▁নিয়ে	-9.09836
ಗಳ	-9.09875
▁निर्माण	-9.09895
▁ਸਕਦੇ	-9.09914
ली	-9.09947
▁کہا	-9.10002
▁இருக்கும்	-9.10048
ാൽ	-9.10281
▁ప	-9.10318
▁பிற	-9.10449
ک	-9.10492
▁ਸਾਰ	-9.10523
▁ਦਿੱਤਾ	-9.10686
▁মতো	-9.10687
▁استعما	-9.1069
മായി	-9.10745
▁বিশেষ	-9.10746
▁ہوتی	-9.10757
▁వ	-9.1078
▁भए	-9.10975
▁भाषा	-9.11038
▁ଥିବା	-9.11146
री	-9.11164
▁দেখা	-9.11178
▁ভাল	-9.11186
▁ಅದ	-9.11345
ರ್	-9.11408
▁তারা	-9.11697
ء	-9.11713
ர்	-9.11731
▁સામાન્ય	-9.11736
▁his	-9.11737
▁ન	-9.11806
ಿಂಗ್	-9.12121
▁বছর	-9.12301
ುವ	-9.12489
க்கு	-9.12567
▁ਸਕਦ	-9.12607
▁వారి	-9.12756
%	-9.1277
▁അത	-9.12833
▁so	-9.12921
▁అనే	-9.12923
▁ଉପ	-9.12956
▁go	-9.13043
ಬಹುದು	-9.13235
▁ఇద	-9.13242
▁এইটো	-9.13277
▁पानी	-9.13324
્સ	-9.1359
▁एका	-9.13622
▁un	-9.13727
हरूमा	-9.13749
ંતુ	-9.13751
▁first	-9.13834
▁ಹೆಚ್ಚಿನ	-9.13839
▁হিসাবে	-9.13842
▁ઘણી	-9.13871
▁ഏറ്റവു	-9.13917
▁ہوتا	-9.13932
▁লগত	-9.14137
▁হল	-9.14186
पण	-9.14256
▁দিয়ে	-9.14343
ाने	-9.14735
▁ସେ	-9.14765
▁அவர்கள	-9.14832
▁ನಿಮ್ಮ	-9.1491
▁આવી	-9.15004
▁পরে	-9.15035
▁جان	-9.15075
▁बारे	-9.15144
▁కలిగి	-9.1515
▁ଆପଣ	-9.15156
کہ	-9.15181
ത്തിൻ്റെ	-9.15222
▁उत्तर	-9.15446
ന്	-9.15524
▁ചില	-9.15604
युक्त	-9.15765
ਿਕ	-9.15775
▁কোনো	-9.15902
ാ	-9.15928
▁તરીકે	-9.15997
▁گئے	-9.15998
▁ਦੇਸ਼	-9.16045
▁കൂടുത	-9.16289
ుడు	-9.16332
▁ਸਨ	-9.16339
▁up	-9.16488
ਦੇ	-9.16496
▁फ	-9.16504
થવા	-9.16653
.""	-9.1694
▁କରିଥିଲେ	-9.17097
▁বেশি	-9.17195
▁પ	-9.17415
ಿ	-9.1751
▁ط	-9.17518
▁ആ	-9.17594
▁पहिल	-9.1765
▁दो	-9.17671
▁यांन	-9.17709
▁सरकार	-9.17853
లోని	-9.17865
▁किस	-9.1789
▁प्रा	-9.17959
▁c	-9.17975
▁থাকা	-9.18077
▁যুদ্ধ	-9.18107
▁जस्त	-9.18124
▁सा	-9.18129
▁ઉપયોગ	-9.18207
▁ਹੁੰਦਾ	-9.18207
▁కొన్ని	-9.18226
▁অধিক	-9.18254
▁call	-9.18338
▁आले	-9.1838
மாக	-9.1838
▁ಮೊದಲ	-9.18514
a	-9.18523
▁भ	-9.18663
த்தின்	-9.18681
▁সব	-9.1894
▁বি	-9.19007
డ్	-9.1913
▁মানুহ	-9.19277
▁ਦੁਆਰਾ	-9.19331
▁সাধারণ	-9.1935
▁ਗਈ	-9.19416
नी	-9.19523
कि	-9.19548
ట్	-9.20061
▁about	-9.20467
▁said	-9.20469
▁पूर	-9.20511
▁ع	-9.20987
ਕਾਰ	-9.21042
▁श	-9.21187
ాలు	-9.21397
▁ద్వారా	-9.21491
▁করেছিল	-9.21612
▁নতুন	-9.21615
▁ऐस	-9.21616
▁तरह	-9.21628
▁often	-9.21631
▁भन्ने	-9.21682
तील	-9.21757
▁ਜਾਂਦ	-9.21853
▁କି	-9.21997
▁साल	-9.22059
▁सेवा	-9.22077
▁ਹਾਲ	-9.22117
െങ്കിലും	-9.2269
▁ਹੁੰਦੀ	-9.22735
সকলে	-9.22822
▁ಸ	-9.22935
▁केली	-9.2314
▁ପରେ	-9.23231
▁युद्ध	-9.23484
▁మ	-9.23603
▁ص	-9.2391
▁ਹੁੰਦੇ	-9.23955
▁ಯಾವುದ	-9.23959
నే	-9.23995
▁س	-9.2405
▁करना	-9.24064
▁ہے۔	-9.24143
▁আপন	-9.24185
ଙ୍କ	-9.24302
્યારે	-9.24339
ലെ	-9.24342
▁ਸ	-9.24745
▁മ	-9.24786
▁वाल	-9.24833
▁য	-9.25016
सम्म	-9.2504
▁సాధారణ	-9.25146
▁केला	-9.25146
▁ਵੱਧ	-9.25146
▁ਆਪਣੀ	-9.25159
తే	-9.25234
▁ਵਿ	-9.25307
ाचे	-9.25326
ಾಗ	-9.25676
▁who	-9.25757
ंतु	-9.25799
▁మంది	-9.25863
▁राज्य	-9.25996
▁त्यस	-9.26163
▁into	-9.26326
▁અન્ય	-9.26351
▁उनीहरू	-9.26357
▁एउट	-9.26366
▁കൂടാതെ	-9.26372
▁ਹੋਏ	-9.26377
▁আপোনা	-9.26408
▁وجہ	-9.26429
▁हुआ	-9.26445
ಯನ್ನು	-9.26458
▁जे	-9.26463
ಿದ್ದಾರೆ	-9.26464
▁دیا	-9.26551
▁હોવા	-9.26688
ছ	-9.26698
▁व	-9.26776
▁তেওঁলোকে	-9.2686
ಗಳಲ್ಲಿ	-9.26873
▁بڑ	-9.26933
▁പറഞ്ഞു	-9.27094
ಟ್	-9.27277
▁अलग	-9.27309
▁ఎక్కువ	-9.27508
▁বিভিন্ন	-9.2757
▁শুরু	-9.2757
▁हुए	-9.27571
▁शकतात	-9.27583
▁असलेल्या	-9.27596
▁ব	-9.27616
▁কথা	-9.27659
▁سی	-9.27716
▁அவை	-9.27725
▁स्थान	-9.27754
▁out	-9.27763
▁ਵਰਤ	-9.2786
▁समुद्र	-9.27885
ଣ	-9.27902
▁मुख्य	-9.27946
ಕ	-9.28363
ِ	-9.28385
ف	-9.28601
▁ਕੇ	-9.28679
▁প্রথম	-9.28801
▁असतात	-9.2881
द	-9.28839
▁নিজৰ	-9.28935
લ	-9.28941
ତା	-9.28996
while	-9.29147
▁والی	-9.29283
▁ਸਾਲ	-9.29327
▁সা	-9.29517
ers	-9.29527
▁ਸੰ	-9.29604
▁அதன்	-9.29697
▁ই	-9.29758
শ	-9.2978
▁आम	-9.29962
ies	-9.29998
▁খুব	-9.30057
▁ਗਏ	-9.30059
पासून	-9.30063
▁তৈরি	-9.30076
▁ਸ਼ਾਮ	-9.30259
▁प्रभाव	-9.30302
▁ملک	-9.30344
▁समस्या	-9.30363
▁ਪਹਿਲ	-9.3043
़	-9.30439
سکتا	-9.30452
▁তেওঁলোক	-9.30848
▁আপনার	-9.30927
লে	-9.30966
▁इतर	-9.31138
▁طرح	-9.3132
▁ਵੱਲ	-9.31321
▁করেছিলেন	-9.3134
వారు	-9.31349
▁ત્યારે	-9.31365
▁ਕਰਦਾ	-9.31375
▁সাধাৰণ	-9.3142
ातील	-9.31562
▁पास	-9.31639
ਿੰਗ	-9.31674
▁ಎಲ್ಲ	-9.31776
ో	-9.32169
▁ಅದರ	-9.32203
ുന്നു	-9.32284
▁ব্যবহার	-9.32462
▁अनुभव	-9.32587
▁સૌ	-9.32603
▁سفر	-9.32603
▁ತನ್ನ	-9.32603
▁सुरु	-9.32705
▁आवश्यकता	-9.32712
▁ಹಲವ	-9.32723
▁country	-9.32822
▁হতে	-9.32942
▁స	-9.33035
બ	-9.33137
েই	-9.33242
▁স্থান	-9.33276
▁जाने	-9.33304
ٹ	-9.33504
▁ਰਹੇ	-9.33572
▁সে	-9.33638
ారు	-9.33735
ણે	-9.33803
▁विचार	-9.33888
▁त्यांच	-9.33909
▁असते	-9.33918
▁dur	-9.33935
▁सक्छ	-9.34042
▁அவர்	-9.34126
▁গ	-9.34164
▁इस्त	-9.34316
ರ	-9.34409
▁প্ৰায়	-9.34503
▁پاس	-9.34694
বোৰ	-9.34715
ांकि	-9.34971
▁ಎಂಬ	-9.35035
▁বেছি	-9.35216
▁would	-9.35217
▁কৰিছে	-9.35227
▁ਕੋ	-9.35296
▁চনত	-9.3532
▁কাজ	-9.35328
▁ಎಂಬುದ	-9.35399
▁কি	-9.35422
▁କୌଣସି	-9.35443
ଥିବା	-9.35564
▁അവർ	-9.35647
▁লাভ	-9.35676
▁కంట	-9.35777
ିକ	-9.35834
ज	-9.35869
▁ভ্রমণ	-9.36067
ைப்	-9.36132
लेल्या	-9.36169
▁എല്ലാ	-9.36185
ులు	-9.36213
▁al	-9.36282
اصل	-9.36298
▁even	-9.36543
▁علاق	-9.3655
▁ਕੰਮ	-9.36551
▁দ্বারা	-9.36574
▁ਦੌਰਾ	-9.36585
▁like	-9.36614
மான	-9.36685
▁দিয়া	-9.36719
ത്തിന്	-9.36746
ింది	-9.36885
ावर	-9.36973
on	-9.36974
▁வேண்டும்	-9.37008
▁ਕਰਨਾ	-9.37022
ைத்	-9.37199
ಂತ	-9.37256
कर	-9.37303
कड	-9.37346
▁कमी	-9.3758
▁व्यक्ति	-9.37608
▁د	-9.37686
▁പ	-9.3784
▁ਰਿਹਾ	-9.37902
▁কৈছিল	-9.37902
তো	-9.37923
▁two	-9.37966
▁ذریع	-9.37966
ion	-9.37966
▁ਸਥਾਨ	-9.38008
▁ಇದ	-9.38026
गत	-9.38058
▁க	-9.38085
▁വളരെ	-9.38095
▁تر	-9.38157
▁ਹ	-9.38317
ਰੀ	-9.38335
િયન	-9.3842
▁ती	-9.38454
▁વર્ષ	-9.38466
c	-9.38645
▁కోస	-9.38711
▁পিছত	-9.38718
▁ಮೂಲಕ	-9.3876
▁सु	-9.39065
▁جن	-9.39153
▁گئی	-9.39261
▁गर्दछ	-9.39271
▁ఉంటాయి	-9.39273
ಡ್	-9.39287
▁ಪ	-9.39348
▁عام	-9.3939
▁അദ്ദേഹം	-9.39421
▁ম	-9.39458
▁প্ৰথম	-9.39486
▁লোক	-9.39488
نی	-9.3953
ಂದರೆ	-9.3957
▁देखील	-9.39614
▁get	-9.39684
▁ওপৰ	-9.39737
ীয়া	-9.39748
▁کار	-9.4003
▁ఇతర	-9.40133
▁ಬಹಳ	-9.4066
▁ಬಗ್	-9.40662
▁हुन्छन्	-9.40669
ಷ್ಟ	-9.40828
த்தை	-9.41075
▁ಗೆ	-9.41102
ther	-9.41158
▁we	-9.41242
▁আগে	-9.41283
वल	-9.41359
টোৰ	-9.41481
▁কে	-9.41531
ve	-9.41747
கு	-9.41836
ବେଳେ	-9.41843
▁ପୂର୍ବ	-9.4185
▁ফ	-9.41906
ીય	-9.42
▁తరువాత	-9.42069
▁different	-9.42071
▁مقام	-9.42134
▁शो	-9.42171
▁দক্ষিণ	-9.42199
▁جیس	-9.42213
ନ	-9.42223
▁دور	-9.42303
▁अर्थ	-9.4234
माल	-9.42462
पेक्षा	-9.4271
▁আন	-9.42878
▁বহুত	-9.42878
us	-9.43048
▁do	-9.43197
▁बना	-9.43321
शी	-9.43345
▁ଅନେକ	-9.43497
▁ਹੋਇਆ	-9.43504
▁स्थानीय	-9.43529
▁گا	-9.43606
▁মাইল	-9.43614
▁କରି	-9.43652
▁h	-9.43664
▁make	-9.43664
ிய	-9.43699
▁সমস্যা	-9.43719
▁कार्य	-9.43778
▁इन	-9.438
▁প্ৰ	-9.43898
ഡ്	-9.43966
▁used	-9.4406
ி	-9.44117
్లో	-9.44158
▁కు	-9.44185
▁দল	-9.44196
▁पूर्व	-9.44214
ਤਰ	-9.44612
▁ਰਾਜ	-9.44641
▁work	-9.44725
▁તેમન	-9.44747
▁تقریبا	-9.44762
▁উচিত	-9.44947
▁प्राय	-9.44964
▁ச	-9.44982
▁దీని	-9.44983
▁ਖੇਤਰ	-9.45059
▁any	-9.45063
▁فی	-9.45083
▁আইন	-9.45087
▁ਘੱਟ	-9.45147
▁മറ്റ	-9.45262
▁दौरा	-9.45312
▁मात्र	-9.45388
▁यद	-9.45408
▁झाले	-9.45452
▁എന്ന്	-9.45508
▁ਆਮ	-9.45521
▁विश्व	-9.45624
ುತ್ತಾರೆ	-9.45771
▁भारत	-9.45803
ity	-9.45839
▁प्रकाश	-9.45905
▁ال	-9.45944
▁तरी	-9.45986
▁করেন	-9.46009
▁માં	-9.46059
▁போது	-9.46157
ତ	-9.46184
▁समूह	-9.46329
▁आधार	-9.46359
▁মানুষ	-9.46418
▁അത്	-9.46444
▁সহায়	-9.46447
▁north	-9.46449
▁আরও	-9.46451
ଳ	-9.46473
▁भएका	-9.46592
▁رہے	-9.46683
▁bo	-9.46705
▁मानिसहरू	-9.4681
ନ୍ତୁ	-9.46854
▁सम	-9.46882
லாம்	-9.47169
▁आध	-9.47196
▁নাম	-9.47277
▁-	-9.47359
▁ಗಳು	-9.47417
ose	-9.47477
▁ग	-9.47539
▁শেষ	-9.47576
▁th	-9.47621
▁తన	-9.47624
ಿರುವ	-9.47679
ஆம்	-9.47905
▁ଅନ୍ୟ	-9.47908
’	-9.4791
▁দ্বিতীয়	-9.4791
▁হিচাপে	-9.4791
ವೆ	-9.47922
▁ఉన్నాయి	-9.47925
▁যখন	-9.47928
▁u	-9.47929
▁આવ્યા	-9.47931
▁అనేక	-9.47933
ನೇ	-9.47937
ੀਅਨ	-9.47959
வே	-9.47971
‍	-9.48014
▁ചെറിയ	-9.4803
▁என	-9.48051
▁गई	-9.48117
ਤੀ	-9.48187
▁बीच	-9.48217
▁ର	-9.48733
▁ಸಾಮಾನ್ಯವಾಗಿ	-9.4879
▁ಸಹ	-9.48861
ପ	-9.48873
▁ইয়া	-9.4897
▁જેમાં	-9.49055
হলো	-9.49215
▁নাছিল	-9.49444
यपि	-9.49497
▁এমন	-9.49554
▁എ	-9.49603
▁where	-9.49785
▁প	-9.49824
▁விட	-9.49906
డం	-9.50122
▁বহু	-9.50206
▁پیش	-9.50285
▁ചെയ്യുന്നു	-9.50318
▁بار	-9.50346
িং	-9.50398
ନ୍ତ	-9.50428
▁सन्	-9.50441
प	-9.50494
ৰে	-9.50497
▁यद्	-9.5059
யின்	-9.50635
ோ	-9.50698
▁फिर	-9.50724
لے	-9.50816
▁ಇತರ	-9.50848
▁کام	-9.50857
▁गर्छ	-9.50963
▁ଯଦି	-9.50963
▁प्रत्येक	-9.50964
▁ਕਿਉਂ	-9.50964
▁झाला	-9.50978
▁हामी	-9.51001
▁कानून	-9.51037
▁স্থানীয়	-9.51065
▁ਵਧ	-9.51087
very	-9.51196
▁انہ	-9.5144
ುವುದು	-9.51474
▁बार	-9.51553
▁వాటి	-9.51568
ದೆ	-9.51589
▁చేయ	-9.51692
▁ছোট	-9.51725
ور	-9.5232
ار	-9.52395
▁ರಲ್ಲಿ	-9.52428
िएको	-9.525
▁समावेश	-9.52553
க	-9.52554
▁কোৱা	-9.52562
▁உள்ளது	-9.52656
▁करत	-9.52664
ాడు	-9.52693
▁करण्यात	-9.52726
▁know	-9.52835
ுகிறது	-9.52867
▁गरेका	-9.52869
নি	-9.52895
▁ସେମାନଙ୍କ	-9.52931
▁खोज	-9.52944
▁ਬਾਰ	-9.531
r	-9.53144
▁পাছত	-9.53363
ਵ	-9.53396
▁છો	-9.53436
ಕ್	-9.53563
▁ಗಳ	-9.53584
▁हम	-9.53774
▁உங்கள	-9.53802
ern	-9.53824
یت	-9.53839
వి	-9.53847
▁ರ	-9.53866
▁حص	-9.5403
தாக	-9.54033
മുള്ള	-9.54036
▁وی	-9.54037
▁चाहिए	-9.54113
▁ଅଟେ	-9.54114
▁چھوٹ	-9.54119
▁સ્થાન	-9.54119
▁চেষ্টা	-9.5414
▁किए	-9.5416
▁ശേഷം	-9.54189
ق	-9.54233
▁بات	-9.54241
ائی	-9.54413
▁part	-9.54447
▁जैसे	-9.54496
▁என்ற	-9.5457
▁ਵਿਚ	-9.54575
ش	-9.54648
▁हुने	-9.5488
वळ	-9.55174
ांनी	-9.55192
▁নি	-9.55199
▁সময়ত	-9.55291
▁বিশ্ব	-9.553
▁সকলো	-9.55458
▁लोक	-9.5554
▁দিকে	-9.55576
▁रिपोर्ट	-9.5564
▁प्र	-9.55643
▁করেছে	-9.55717
▁south	-9.55726
▁ପ୍ରାୟ	-9.55728
ત	-9.55772
▁موجود	-9.55806
କିଛି	-9.55808
▁మధ్య	-9.55816
▁मूल	-9.559
వచ్చు	-9.55938
out	-9.55976
▁سکتے	-9.56027
▁शब्द	-9.56028
▁ନାହିଁ	-9.56256
مل	-9.56266
▁दोन	-9.56289
ਜ	-9.56332
ില്ല	-9.5634
ਏ	-9.56499
▁کریں	-9.56575
▁show	-9.56752
▁আমা	-9.56773
ലും	-9.56907
ع	-9.56986
▁প্র	-9.57061
▁ତାଙ୍କ	-9.57148
▁उपलब्ध	-9.57168
▁should	-9.57247
▁ବି	-9.57298
▁कार्यक्रम	-9.57301
▁ਤਰ੍ਹਾਂ	-9.5737
▁being	-9.57394
▁शकते	-9.57415
▁re	-9.57439
ਟ	-9.57466
▁যেতিয়া	-9.57555
▁কাম	-9.57566
श	-9.57578
৷	-9.57579
▁ସେମାନ	-9.57585
▁পোৱা	-9.5763
▁લેવા	-9.57636
ng	-9.57638
ु	-9.57693
▁ਮ	-9.57694
▁ہم	-9.57789
েৰে	-9.57816
▁per	-9.5783
▁ବ	-9.57912
لف	-9.57974
▁সং	-9.57984
▁ಹ	-9.57984
▁அது	-9.58074
▁ए	-9.58102
▁ਦੋ	-9.58121
▁whe	-9.58258
ਨਾ	-9.58277
ైన	-9.58294
▁ਜਦੋ	-9.58377
▁গতি	-9.58377
▁শব্দ	-9.58624
▁ని	-9.58675
▁जात	-9.58679
ਲੇ	-9.58729
ದಿಂದ	-9.58758
▁पार	-9.58797
▁water	-9.58824
एं	-9.58879
▁କରନ୍ତି	-9.59033
▁लोकप्रिय	-9.59033
▁કહ્યું	-9.59033
▁अक्सर	-9.59034
▁সৰু	-9.59038
▁such	-9.5904
▁ઉપર	-9.59082
▁de	-9.59111
▁غیر	-9.59124
▁त्याच्या	-9.5914
కుండా	-9.59147
ब	-9.59167
হেতু	-9.59307
்கள்	-9.59308
ौर	-9.59405
ವಾಗಿದೆ	-9.59427
ଙ୍କୁ	-9.59607
▁करण्या	-9.59674
▁উপর	-9.59707
ಿದೆ	-9.59741
▁ക	-9.59868
▁നിങ്ങള	-9.59991
▁आकार	-9.60033
ੂ	-9.60056
▁شام	-9.60151
▁them	-9.60285
▁అతన	-9.603
ণ	-9.60332
▁جہا	-9.60432
▁कभी	-9.60499
▁ਜੇਕ	-9.60523
▁countries	-9.60727
▁ಸಣ್ಣ	-9.60727
▁प्रयास	-9.60728
▁जगह	-9.60728
▁small	-9.60731
▁need	-9.60735
▁अमेरिकी	-9.60749
ତଃ	-9.60754
▁ਯਾਤਰਾ	-9.60757
▁ਕੀਤੇ	-9.60759
▁બીજા	-9.60805
▁अमेरिका	-9.60808
▁ਰੂਪ	-9.60842
▁तीन	-9.60851
▁यांच्या	-9.60872
ల	-9.60958
▁ਵਾਲੀ	-9.61007
▁মূল	-9.61157
▁مخت	-9.61158
▁महत्त्व	-9.61169
انہ	-9.61434
▁ಇ	-9.6146
ಾದ	-9.61487
ப்பட்ட	-9.6149
▁ହେବା	-9.61665
सी	-9.6167
ون	-9.61688
▁ಪ್ರತಿ	-9.61926
▁இரண்டு	-9.6199
▁हिस्स	-9.62024
നും	-9.62029
ांमध्ये	-9.62108
ाई	-9.62202
▁रहा	-9.62244
ంత	-9.62362
▁అయి	-9.62394
क्त	-9.62405
▁బ	-9.62423
▁লাগিব	-9.62453
▁शकतो	-9.62465
▁পাওয়া	-9.62515
नंतर	-9.62545
▁कुरा	-9.62574
▁आपल्या	-9.62703
▁उ	-9.62713
▁اب	-9.62748
ary	-9.62828
▁ش	-9.62869
▁દેશ	-9.63051
ంచి	-9.63115
క	-9.63128
▁ప్ర	-9.63182
▁ಇನ್ನ	-9.63236
పు	-9.63236
ായ	-9.63304
▁ଥିଲା	-9.63452
▁অনু	-9.63501
▁ઘણા	-9.63539
▁প্ৰতি	-9.63581
▁war	-9.63683
▁मध्य	-9.63844
▁அத	-9.63911
▁போன்ற	-9.64059
ल्या	-9.64178
▁पुन	-9.64186
▁جگہ	-9.64206
▁विभिन्न	-9.64206
▁ହେଉଛି	-9.64206
▁just	-9.64207
▁সৃষ্টি	-9.64207
▁જોઈએ	-9.64213
▁કરતા	-9.64227
▁विमान	-9.64265
▁गेले	-9.64265
▁करणे	-9.64274
▁किमी	-9.64278
▁ਤੁਹਾਡ	-9.64302
▁کرتی	-9.64316
▁നിര	-9.64317
▁இருந்து	-9.64337
▁अशा	-9.64391
▁പോലെ	-9.64639
▁ਕਾਰਨ	-9.64704
ियन	-9.64793
▁చిన్న	-9.64804
ामिल	-9.64888
ਅ	-9.64989
ांच्या	-9.65125
▁দিন	-9.65372
▁نام	-9.65448
▁যাওয়া	-9.65563
▁രണ്ട	-9.65646
▁আমি	-9.65914
ং	-9.65957
▁ಅತ್ಯ	-9.65966
▁ਜਿੱਥ	-9.65991
▁తరచుగా	-9.65992
▁ਬਾਹਰ	-9.65993
▁सक्छन्	-9.65994
▁କାରଣ	-9.65994
ంది	-9.66033
▁ନିଜ	-9.66042
▁बढी	-9.66098
▁करतात	-9.66148
களை	-9.66196
▁உலக	-9.66214
જ	-9.66262
▁ضرور	-9.66341
▁جائے	-9.66446
ाप्त	-9.66499
के	-9.6666
ിലേക്ക	-9.66732
ುತ್ತವೆ	-9.66899
▁ਵਾਰ	-9.66979
▁how	-9.67027
व	-9.67215
▁செய்ய	-9.67303
▁चार	-9.67404
▁ਪ੍ਰਤੀ	-9.67476
र्ड	-9.67513
यी	-9.67585
ଟି	-9.67595
ರೆ	-9.67625
▁युरोप	-9.67714
ానీ	-9.67737
▁গাড়ি	-9.67783
ian	-9.67807
▁around	-9.67809
▁తిరిగి	-9.67811
▁गर्छन्	-9.67812
▁राम्रो	-9.6782
െന്ന്	-9.67925
▁अवस्था	-9.67957
दा	-9.67977
▁যোৱা	-9.68046
▁তাৰ	-9.68047
▁വലിയ	-9.68066
ish	-9.68125
▁p	-9.68145
▁आधारित	-9.6817
▁ഉപയോഗിച്ച	-9.68175
▁ସ୍ଥାନ	-9.68251
पैक	-9.68275
▁बदल	-9.68349
▁বিষয়ে	-9.68415
▁चीन	-9.68476
▁ത	-9.6853
ക്കും	-9.68599
క్	-9.68651
లకు	-9.68707
ation	-9.69035
વાર	-9.69163
▁دن	-9.69237
ੜ	-9.69298
▁ভিন্ন	-9.69439
▁પોતાન	-9.69475
ری	-9.69522
▁ಕ	-9.69524
h	-9.69526
یا	-9.69553
▁तुलना	-9.69554
ുക	-9.69659
▁through	-9.69661
▁মৃত্যু	-9.69664
▁अतिरिक्त	-9.69666
▁ஆகும்	-9.69672
ुनिक	-9.69682
വധി	-9.697
▁केंद्र	-9.69776
▁ఏ	-9.69877
▁બે	-9.69922
▁तयार	-9.69927
▁گی	-9.69951
▁बात	-9.70184
ous	-9.70233
▁પ્ર	-9.7024
x	-9.70341
▁travel	-9.70344
सह	-9.70357
▁ख	-9.70428
▁ಆಗ	-9.70583
▁ଜଣ	-9.70588
▁ओर	-9.70596
▁কারণে	-9.70644
▁दे	-9.70739
▁تما	-9.70752
▁ఎ	-9.7109
▁संघ	-9.71201
ങ്ങളിൽ	-9.71232
▁असल्या	-9.71252
▁ਲਗ	-9.71311
▁ક	-9.71355
▁उदाहरण	-9.71548
▁আৰম্ভ	-9.71548
▁অন্যান্য	-9.71548
▁বেলেগ	-9.71548
▁اہم	-9.71548
▁زبان	-9.71548
▁মিলিয়ন	-9.7155
▁எந்த	-9.71552
▁दुई	-9.71564
▁मार्ग	-9.71579
▁high	-9.71581
▁विकस	-9.71616
▁ಅವುಗಳ	-9.71658
▁नि	-9.71675
▁ਸ਼ਹਿਰ	-9.71717
▁ਦ	-9.7175
▁ਵਜ	-9.71752
▁ଦେଶ	-9.71763
▁प्रदर्शन	-9.71861
▁क्या	-9.71869
▁بال	-9.72006
▁લગ	-9.72237
ೋ	-9.72309
াই	-9.72365
ய	-9.72445
ಮ್	-9.72452
এর	-9.72534
वी	-9.72613
▁ഇ	-9.72684
સાર	-9.7274
▁राजा	-9.7276
▁હ	-9.7282
شن	-9.72846
কিন	-9.7289
யை	-9.72997
इसके	-9.73202
▁થયો	-9.73471
▁మాత్రమే	-9.73471
▁क्यों	-9.73473
▁પાણી	-9.73475
▁नाम	-9.73479
▁तेव्हा	-9.73485
▁ବ୍ୟବହାର	-9.73506
▁പലപ്പോഴും	-9.73507
வை	-9.73527
▁ને	-9.73617
▁যাত্ৰা	-9.73683
▁ভিতৰত	-9.73704
▁years	-9.7372
ாவது	-9.73839
ାରେ	-9.73969
বলৈ	-9.73995
فراد	-9.74035
तः	-9.74078
से	-9.74152
▁যেখান	-9.74174
▁सभ	-9.74228
യിലെ	-9.74268
▁او	-9.74427
▁సమయంలో	-9.7454
▁करू	-9.74663
▁లు	-9.74755
▁ആദ്യ	-9.74786
▁എന്നാ	-9.74786
▁ਨਾ	-9.74878
▁उच्च	-9.75027
▁କାର୍ଯ୍ୟ	-9.75097
প	-9.75105
▁அதிக	-9.75106
ظ	-9.75175
▁ಮಾಡಲ	-9.75338
▁back	-9.75358
শাল	-9.75371
ਮੁੱਖ	-9.75378
▁ব্যক্তি	-9.7539
▁ചെയ്തു	-9.75413
▁प्रणाली	-9.75432
▁near	-9.75432
▁ठूल	-9.75434
▁ਪਾਣੀ	-9.75434
▁संख्या	-9.75438
▁ਅਕਸ	-9.75443
▁کوشش	-9.75451
▁मोठ्या	-9.75457
থবা	-9.75462
▁గురించి	-9.75481
▁मद	-9.75485
▁અલગ	-9.75526
▁ਇ	-9.75557
▁i	-9.7558
ુ	-9.75663
▁त्याच	-9.75753
▁long	-9.7578
k	-9.75855
വരുടെ	-9.75857
▁সহজ	-9.7597
▁way	-9.75972
▁सेना	-9.75997
▁ખા	-9.76093
ിലും	-9.76114
جانب	-9.76196
▁بچ	-9.7642
cause	-9.76543
▁పై	-9.76599
▁b	-9.76754
ಿಲ್ಲ	-9.76795
▁પ્રથ	-9.76887
ीत	-9.76991
ic	-9.7705
த்தில	-9.77174
▁তাঁর	-9.77309
▁கால	-9.77323
▁ಕಡಿಮೆ	-9.77387
▁விமான	-9.77393
ప్పటికీ	-9.77424
▁शुरू	-9.77432
▁বেশিরভাগ	-9.77432
▁again	-9.77432
▁ત્યાં	-9.77432
▁खूप	-9.77433
▁down	-9.77434
▁شہر	-9.77439
▁అన్ని	-9.77444
▁குறைந்த	-9.77478
▁city	-9.77482
▁नाहीत	-9.77599
▁అవి	-9.77623
▁बिना	-9.77657
▁ବୋଲ	-9.77659
▁میل	-9.77682
েও	-9.77773
ंड	-9.77793
▁अग	-9.77802
▁शताब्दी	-9.77818
▁தன	-9.77836
▁ক্ষেত্রে	-9.77874
▁వి	-9.77893
▁ఉండే	-9.77895
▁अब	-9.77905
▁हर	-9.7791
ିବା	-9.77919
▁दर	-9.77937
মাত্র	-9.77965
▁प्रवास	-9.78073
▁भर	-9.78078
ਜ਼	-9.78156
or	-9.78169
▁എന്നിവ	-9.78227
வின்	-9.78238
▁ল	-9.78247
یشن	-9.7825
િંગ	-9.78274
▁वापर	-9.78381
▁बड़	-9.78471
▁مح	-9.78475
களுக்கு	-9.7848
▁వంటి	-9.78527
▁ରେ	-9.78584
▁বিমান	-9.78703
യ്ക്ക്	-9.78733
ట్లు	-9.78878
ich	-9.78948
▁કરો	-9.78992
▁जर्मन	-9.78992
କି	-9.79058
▁এজন	-9.79168
ಾರು	-9.79207
▁ਤੁਹਾ	-9.79362
▁सुरक्षा	-9.79389
టే	-9.79405
▁ਹੁ	-9.79452
▁ਵਿਸ਼ੇਸ਼	-9.79457
▁found	-9.79473
▁اکثر	-9.79473
▁म्हणजे	-9.79473
▁ઝડપ	-9.79473
▁ಪ್ರಮುಖ	-9.79473
ભગ	-9.79474
▁जानकारी	-9.79474
ਭਗ	-9.79475
▁ਚਾਹੀਦਾ	-9.79476
▁മുൻ	-9.79508
▁বলে	-9.7953
▁today	-9.79542
▁ஆண்டு	-9.79555
ിന്	-9.79675
▁ہوں	-9.79677
▁கடந்த	-9.79734
▁परिणाम	-9.79743
ان	-9.79757
▁देख	-9.79833
ുകളിൽ	-9.79921
▁মাধ্যমে	-9.79923
▁अच्छ	-9.79931
थ	-9.80088
ंग	-9.80357
▁பயண	-9.80489
پ	-9.80553
▁ತುಂಬ	-9.80569
▁ਉਸਨ	-9.80582
▁उत्तरी	-9.80593
যুক্ত	-9.80703
▁ಉತ್ತಮ	-9.80836
▁వరక	-9.80844
ৎ	-9.80988
হে	-9.80992
लिए	-9.80999
ડ	-9.8105
▁मैल	-9.81126
▁ਕਾਰ	-9.8115
▁अझ	-9.8117
▁ਜ	-9.81207
▁ये	-9.81383
▁தங்கள	-9.8141
ry	-9.81509
!	-9.81556
▁কেতিয়া	-9.81556
▁দ্বাৰা	-9.81557
▁மட்டுமே	-9.8156
▁چیز	-9.81565
▁आरोप	-9.81579
▁আটাই	-9.81588
▁કેટલા	-9.81605
ച്ച്	-9.81614
▁ಸ್ಥಳೀಯ	-9.81616
▁असेल	-9.81627
▁मौसम	-9.81656
▁കാരണം	-9.81667
▁তুলনা	-9.81692
ांना	-9.81785
ക	-9.81792
ছিল	-9.81805
▁वर्ग	-9.81809
ंत	-9.81838
▁पूर्वी	-9.81983
▁ପ	-9.81996
▁ಮಾಡ	-9.82112
▁ಸುಮಾರು	-9.82194
▁रात	-9.82246
▁مع	-9.8232
ମ	-9.82328
▁பெரிய	-9.82378
▁చేసిన	-9.8239
▁কারণ	-9.82603
▁ਗ	-9.82699
▁ದೊಡ್ಡ	-9.82763
▁بل	-9.82769
▁من	-9.82836
▁s	-9.8289
▁m	-9.82912
▁حال	-9.83016
પ	-9.83024
▁మన	-9.83028
▁ਨ	-9.83049
ത്ത്	-9.83081
▁मिल	-9.8312
▁उपयोग	-9.83176
▁বন্ধ	-9.83246
▁بر	-9.83249
കളും	-9.83334
▁सदस्य	-9.8343
ಂದು	-9.83506
னர்	-9.83519
▁ಬ	-9.83547
▁প্ৰদান	-9.83589
▁place	-9.83619
क्षम	-9.83633
▁பெரும்பால	-9.8365
▁ਹਾਂ	-9.83677
▁प्रक्रिया	-9.83684
▁ঘোষণা	-9.83684
▁million	-9.83684
▁છતાં	-9.83684
▁બહાર	-9.83684
▁હશે	-9.83688
▁car	-9.83705
▁மக்கள்	-9.83721
▁موسم	-9.83731
▁উত্তৰ	-9.83816
▁કામ	-9.8383
▁जापान	-9.83844
▁ধরে	-9.83934
▁گے	-9.83941
▁പല	-9.84023
▁what	-9.8405
ിംഗ്	-9.8415
▁आए	-9.84168
▁কয়েক	-9.84293
▁வரை	-9.84318
▁km	-9.84321
▁പ്രധാന	-9.84402
▁જેમ	-9.84446
▁बन	-9.84534
g	-9.84696
ತ್ತು	-9.84837
্য	-9.84908
▁بنا	-9.84957
▁ಮಾಡಿದ	-9.85071
▁ലോക	-9.85153
▁संस्कृति	-9.85167
▁ਅਜਿਹ	-9.85211
▁ചെയ്യ	-9.85377
▁વિશ્વ	-9.85389
▁ପରି	-9.85803
▁वास्तविक	-9.85822
▁ঠাই	-9.85845
▁ଆବଶ୍ୟକ	-9.85848
▁ध्यान	-9.85858
▁निर्णय	-9.85858
▁लहान	-9.85896
▁உள்ளன	-9.85897
▁प्रमुख	-9.85897
▁رہا	-9.85903
▁तुमच्या	-9.85909
▁নয়	-9.85913
▁रह	-9.85968
▁نی	-9.85981
யும்	-9.85986
▁பின்னர	-9.86075
▁ਬਣ	-9.86111
▁made	-9.86169
ങ്ങളുടെ	-9.86279
ਝ	-9.86282
▁आने	-9.86353
▁जाती	-9.86401
▁ہوا	-9.86518
▁राष्ट्रीय	-9.86623
▁இருப்பின	-9.86714
▁ઓછા	-9.86836
▁با	-9.86885
▁વાર	-9.86894
ಗಳಿಂದ	-9.86948
▁ਵੱਡ	-9.87002
▁செல்லும்	-9.87007
▁ਬਦਲ	-9.87065
▁ਪ	-9.87067
▁पहिले	-9.87083
▁পৰি	-9.87203
▁বে	-9.87204
ెడ్	-9.87232
▁ہر	-9.87256
ുമ്പോൾ	-9.87338
িয়ান	-9.87392
ಲೂ	-9.87413
▁সংস্থা	-9.87428
▁বছৰ	-9.87431
▁ଆପଣଙ୍କ	-9.87571
▁घटना	-9.87653
▁তথ্য	-9.87677
లలో	-9.87703
▁इतिहास	-9.87722
▁ભાષા	-9.87918
ಾಗಿದೆ	-9.87948
▁ಹೊಸ	-9.87967
भूत	-9.88026
▁$	-9.88028
ਲੀ	-9.88039
चीन	-9.8804
▁এতিয়া	-9.88052
▁খেল	-9.88062
▁कंपनी	-9.88075
▁अनुमति	-9.8808
▁ਸਮੁੰਦਰ	-9.8808
▁ହୋଇଥାଏ	-9.88081
▁ਅੱਜ	-9.88083
▁નહીં	-9.88083
▁विश्वास	-9.88083
▁তেতিয়া	-9.88084
▁झाली	-9.88085
▁আঘাত	-9.88085
പുതിയ	-9.88087
▁پانی	-9.88088
▁নহয়	-9.88091
ୂର୍ଣ୍ଣ	-9.88094
▁કરતાં	-9.88098
ଦ୍ୱାରା	-9.88101
▁શકાય	-9.88122
मध	-9.88127
▁મોટા	-9.8813
্যন্ত	-9.88137
▁നിങ്ങൾക്ക	-9.88153
▁पार्क	-9.88154
▁વખત	-9.88186
▁प्रयत्न	-9.88186
▁ہوئی	-9.8822
▁ನಾವ	-9.88244
▁लागू	-9.88261
▁একজন	-9.88288
ల్ల	-9.88312
▁എന്നിരുന്നാലും	-9.88325
▁गर्दै	-9.88388
▁महत्व	-9.88417
جاتی	-9.88433
o	-9.88454
▁ਫ	-9.88456
तात	-9.88538
ണ്ട്	-9.88629
ുകയു	-9.88647
▁উত্তর	-9.88669
▁جنگ	-9.8867
▁যার	-9.88673
in	-9.88891
ث	-9.88917
ದರೂ	-9.88961
▁ફ	-9.89042
▁दूसर	-9.89054
ிற்கு	-9.8909
િયાન	-9.892
ట	-9.89211
कल	-9.89255
▁ଲୋକ	-9.89267
▁پ	-9.89323
ନ୍	-9.8933
▁نہ	-9.89357
ବା	-9.89393
▁सहर	-9.8957
▁अंत	-9.8962
▁ਪਹਿਲਾ	-9.89642
▁থাকিব	-9.89702
▁जीव	-9.89707
ాలను	-9.898
▁কাৰণ	-9.89828
▁ਪਾਸ	-9.89872
▁கொண்ட	-9.90103
ਿਆਨ	-9.90156
ೀಯ	-9.90189
ప్పుడ	-9.90192
▁బా	-9.90243
ਸ਼ਨ	-9.90271
த்திற்கு	-9.90282
▁ସେହି	-9.90354
▁આવ્યો	-9.90354
▁हुई	-9.9036
▁मिलियन	-9.90361
▁नदी	-9.90368
▁جہاز	-9.90385
▁দেওয়া	-9.90385
ുന്നതിന്	-9.90386
▁બીજ	-9.90392
▁बाहिर	-9.90394
▁ಮ	-9.90402
▁ਜਿਨ੍ਹਾ	-9.90443
▁যিয়ে	-9.90455
▁ਵਿਅਕਤੀ	-9.90462
▁three	-9.90462
▁ਭਾਸ਼ਾ	-9.90464
▁well	-9.90465
▁જાય	-9.90508
▁આપવા	-9.90531
▁ন	-9.90551
ುವುದರಿಂದ	-9.90559
▁മിക്ക	-9.9056
▁ಎರಡು	-9.90585
▁ਪ੍ਰਾਪਤ	-9.90604
▁टीम	-9.90615
▁দেয়	-9.90685
▁ముందు	-9.90686
▁তাই	-9.90763
▁become	-9.90772
▁ज्ञान	-9.90792
▁মাজত	-9.90818
le	-9.90895
▁home	-9.909
▁چار	-9.90911
▁സ	-9.90964
▁গৈছিল	-9.9102
▁গেছে	-9.9106
▁అధికారుల	-9.91077
▁वेळ	-9.91221
નાં	-9.91248
▁அ	-9.91254
▁ਮਿਲ	-9.91282
▁ಕೂಡ	-9.91297
▁نو	-9.91372
▁দৰে	-9.91391
""	-9.91488
ങ്ങളും	-9.91551
ರುವ	-9.91585
▁शोध	-9.91596
দ	-9.91615
ince	-9.91624
ാം	-9.91664
▁خلا	-9.91671
▁ம	-9.91718
ಿಕ	-9.91763
ment	-9.91804
▁ઓછ	-9.91829
ନ୍ତି	-9.91975
▁नै	-9.92052
▁રહ્યા	-9.9207
ସ	-9.92266
▁number	-9.92354
▁খেলা	-9.92383
▁മുത	-9.92424
▁विशिष्ट	-9.92484
▁आक्रमण	-9.92542
ણ	-9.92585
ग	-9.92606
▁असा	-9.92647
▁प्रवेश	-9.92652
▁মার্	-9.92653
▁ਸ਼ੁਰੂ	-9.92678
తర్వాత	-9.92678
▁शक्ति	-9.92678
▁ਦੂਜ	-9.92678
▁ਦੱਖਣ	-9.92678
▁شروع	-9.92679
▁கூறினார்	-9.92679
▁four	-9.92679
▁government	-9.9268
▁local	-9.92681
▁घोषणा	-9.92682
▁తమ	-9.92684
▁সিহঁত	-9.9269
▁फ्रान्स	-9.92691
▁aol	-9.92693
ंनी	-9.92712
▁गति	-9.92725
▁योजना	-9.92749
ਫਿਰ	-9.92769
ିଏ	-9.92771
ுதிய	-9.92811
▁આધાર	-9.92819
ೊಂದು	-9.92859
▁സ്	-9.93014
ਫ਼	-9.93022
▁संबंध	-9.93024
▁ਘਰ	-9.93044
▁প্রাণী	-9.93045
▁قابل	-9.93103
ਣਾ	-9.93124
णाऱ्या	-9.93136
▁ల	-9.93139
▁সংখ্যা	-9.93169
ൺ	-9.93228
▁ഏക	-9.93252
▁n	-9.93375
డు	-9.93399
પણ	-9.9344
త	-9.93455
▁రోజు	-9.93555
▁ಮುಂದ	-9.93626
▁ਕੁੱ	-9.93751
▁مل	-9.93785
নে	-9.93875
ট	-9.93901
▁खेळ	-9.93941
ੀਆ	-9.94067
▁پی	-9.94239
ുന്നത്	-9.94301
▁ಕಾರಣ	-9.94321
জন	-9.94376
▁ਸ਼	-9.94427
ਵਾਰ	-9.9443
ളും	-9.94466
▁চ	-9.94659
ిన	-9.94703
▁ખૂ	-9.949
ਡ	-9.94943
▁खर्च	-9.94975
▁കാര്യ	-9.94992
▁হাত	-9.94992
▁બને	-9.95007
▁भिन्न	-9.95033
ಂತಹ	-9.95036
▁سطح	-9.95059
▁त्यहाँ	-9.95059
▁ବିଷୟ	-9.95059
▁विकास	-9.9506
▁सकिन्छ	-9.9506
▁بغیر	-9.9506
▁ਉਨ੍ਹ	-9.9506
▁جنوب	-9.95061
▁ହୋଇଥିଲା	-9.95061
▁ಅನೇಕ	-9.95061
▁ਚੀਜ਼	-9.95062
▁இல்லை	-9.95067
▁ਅੰਦਰ	-9.95071
▁પાછ	-9.95074
▁বিশ্বাস	-9.95096
▁स्पष्ट	-9.95099
▁होगा	-9.95101
▁पाकिस्तान	-9.95101
ৱে	-9.95145
▁પહેલા	-9.95157
ுக்கான	-9.9516
▁ਜਿਵੇਂ	-9.95173
▁शा	-9.95225
▁ତାହା	-9.95256
▁উপায়	-9.95264
ாகும்	-9.95301
▁شمال	-9.95313
▁హ	-9.95355
▁ن	-9.95364
আশা	-9.95365
▁इ	-9.95371
▁చేయడం	-9.95427
મી	-9.95473
▁ವಿಶ್ವ	-9.95556
▁অঞ্চল	-9.95579
▁ਉੱਤ	-9.95617
യാണ്	-9.95641
ਵੀਂ	-9.95678
▁year	-9.9569
▁గా	-9.95759
मेल	-9.95796
▁জ	-9.95866
▁ஆண்ட	-9.95987
▁অলিম্পিক	-9.96007
w	-9.96053
▁ਧ	-9.96061
തിനാൽ	-9.96073
▁શહેર	-9.96081
ಿತ	-9.96158
یہ	-9.96163
▁बजे	-9.9621
▁دوران	-9.96234
▁सामान्यत	-9.96333
ത	-9.96335
▁શોધ	-9.96475
▁बर्फ	-9.9648
▁स्तर	-9.96491
▁ഇത	-9.96506
▁करणार	-9.96527
▁સામે	-9.96557
▁ആളുകൾ	-9.96559
ਵਾਲਾ	-9.96583
est	-9.96635
ुनिया	-9.96687
ৃত	-9.96694
ਵਰ	-9.96702
▁ಯುದ್ಧ	-9.96716
ுடன	-9.96717
▁تم	-9.96754
▁see	-9.96818
வில்லை	-9.96965
▁ਕੋਲ	-9.97001
▁கூட	-9.97044
▁એમ	-9.97075
धील	-9.97161
▁ନ	-9.97169
an	-9.9719
ಿವೆ	-9.97248
▁ਪ੍ਰਭਾਵ	-9.97292
ന	-9.9732
▁f	-9.97339
ಲ್ಲ	-9.9736
▁st	-9.97415
ಯಲ್ಲಿ	-9.97415
▁असू	-9.97416
▁दूर	-9.97432
▁অৱস্থা	-9.97453
ਾਅ	-9.97471
▁অর্থ	-9.97498
▁system	-9.97498
▁تاہم	-9.97498
▁காரணமாக	-9.97498
▁गर्‍यो	-9.97499
▁જ્યાં	-9.97499
▁స్థానిక	-9.97499
▁કર્યો	-9.975
▁رفتار	-9.97501
▁ਲੋੜ	-9.97502
▁नयाँ	-9.97503
▁متعد	-9.97503
▁ਤਰੀਕ	-9.97503
▁परिवर्तन	-9.9751
▁every	-9.97518
▁भयो	-9.97519
▁ଗୋଟ	-9.97526
ଭାବେ	-9.97536
▁ಅವು	-9.97614
▁try	-9.97623
▁ତ	-9.97638
▁गोल	-9.97659
▁নিশ্চিত	-9.97659
▁ਉੱਤਰ	-9.97679
▁जहाज	-9.97691
ness	-9.97704
▁లే	-9.97869
▁आला	-9.97896
▁हात	-9.97926
▁حمل	-9.97986
▁দ্বীপ	-9.98048
▁गर्नु	-9.98057
▁ल	-9.9813
▁तसे	-9.98164
▁જોવા	-9.98184
▁मान	-9.9824
▁व्या	-9.98254
ണം	-9.98289
ांचा	-9.98383
▁চেয়ে	-9.98548
▁पर्यटक	-9.9862
▁ನೀಡ	-9.9864
▁ત	-9.98725
మ్	-9.98813
▁तेल	-9.98845
गी	-9.98998
ह	-9.9903
▁भेट	-9.99043
▁کیے	-9.99087
▁మా	-9.99106
ਸਲ	-9.99135
▁ف	-9.99207
েন	-9.99306
▁बच्च	-9.9933
देखि	-9.99343
്റെ	-9.99365
▁खाना	-9.9939
▁visit	-9.99418
▁ਹਵਾ	-9.99442
▁पत्त	-9.99497
চেয়ে	-9.9951
द्वार	-9.99576
ty	-9.99602
رات	-9.99653
▁थ	-9.99685
▁ਹਰ	-9.99707
▁এনে	-9.99783
▁ما	-9.99849
▁कद	-9.9999
▁পাৰি	-9.99996
▁યુરોપ	-9.99998
▁ਕੋਸ਼ਿਸ਼	-9.99998
▁ଆରମ୍ଭ	-9.99998
▁ପ୍ରଥମ	-9.99998
▁తక్కువ	-9.99998
▁ਮਹੱਤਵਪੂਰ	-9.99998
▁सिद्धांत	-9.99998
▁થયા	-9.99999
▁असताना	-10
▁জাতীয়	-10.0001
▁پیدا	-10.0001
▁પાસે	-10.0001
▁جانور	-10.0002
▁అవసరం	-10.0002
▁రెండ	-10.0002
▁हवाई	-10.0003
▁help	-10.0003
▁ਜਾਂਦੀ	-10.0004
दार	-10.0012
▁ప్రధాన	-10.0016
ుగా	-10.0016
▁বস্তু	-10.0017
▁ജോലി	-10.0019
ിന്റെ	-10.0021
▁ਸਕਦੀ	-10.0021
રી	-10.0022
▁گرم	-10.0025
▁ମଧ୍ୟରେ	-10.0035
ً	-10.0041
▁واقع	-10.0043
ിയൻ	-10.0045
▁ସାଧାରଣ	-10.0045
▁সরকার	-10.0047
▁عمل	-10.0047
▁मात्रा	-10.0053
യോ	-10.0061
േ	-10.0066
াৰ	-10.0067
களில்	-10.0068
▁रहन	-10.0071
▁end	-10.0077
ಯೇ	-10.0085
ಲಾಯಿತು	-10.0089
▁ಭೇಟಿ	-10.0097
▁प्रसिद्ध	-10.0119
▁لینڈ	-10.0121
▁बने	-10.0122
ంలో	-10.0132
ਕਾ	-10.0135
িয়ে	-10.0136
▁पुरान	-10.0143
▁పెద్ద	-10.0146
▁దేశాల	-10.0165
യ	-10.0169
▁لی	-10.0172
▁دیکھ	-10.0192
▁उसक	-10.0197
ాయి	-10.0204
ସ୍	-10.0213
निक	-10.0214
▁દરમ	-10.0216
▁ప్రజల	-10.0228
શ	-10.024
▁तौ	-10.0246
▁ஒன்று	-10.0247
thing	-10.0249
▁करण्याच	-10.0254
▁প্ৰয়োজন	-10.0254
▁முக்கிய	-10.0255
▁طریق	-10.0256
▁যথেষ্ট	-10.0256
▁મુખ્ય	-10.0256
▁સમાવેશ	-10.0256
▁కొత్త	-10.0256
▁માઇલ	-10.0256
थापि	-10.0257
twe	-10.0257
▁अति	-10.0257
▁ਪੈਦਾ	-10.0257
▁మొదటి	-10.0258
▁روشن	-10.0258
▁दशक	-10.0259
▁તરફ	-10.0261
▁কৰিলে	-10.0261
▁नवीन	-10.0261
▁নদী	-10.0261
▁ആണ്	-10.0261
▁அளவு	-10.0262
ిక	-10.0262
▁കഴിഞ്ഞ	-10.0266
▁সম্ভব	-10.0268
▁प्रथम	-10.0269
long	-10.027
▁সমস্	-10.0272
▁কখন	-10.0272
ય	-10.0273
ाचित	-10.0273
▁culture	-10.0277
▁व्यवहार	-10.0277
▁ক্ষতি	-10.0277
"".	-10.0279
ئے	-10.028
ాల	-10.0288
উ	-10.0293
▁now	-10.0296
▁નામ	-10.0304
▁மூலம	-10.0304
షన్	-10.0305
ਲਬ	-10.0305
▁راست	-10.0311
ലേക്ക	-10.0313
▁اسی	-10.0319
ांश	-10.0319
▁जर्मनी	-10.0328
▁জাপান	-10.0332
▁സ്വ	-10.0334
▁मानव	-10.0342
റ്റ	-10.0343
▁ಇದರ	-10.0349
▁ಜಾಗ	-10.0349
पता	-10.0363
▁take	-10.0364
▁राष्ट्र	-10.0366
▁day	-10.0372
▁সম্পর্কে	-10.0372
গত	-10.0374
ए	-10.0378
ছে	-10.0392
▁national	-10.0394
▁ਉ	-10.0404
▁मु	-10.0406
▁رکھ	-10.0417
সকল	-10.0429
▁unit	-10.0431
ल्यानंतर	-10.0446
اً	-10.0451
▁फोन	-10.0459
तार	-10.0469
ेली	-10.0469
हां	-10.047
ेशन	-10.0472
▁ز	-10.0475
த்த	-10.0476
▁due	-10.0483
▁च्या	-10.0486
▁কাৰ্য	-10.0487
െങ്കിൽ	-10.049
▁کھیل	-10.0494
▁అయిన	-10.0495
▁ਗੱਲ	-10.0503
▁छैन	-10.051
வேறு	-10.0511
्य	-10.0512
▁ಉತ್ತರ	-10.0512
▁ভ	-10.0515
ळ	-10.0517
▁मोठ	-10.0517
▁ప్రతి	-10.0518
▁अध्ययन	-10.0519
▁কঠিন	-10.0519
▁દક્ષિણ	-10.0519
▁રહી	-10.0519
▁पिछल	-10.0519
▁विरोध	-10.0519
▁جزیر	-10.052
▁કર્યા	-10.052
▁మరి	-10.052
▁असतो	-10.052
▁ઉત્તર	-10.0521
▁കഴിയും	-10.0522
ଗତ	-10.0523
▁give	-10.0523
▁இருந்தது	-10.0524
▁animals	-10.0526
▁சிறந்த	-10.0526
▁برف	-10.0527
▁ہوت	-10.053
▁مقابل	-10.0531
▁शरीर	-10.0532
▁சுற்றுலா	-10.0537
ासाठी	-10.0545
▁నీటి	-10.0549
▁वैज्ञानिक	-10.055
অ	-10.0559
▁সক্ষম	-10.056
▁दिए	-10.0561
▁ক্ষেত্ৰত	-10.0563
▁ଅନୁ	-10.0564
▁धर्म	-10.0565
▁இல்	-10.057
ైనా	-10.0574
ായിരുന്നു	-10.0575
▁خاص	-10.0582
বল	-10.0597
▁વિના	-10.0599
▁سو	-10.0605
ive	-10.0606
▁সহ	-10.0607
▁തന്നെ	-10.0612
▁યુ	-10.0612
▁তল	-10.0613
▁ಈಗ	-10.0613
ेव्हा	-10.0615
णे	-10.0624
▁জায়গা	-10.0628
▁ପ୍ରତି	-10.0632
ਿਸ	-10.0639
▁పాట	-10.0639
▁সদস্য	-10.064
▁ਵੱਖ	-10.0651
യം	-10.0652
▁જવા	-10.0653
ৰী	-10.0656
ോൺ	-10.066
▁असल्याच	-10.0661
▁గత	-10.0671
যারা	-10.0681
▁श्रेणी	-10.0683
▁ହୋଇ	-10.0684
▁ପ୍ର	-10.0685
ঃ	-10.0689
ટ	-10.0691
▁महिला	-10.0695
કારી	-10.0699
▁ج	-10.0706
▁दिले	-10.0718
گی	-10.072
▁শিশু	-10.0721
▁sea	-10.0728
▁સ	-10.0729
ਮੀ	-10.0738
▁पदार्थ	-10.0744
िया	-10.0751
▁गर्द	-10.0752
ોની	-10.0757
ండి	-10.0759
ਕਾਰੀ	-10.0769
▁જાણ	-10.0778
▁বাস	-10.078
▁એટલ	-10.0782
▁প্রয়োজন	-10.0787
مالک	-10.0789
▁गतिविधि	-10.079
▁मंदिर	-10.079
▁great	-10.079
▁సంస్థ	-10.079
▁few	-10.079
▁last	-10.0791
▁रोमन	-10.0791
▁sever	-10.0791
▁ہوگا	-10.0791
ੁਕਤ	-10.0791
▁before	-10.0791
▁इंटरनेट	-10.0792
▁सांगितले	-10.0792
ৱ	-10.0792
▁ਬੱਚ	-10.0793
▁तब	-10.0793
▁जॉन	-10.0794
▁बाहर	-10.0796
▁অহা	-10.0796
▁ஆம்	-10.0797
▁రెండు	-10.0802
▁w	-10.0802
▁children	-10.0803
▁general	-10.0804
ात्मक	-10.081
யே	-10.0811
▁زمین	-10.0813
ाले	-10.0814
▁ജ	-10.0814
▁વધારે	-10.0817
വ	-10.0818
▁கொண்டு	-10.0818
▁નોંધ	-10.0819
▁కే	-10.0821
▁क्रम	-10.0822
▁start	-10.0825
रिक	-10.0826
▁সুবিধা	-10.0826
କ୍	-10.0827
▁सुविधा	-10.0827
▁ਦੇਖਣ	-10.0828
▁states	-10.083
▁ವಿಶೇಷ	-10.0832
ਸਮਾਨ	-10.0837
▁বিষয়	-10.0847
▁पुष्ट	-10.0856
▁उत्पादन	-10.0856
▁విధ	-10.0857
▁usual	-10.086
▁కా	-10.0865
▁அனைத்து	-10.0872
▁குறித்த	-10.0875
▁পদ্ধতি	-10.0878
ಬಹುದಾದ	-10.0879
▁আর	-10.089
▁बंद	-10.0901
▁बनाउन	-10.0906
▁জ্ঞান	-10.0908
ந்து	-10.0911
▁ಎ	-10.0916
ight	-10.0926
▁ಸಹಾಯ	-10.0927
▁সংস্কৃতি	-10.0932
▁ಎರಡ	-10.0934
▁କ	-10.0936
ದೇ	-10.0936
▁सह	-10.0938
▁तरीक	-10.094
▁आग	-10.0942
▁জাহাজ	-10.0943
▁अन	-10.0949
ളുടെ	-10.0949
▁ফির	-10.0953
▁স্থানে	-10.0963
▁آف	-10.0966
▁ವರ್ಷಗಳ	-10.0981
കളിൽ	-10.0988
ക്കാൻ	-10.0997
▁ski	-10.0998
▁অনুসৰ	-10.1017
▁జన	-10.1018
തായി	-10.102
▁സമയത്ത	-10.1031
जारी	-10.1031
▁असले	-10.1039
▁ठ	-10.1041
▁വർഷ	-10.1044
▁نا	-10.1048
▁چل	-10.1058
▁போல	-10.1063
▁सुरक्षित	-10.1066
▁করবে	-10.1067
▁મુલાકાત	-10.1067
°	-10.1067
▁another	-10.1067
▁सार्वज	-10.1067
▁ਟਾਪੂ	-10.1067
▁નજીક	-10.1067
▁ಮಕ್ಕಳ	-10.1067
اقوام	-10.1067
▁واپس	-10.1067
▁मृत्यु	-10.1068
▁હોઈ	-10.1068
▁common	-10.1068
▁કર્યું	-10.1068
▁ممکن	-10.1068
▁આવ્યું	-10.1068
▁ଯେତେ	-10.1068
فی	-10.1068
▁কেবল	-10.1069
▁स्टेशन	-10.107
▁सेंट	-10.107
▁ধরণ	-10.1071
▁કાર્ય	-10.1072
▁મળી	-10.1072
▁ಅವನ	-10.1073
▁ਪੇਸ਼	-10.1074
▁नियमित	-10.1075
▁അടുത്ത	-10.1077
▁இ	-10.1077
▁হয়৷	-10.1078
▁ಅಲ್ಲಿ	-10.1078
▁allow	-10.1079
▁আধুনিক	-10.1081
▁ఎక్కువగా	-10.1082
▁বাইরে	-10.1082
▁सीमा	-10.1084
▁हुन्	-10.1084
▁ସମସ୍ତ	-10.1085
▁येथे	-10.1089
▁करें	-10.1089
▁सतह	-10.1091
কারী	-10.1092
▁अव	-10.1099
୍ୟ	-10.1101
ਲੈਂਡ	-10.1105
▁ਖੇਡ	-10.1109
▁لائن	-10.111
▁अंतर्	-10.1111
▁भार	-10.1124
▁বলা	-10.1125
ول	-10.1126
ೆಡ್	-10.1127
▁দেখ	-10.1127
▁একে	-10.113
▁पा	-10.113
▁நிலை	-10.1139
▁جرمن	-10.1143
▁व्यक्तिहरू	-10.1144
ড়ে	-10.1157
বিলাক	-10.1158
▁କେବ	-10.1158
▁त्याने	-10.1163
▁ज़	-10.117
▁যিটো	-10.1175
▁ବା	-10.1177
▁लोकां	-10.1178
▁air	-10.118
▁ਵਾਸ	-10.1187
ల్	-10.1189
▁அவர	-10.1193
റ	-10.1193
ଶ	-10.1195
మీ	-10.1199
ಕ್ಕೂ	-10.1204
▁ইতিহাস	-10.1208
▁ਉੱ	-10.1215
m	-10.1215
▁পাৰ	-10.1217
▁ਵਰਗ	-10.122
▁ई	-10.1221
ா	-10.1221
,"	-10.1229
▁ಅತಿ	-10.1231
▁ಕಾಲ	-10.1234
▁இருக்க	-10.1239
போது	-10.1245
▁ರಂದ	-10.1246
▁ભાર	-10.1257
ाचा	-10.1259
னால்	-10.1259
...	-10.126
▁ਰਹੀ	-10.1265
▁পথ	-10.1275
▁बनाए	-10.1277
யான	-10.1288
▁દેશો	-10.1295
ೆಯೇ	-10.1298
ায়ী	-10.13
▁/	-10.1303
▁दूसरे	-10.1309
▁लक्ष	-10.1311
نیا	-10.1311
▁આજ	-10.1319
te	-10.1326
யாக	-10.1332
వారం	-10.1333
▁యు	-10.1333
ਯੋਗ	-10.1336
▁જરૂર	-10.134
though	-10.1341
▁लाम	-10.135
▁വടക്ക	-10.1351
▁second	-10.1353
▁ഓരോ	-10.1353
▁ਸ਼ੁਰੂਆਤ	-10.1353
▁protest	-10.1353
▁பொதுவாக	-10.1353
▁କରାଯାଇଥିଲା	-10.1353
▁mri	-10.1353
▁अनुमान	-10.1353
▁each	-10.1353
▁व्यापार	-10.1353
▁প্রধান	-10.1354
▁much	-10.1354
▁बहुतांश	-10.1354
▁چاہئے	-10.1355
▁তখন	-10.1355
्हा	-10.1355
ৱল	-10.1356
▁reported	-10.1362
▁ठिकाण	-10.1365
▁though	-10.1365
ਗ	-10.1366
▁एखाद्या	-10.1366
▁स्थिर	-10.1367
▁ਅੱਗ	-10.1367
▁قسم	-10.1369
▁કેટલી	-10.137
▁చేస్తుంది	-10.1375
▁خطر	-10.1378
▁पर्य	-10.1379
▁गरिरहेक	-10.1382
കളെ	-10.1383
▁जाना	-10.1388
▁କରେ	-10.139
▁ಬಹು	-10.1394
ತೆ	-10.1395
▁बस	-10.14
▁বাহিৰ	-10.1404
▁ऑस्ट्रेलिया	-10.1409
▁એવ	-10.1417
▁ਥ	-10.1417
▁ಆದ	-10.1417
▁অনুসন্ধান	-10.1417
▁बाहेर	-10.1418
▁ਲਿਆ	-10.1423
▁নামে	-10.1425
ಿದ್ದು	-10.1425
▁ਜਾਂਦੇ	-10.1433
▁পড়া	-10.1434
▁چ	-10.1437
▁గ	-10.1448
▁জনা	-10.1462
▁किन	-10.1466
▁रहेका	-10.1472
ವ	-10.1476
ਾਈ	-10.148
▁જોક	-10.1483
▁సంవత్సరాల	-10.1485
▁വരെ	-10.1486
▁ਉਸਦ	-10.15
▁செல்ல	-10.1502
চ	-10.1511
▁ਕਰਦੀ	-10.1516
▁फ़	-10.1519
▁అంద	-10.1522
▁ਪਾ	-10.1525
▁name	-10.1527
க்கும்	-10.1529
▁बुक	-10.1532
▁ಮಾಡುವ	-10.1532
▁ইউনিয়ন	-10.1536
▁केल्या	-10.1542
▁പ്ര	-10.1553
ୟ	-10.1555
▁लोकांन	-10.1558
പ്പോ	-10.1563
▁मानिस	-10.1569
▁അദ്ദേഹത്ത	-10.1574
▁દિવસ	-10.1578
ಿದರು	-10.1583
▁மற்ற	-10.1585
▁अंतर	-10.1589
▁ചെയ്യുന്ന	-10.1593
ଗୁଡିକ	-10.1593
▁কৰাটো	-10.1597
▁बढ़	-10.1599
টির	-10.16
▁ای	-10.1603
ण्यात	-10.1606
ড	-10.1618
▁بی	-10.1622
▁mean	-10.163
ੋ	-10.1631
ाची	-10.1631
▁બધા	-10.1635
▁ভয়	-10.1641
▁उहाँ	-10.1647
▁अध्यक्ष	-10.1647
▁केन्द्र	-10.1647
▁વચ્ચે	-10.1647
▁ଅଛି	-10.1647
▁દૂર	-10.1647
▁ਤਿੰਨ	-10.1647
▁বড়	-10.1647
▁અર્થ	-10.1647
▁still	-10.1647
▁जहाँ	-10.1647
▁చెందిన	-10.1648
▁ਕਿਲੋ	-10.1648
▁ଶକ୍ତି	-10.1648
▁ಭಾಷೆಯ	-10.1648
▁લઈ	-10.1649
ତେବେ	-10.1649
وقع	-10.165
▁miles	-10.165
▁ਜਾਂਚ	-10.165
▁say	-10.165
▁स्थिति	-10.1651
▁remain	-10.1652
▁ਉਸਨੂੰ	-10.1652
▁ହୋଇଥିବା	-10.1653
▁اندر	-10.1654
▁ਕੇਂਦਰ	-10.1655
▁ந	-10.1655
▁ਬਣਾਉਣ	-10.1655
▁চীন	-10.1657
▁ਹੁੰਦੀਆਂ	-10.1658
▁ಸ್ವಲ್ಪ	-10.1658
▁दुर्घटना	-10.166
▁सूर्य	-10.166
▁अपेक्षा	-10.1662
▁ਛੋਟੇ	-10.1664
▁આપે	-10.1666
▁সেখান	-10.1669
▁മാത്ര	-10.1669
▁same	-10.1671
▁फरक	-10.1674
▁जातात	-10.1674
▁જરૂરી	-10.1675
▁ਖੋਜ	-10.1676
▁ਗਰਮ	-10.1678
▁ପର୍ଯ୍ୟ	-10.1678
▁century	-10.168
▁મેળવવા	-10.1683
▁hand	-10.1685
▁ಹಿಂದಿನ	-10.1686
▁ବର୍ଷ	-10.169
ିଂ	-10.1691
▁કાર	-10.1692
▁লাগে	-10.1693
▁আজি	-10.1702
▁میٹر	-10.1706
ുമായി	-10.1709
▁गर्म	-10.1709
▁पैद	-10.1709
▁కొర	-10.171
▁যিবোৰ	-10.1712
▁जीवन	-10.1713
ர்கள்	-10.1715
▁لیا	-10.1723
▁جی	-10.1729
▁ട	-10.1731
▁వ్యక్తుల	-10.1734
▁قائ	-10.1735
▁नाव	-10.1736
िन	-10.1738
▁ठाउँ	-10.1741
▁ਉਪ	-10.1741
മ	-10.1744
▁جسے	-10.176
▁ফোন	-10.1766
▁સમ	-10.1767
ിലൂടെ	-10.1768
▁આવેલ	-10.177
▁ਦਿੰਦ	-10.1771
▁அனுமதி	-10.1771
▁لا	-10.1781
▁ଯୋଗ	-10.1783
▁अधिकारि	-10.1785
ാനുള്ള	-10.1788
ಶ	-10.1791
ेल	-10.1798
ಃ	-10.18
▁जी	-10.1827
ائل	-10.184
▁جار	-10.1845
ವೇ	-10.1848
ளவு	-10.1854
ीक	-10.1857
స్తుంది	-10.1859
▁நிலைய	-10.1861
▁ಸಾ	-10.1868
▁দ	-10.1876
ط	-10.188
౦	-10.1883
▁ബ	-10.1884
▁ಗಂಟೆ	-10.1885
ंना	-10.1887
▁गरिएक	-10.1894
▁తో	-10.1898
શે	-10.1903
▁تعمیر	-10.1904
▁حد	-10.1906
ಿತು	-10.1909
▁পায়	-10.191
ੇਰੇ	-10.1911
मी	-10.1912
▁सुधार	-10.1915
नुसार	-10.1917
▁include	-10.1919
▁consider	-10.1921
▁ହ	-10.1922
▁కాలం	-10.1922
▁ইউরোপ	-10.1923
▁बे	-10.1923
▁সঙ্গ	-10.1928
▁find	-10.1932
▁उप	-10.1935
বে	-10.1935
▁ਕਰੋ	-10.1935
▁ಕೆಲಸ	-10.1942
▁চৰকাৰ	-10.1947
▁ঘৰ	-10.1949
gp	-10.195
▁آخر	-10.195
▁متاثر	-10.195
▁متعلق	-10.195
▁অভিজ্ঞতা	-10.195
▁জড়িত	-10.195
▁প্ৰভাৱ	-10.195
▁শুধু	-10.195
▁ਅਮਰੀਕ	-10.195
▁અહેવાલ	-10.195
▁બાજુ	-10.195
▁ਬਿਨਾਂ	-10.195
▁చుట్ట	-10.195
▁सुरू	-10.1951
▁କରିଥାଏ	-10.1951
▁under	-10.1951
▁मार्च	-10.1951
▁थप	-10.1951
▁మరో	-10.1951
▁ಹೇಳಿದರು	-10.1952
▁سمندر	-10.1952
▁कोणत्या	-10.1952
▁ਦਿੱਤੀ	-10.1953
▁ರೀತಿಯ	-10.1957
$	-10.1957
▁स्थानिक	-10.1959
విధ	-10.1959
तलब	-10.196
▁পরিবর্তন	-10.1961
▁روز	-10.1963
▁द्वीप	-10.1965
▁కి	-10.1965
▁look	-10.1965
▁চনৰ	-10.1966
▁അവിടെ	-10.1967
▁দূর	-10.1967
▁छोटे	-10.1969
▁माहिती	-10.1969
గల	-10.197
▁लंब	-10.1972
▁ला	-10.1972
▁રહેવા	-10.1974
▁পৃথিবী	-10.1974
▁cent	-10.1976
ਦ	-10.198
ीन	-10.1981
वे	-10.1983
ାଂଶ	-10.1983
▁રાખવા	-10.1984
▁পূর্ব	-10.1984
਼ੀ	-10.1985
رین	-10.1991
জনক	-10.1996
▁team	-10.1999
▁സമയ	-10.2002
करण	-10.2003
▁সেনা	-10.2004
▁offer	-10.2007
▁প্রভাব	-10.2007
▁light	-10.2008
▁ਸਾ	-10.2008
▁आता	-10.2012
▁ಸಮಯ	-10.2017
▁v	-10.2019
ନା	-10.2024
க்க	-10.2033
▁پا	-10.2033
▁ਦਿਨ	-10.2034
▁আগতে	-10.2043
▁પૂર્વ	-10.2044
▁ਸਦੀ	-10.2044
▁ఎందుక	-10.2045
لی	-10.2047
▁ഒ	-10.2049
জ	-10.205
▁অফ	-10.205
▁পৃথিৱী	-10.2056
▁പോല	-10.2058
▁वि	-10.2062
ure	-10.2065
کل	-10.2067
▁ഇന്ന	-10.2076
▁ಇಂದ	-10.2077
▁મુ	-10.2086
ଲ	-10.2094
ಿಂದಾಗಿ	-10.21
▁ಒ	-10.21
▁पर्यटन	-10.2105
▁નો	-10.2114
ೊಂದಿಗ	-10.2119
▁ವಿಮಾನ	-10.2134
▁വ	-10.2147
▁आण	-10.215
▁રહે	-10.215
▁dis	-10.2161
ತ	-10.2163
▁بند	-10.2166
ಯು	-10.2174
▁d	-10.2177
تی	-10.2178
ચ	-10.2181
▁use	-10.2182
ത്ത	-10.2189
▁ದಕ್ಷಿಣ	-10.2192
নের	-10.2192
▁അവര	-10.2195
▁در	-10.2203
రీ	-10.2211
এ	-10.2214
கிறது	-10.2216
ंचे	-10.2226
ver	-10.2228
▁قانون	-10.2228
▁temple	-10.2228
ಲಾಗಿದೆ	-10.2231
▁state	-10.2233
लो	-10.2233
▁ಸ್ಥಳ	-10.2239
▁بہتر	-10.224
ிருந்து	-10.2254
▁উৎস	-10.2255
▁সম্পৰ্ক	-10.226
মূলক	-10.226
▁વિવિધ	-10.2261
▁ਵਿਸ਼ਵ	-10.2263
▁گھر	-10.2263
▁অনুমতি	-10.2263
▁আলাদা	-10.2263
▁ଅତି	-10.2263
▁ನಿರ್ದಿಷ್ಟ	-10.2263
▁ಬಹುತೇಕ	-10.2263
▁major	-10.2263
▁ਜਹਾਜ਼	-10.2263
▁درمیان	-10.2263
▁follow	-10.2263
▁କହିଛନ୍ତି	-10.2263
▁police	-10.2263
▁शायद	-10.2263
▁ఉత్తర	-10.2263
▁পাইছিল	-10.2263
▁چند	-10.2263
▁કદ	-10.2264
▁ज़रूरत	-10.2265
▁africa	-10.2265
ীন	-10.2265
▁প্রকাশ	-10.2266
▁সম্পূৰ্ণ	-10.2268
▁হচ্ছে	-10.2269
▁خود	-10.2269
▁good	-10.227
▁stay	-10.2271
ಗ್ಯೂ	-10.2273
কোনো	-10.2274
వద్ద	-10.2276
साना	-10.2276
▁स्वास्थ्य	-10.2278
▁নিৰ্মাণ	-10.2278
▁ಮಾಡಿ	-10.228
▁অৰ্থ	-10.2287
وی	-10.229
▁చేసే	-10.2292
▁ਘੰਟ	-10.2298
▁নিজে	-10.23
▁ஏ	-10.23
▁থাক	-10.23
▁तट	-10.2301
▁ಮೂಲ	-10.2303
▁प्रेर	-10.2309
▁नए	-10.2315
▁મોટ	-10.2317
▁ಗ್ರೀ	-10.2321
▁লেন্স	-10.2323
▁સા	-10.2326
▁देशहरू	-10.2326
▁खास	-10.2339
▁কাছে	-10.2341
▁টা	-10.2344
▁மீ	-10.2351
▁بین	-10.2353
য়া	-10.2367
▁ગયા	-10.2372
▁मह	-10.2373
▁ਭਰ	-10.2375
▁ದ್ವೀಪ	-10.238
ைச்	-10.2381
▁निकाल	-10.2383
▁போக்குவரத்த	-10.2383
▁co	-10.2383
▁ഉള്ള	-10.2385
▁পা	-10.2386
▁த	-10.2388
▁ಸಾಮಾನ್ಯ	-10.2396
▁सम्बन्ध	-10.24
റ്റ്	-10.2404
ਪਤਾ	-10.2413
ೊ	-10.2414
▁जाण	-10.2417
মান	-10.2423
▁સરકાર	-10.2424
▁সেইবোৰ	-10.2439
ઈ	-10.2454
▁ಪ್ರಾಣಿಗಳ	-10.2454
्यात	-10.246
▁वी	-10.2461
▁जल	-10.2462
વું	-10.2467
▁నా	-10.2472
▁ਇਨ	-10.2477
ऱ्या	-10.2482
ান	-10.2484
▁base	-10.2509
▁e	-10.251
स्त	-10.2513
▁ਲੱਗ	-10.2523
०	-10.2523
ામાં	-10.2524
▁મ	-10.2535
્યા	-10.2538
ക്ക	-10.2541
▁بن	-10.2544
▁ফলে	-10.2547
▁ಆದಾ	-10.2548
▁con	-10.2549
▁سکتی	-10.2549
▁ਇਸਦੀ	-10.255
ڈ	-10.2555
▁ছ	-10.2555
ance	-10.2564
வில்	-10.2571
▁ਰਾਸ਼ਟਰ	-10.2575
ગ	-10.2577
▁पुस्तक	-10.2577
▁तरिका	-10.2581
▁rem	-10.2582
ਰਾਤ	-10.2582
▁प्रस्ताव	-10.2582
▁ಬಳಿ	-10.2583
▁ಸಂಪರ್ಕ	-10.2583
শীল	-10.2584
ୃଷ୍ଟି	-10.2585
?	-10.2585
▁ਇੱਥ	-10.2585
▁ਜਰਮਨ	-10.2585
▁ਯਾਤਰੀ	-10.2585
▁official	-10.2585
▁उद्योग	-10.2585
▁നിയമ	-10.2585
▁अगाडि	-10.2585
▁आसान	-10.2586
▁जाऊ	-10.2586
▁खुद	-10.2586
▁বলেছিলেন	-10.2586
▁અસર	-10.2586
▁ആയിരുന്നു	-10.2586
▁ভ্ৰমণ	-10.2587
▁શકો	-10.2587
▁ਜਗ੍ਹਾ	-10.2587
▁सुमार	-10.2588
▁जास्त	-10.2588
▁अर्को	-10.2589
▁ਮੁਕਾਬਲੇ	-10.259
▁ನಡುವ	-10.2591
▁آگ	-10.2591
▁মনে	-10.2593
▁પ્રાણીઓ	-10.2593
▁എന്നാണ്	-10.2594
▁ਚੰਗ	-10.2595
▁પ્રતિ	-10.2596
▁ਅੰਤਰ	-10.2596
▁ಇರುವ	-10.2601
▁language	-10.2601
▁آسان	-10.2601
ிகள்	-10.2602
▁रोग	-10.2608
ांची	-10.2608
ୀନ	-10.2609
▁ਪਿਛਲ	-10.2609
▁देते	-10.2612
▁areas	-10.2612
▁ಒಳ	-10.2614
वा	-10.2621
▁ख़	-10.2623
ବ	-10.2625
ৰি	-10.2626
ેડ	-10.2629
▁ma	-10.2637
▁మీద	-10.2637
টোৱে	-10.2639
▁ਸਰਕਾਰ	-10.2643
र्न	-10.265
▁అంత	-10.2661
▁ऊर्जा	-10.2663
▁ex	-10.2669
▁लिया	-10.2674
▁ایم	-10.268
▁شخص	-10.2681
▁அதிகாரிகள	-10.2688
▁ದೇಶಗಳ	-10.2691
▁കുറിച്ച	-10.2696
▁जर	-10.2696
▁سر	-10.2696
ച്ചു	-10.2696
ਯ	-10.2702
▁ଦିନ	-10.2706
▁ਪੈ	-10.2707
पर्यंत	-10.2715
లేదు	-10.2717
▁ಪೂರ್ವ	-10.2721
▁مر	-10.2726
ଓ	-10.2728
کے	-10.2736
▁જેના	-10.2738
▁ছাড়া	-10.2742
പ്പെട്ടു	-10.2744
▁निश्चित	-10.2745
▁صدی	-10.2752
▁दृश्य	-10.2766
▁ಹಿಂದೆ	-10.2776
▁लगा	-10.2784
கள	-10.2787
रण	-10.279
▁உணவு	-10.2792
▁થત	-10.2797
ਮੀਟ	-10.28
तम	-10.2811
▁नियम	-10.2816
▁যাক	-10.2817
▁ഉണ്ടായിരുന്നു	-10.282
▁அவற்ற	-10.2842
▁देता	-10.2843
ଡ଼	-10.285
یافت	-10.2853
కారం	-10.287
ఫ్	-10.2871
▁अनुसार	-10.2874
ળ	-10.2881
াধিক	-10.2882
▁परत	-10.2888
લા	-10.289
▁king	-10.2892
तर	-10.2896
▁ਨਾਮ	-10.2898
▁শহর	-10.2898
▁य	-10.2905
▁ਵਾਪਸ	-10.2907
ाइ	-10.2907
िथे	-10.2908
शय	-10.2908
ح	-10.2908
▁वेबसाइट	-10.2908
▁ଯେଉଁ	-10.2912
▁ప్రపంచ	-10.2915
▁সর্ব	-10.2916
▁pre	-10.2917
▁فوج	-10.2919
▁service	-10.2919
▁बल्ब	-10.2919
▁शुरुआत	-10.2919
▁হিসেবে	-10.2919
▁तैयार	-10.2919
▁ଅଂଶ	-10.2919
▁உள்ளூர்	-10.2919
▁ஜப்பான	-10.2919
▁ਸੱਭਿਆਚਾਰ	-10.2919
▁pbs	-10.2919
▁शिक्षा	-10.2919
▁ஒரே	-10.2919
▁ডাঙৰ	-10.2919
▁ଭଲ	-10.2919
▁گاڑی	-10.2919
▁କରୁଥିବା	-10.2919
▁દરેક	-10.2919
▁தான்	-10.2919
▁सूचना	-10.2919
▁مدد	-10.2919
▁দিছিল	-10.2919
▁পরিচিত	-10.2919
▁समर्थन	-10.2919
▁important	-10.2919
▁இருக்கலாம்	-10.292
▁ਟੀਮ	-10.292
▁સરળ	-10.292
▁राष्ट्रिय	-10.292
▁આંતર	-10.292
▁जानवर	-10.2921
▁అతి	-10.2921
▁மூன்று	-10.2922
▁మంచు	-10.2923
▁பெரும்பாலான	-10.2924
▁চহৰ	-10.2924
▁নেই	-10.2924
▁utc	-10.2925
▁മുമ്പ	-10.2925
▁type	-10.2925
▁بہ	-10.2928
▁അതിനാൽ	-10.2928
▁മികച്ച	-10.2928
▁ફરી	-10.2929
▁स्थाप	-10.293
▁జంతువుల	-10.2932
ାରୁ	-10.2934
ଲ୍	-10.2935
▁امریکی	-10.2937
▁قبل	-10.2938
▁صد	-10.2939
ಿಯನ್	-10.2939
▁own	-10.2941
ting	-10.2945
▁खराब	-10.2946
ङ	-10.2946
▁ہیں۔	-10.2949
▁کبھ	-10.2949
▁प्रमाण	-10.2951
▁சிறிய	-10.2951
▁গত	-10.2954
ுள்ள	-10.2957
ોમાં	-10.2958
▁జరిగిన	-10.2958
▁ਅਧਿਕਾਰ	-10.2962
▁اچھ	-10.2964
ial	-10.2969
मील	-10.2974
▁നി	-10.2976
▁আক্রমণ	-10.2977
তম	-10.2977
▁برطان	-10.2978
ાં	-10.2983
না	-10.2988
▁আগ	-10.2989
ட்	-10.2992
▁شو	-10.2995
▁लिन	-10.2998
▁सोच	-10.3006
ज़	-10.3009
▁कधी	-10.3009
▁योग्य	-10.3009
▁अश	-10.3012
▁কাৰণে	-10.3024
▁بج	-10.3034
▁બાદ	-10.3041
▁গ্ৰহণ	-10.3041
▁चित्र	-10.3042
▁گول	-10.3052
▁ಕಾನೂನು	-10.3061
▁ની	-10.3063
▁provide	-10.3063
▁करा	-10.3067
▁সম্প	-10.3069
▁pa	-10.3072
ily	-10.3073
▁ಸುಲಭ	-10.3077
▁மீது	-10.3078
▁पद	-10.3078
▁വി	-10.3079
▁त्य	-10.308
▁ਸਿਰ	-10.3084
▁ہوائی	-10.3089
ated	-10.3093
▁ಮುಖ್ಯ	-10.31
▁மொழி	-10.3102
▁অঞ্চলে	-10.3105
▁right	-10.3109
چ	-10.3109
ിക്കാൻ	-10.3116
▁நேர	-10.3117
▁نئ	-10.312
▁x	-10.3126
▁কোষ	-10.3132
▁পশ্চিম	-10.3138
▁ಹೊಂದಿರುವ	-10.3162
▁অনুষ্ঠান	-10.3165
▁കുറ	-10.3179
▁વ્યક્તિ	-10.3189
▁হাজার	-10.3194
▁पूर्ण	-10.3194
லை	-10.3197
▁শিক্ষা	-10.3197
▁দেশে	-10.3198
▁गेल्या	-10.3198
▁ਡ	-10.3201
ൊരു	-10.3202
▁కారణం	-10.3202
▁લે	-10.3206
▁উপ	-10.3211
▁ಹೊರ	-10.3217
ಟಿ	-10.3223
▁वर्षा	-10.3226
▁सहयोग	-10.3227
▁limit	-10.323
ക്ഷേ	-10.3232
▁ਪਹੁੰਚ	-10.3234
▁her	-10.3238
▁बैंक	-10.325
نیٹ	-10.325
ਜ਼ਨ	-10.3252
డ	-10.3254
▁অৱ	-10.3255
▁অভিযোগ	-10.3258
▁ప్రభుత్వ	-10.326
▁सीमित	-10.3261
▁আমেৰিকা	-10.3263
▁வேலை	-10.3263
▁خیال	-10.3264
▁अर्थव्यवस्था	-10.3264
▁આસપાસ	-10.3264
▁ધરાવે	-10.3264
▁ଦକ୍ଷିଣ	-10.3264
▁મૃત્યુ	-10.3264
▁understand	-10.3264
▁تاریخ	-10.3264
▁অন্তর্ভুক্ত	-10.3264
▁क्लब	-10.3264
▁ಸಾಕಷ್ಟ	-10.3264
▁যোগদান	-10.3264
▁पुलिस	-10.3264
▁اثر	-10.3264
▁possible	-10.3264
▁सम्मान	-10.3264
▁খাবার	-10.3264
▁व्यापक	-10.3264
ೆಂಬರ್	-10.3264
▁gps	-10.3265
▁earth	-10.3265
▁ಜ	-10.3265
▁भोजन	-10.3265
▁ಹಣ	-10.3265
▁ಮಾಡುತ್ತದೆ	-10.3265
▁म्हणाले	-10.3266
▁લાંબા	-10.3266
▁ನಿಮಗ	-10.3266
▁লক্ষ্য	-10.3266
▁बनाया	-10.3267
▁did	-10.3267
▁प्राणी	-10.3267
▁ਦੂਸਰ	-10.3268
▁దాడి	-10.3269
▁ପ୍ରକାର	-10.3269
▁વર્ગ	-10.3269
▁చేశారు	-10.327
▁ਜ਼ਰੂਰਤ	-10.3271
ially	-10.3271
▁ଉତ୍ତର	-10.3271
▁things	-10.3272
▁నగరం	-10.3275
▁गर्नुहोस्	-10.3277
▁month	-10.328
▁مطابق	-10.3281
▁औपचारिक	-10.3281
▁season	-10.3282
▁विस्तार	-10.3282
▁મૂળ	-10.3283
▁થયેલ	-10.3286
▁স্বাধীনতা	-10.3286
▁തെക്ക	-10.3286
িৰ	-10.3287
രുടെ	-10.3287
करित	-10.329
▁પડે	-10.3296
▁कला	-10.3301
▁നഗര	-10.3305
▁முடியும்	-10.3307
▁গঠন	-10.3307
दरम्यान	-10.3308
▁நா	-10.3309
▁form	-10.3311
अनुसार	-10.3314
▁পানীৰ	-10.3315
ँ	-10.3317
ತು	-10.3317
▁संक्रम	-10.332
ଗ	-10.3321
कभी	-10.3321
▁என்பதை	-10.3324
▁પોતાના	-10.3325
ല	-10.3331
▁అభి	-10.3332
▁ଗ	-10.3336
డి	-10.3337
▁कल्पना	-10.3346
▁ಮಾತ್ರ	-10.3353
ട	-10.3355
▁ਸਥਿਤ	-10.3358
▁समान	-10.3359
▁వ్యవస్థ	-10.336
▁આપણ	-10.3372
▁چین	-10.3383
▁நீ	-10.3388
▁man	-10.3388
▁वेग	-10.3392
ദേശ	-10.3404
ുന്ന	-10.3408
▁અનુભવ	-10.3409
▁न्याय	-10.3409
▁ಎಂದ	-10.3409
▁আম	-10.3412
യുള്ള	-10.3415
▁لگا	-10.3418
▁নহও	-10.3419
▁തുടർന്ന	-10.3424
▁इसक	-10.3425
▁যোগ	-10.3434
▁mm	-10.3443
▁ट	-10.3444
ar	-10.3446
लीन	-10.345
ாத	-10.3455
▁ಸ್ಥಳಗಳ	-10.3456
ங்கள	-10.346
য়ের	-10.3464
▁ٹی	-10.3466
डी	-10.3466
▁ਚ	-10.347
▁গাড়ী	-10.3471
পক্ষে	-10.3471
▁घ	-10.3473
▁आय	-10.3473
▁ಶತಮಾನದ	-10.3475
ড়িয়ে	-10.3477
▁মহিলা	-10.3488
▁இன்று	-10.3493
▁ਪੁਲ	-10.3498
▁ہون	-10.3503
▁howe	-10.3504
▁সংযোগ	-10.3507
▁ಅಧಿಕಾರಿಗಳ	-10.3521
▁બદલ	-10.3526
▁વિશે	-10.3527
▁বাড়ি	-10.3533
▁संस्था	-10.3535
▁تیار	-10.3535
▁ਬਚ	-10.3542
ویل	-10.3546
ക്കുന്നു	-10.3556
ಪ್	-10.3559
▁اسکی	-10.3567
▁બ	-10.3568
▁ड	-10.3571
▁చ	-10.3573
જબ	-10.3577
ண்ட	-10.3582
▁river	-10.3586
▁ਉਦ	-10.3588
वार	-10.3589
▁મા	-10.3603
ିଆ	-10.3604
▁mo	-10.3605
▁તપાસ	-10.3609
੍ਹਾਂ	-10.3609
▁நகர	-10.3611
ताना	-10.3613
താണ്	-10.3614
▁स्थल	-10.3614
والا	-10.3616
▁पर्छ	-10.3616
▁व्यवस्था	-10.3617
▁অথ	-10.3617
وجود	-10.3618
▁ਉੱਚ	-10.3618
▁தொடர்ந்த	-10.3618
्न	-10.3619
▁develop	-10.362
▁বৈ	-10.362
▁ಜಪಾನ	-10.3621
▁قدیم	-10.3621
▁राजधानी	-10.3621
▁सिस्टम	-10.3621
▁ఆయన	-10.3621
▁ಪ್ರಕಾರ	-10.3621
▁এলাকা	-10.3621
▁حادث	-10.3621
▁জিনিস	-10.3621
▁ಒಲಿಂಪಿಕ್	-10.3621
ਾਸਲ	-10.3621
▁అత్యంత	-10.3621
▁సమయం	-10.3621
▁ii	-10.3621
▁कहिलेका	-10.3621
▁bring	-10.3622
نقل	-10.3622
▁sometimes	-10.3623
▁तर्क	-10.3623
▁હાથ	-10.3623
▁ব্যয়	-10.3623
▁ਹਿੱਸਾ	-10.3623
▁जुलाई	-10.3625
लाइन	-10.3625
▁ವರ್ಷದ	-10.3626
▁दोषी	-10.3627
▁popular	-10.3627
▁ਧਰ	-10.363
▁ಅಂದರೆ	-10.3635
▁জানা	-10.3635
▁cover	-10.3639
▁তেল	-10.3642
▁top	-10.3643
▁જણાવ્ય	-10.3644
ಗಳಿಗಿಂತ	-10.3645
নো	-10.3647
▁islands	-10.3649
▁ٹیم	-10.365
▁जिसक	-10.3652
▁قیا	-10.3653
▁bas	-10.3659
িক্ত	-10.366
▁includ	-10.3662
▁ਕਾਫ	-10.3663
▁ट्रेन	-10.3667
▁ঘণ্টা	-10.367
▁ସହର	-10.3673
▁பேர்	-10.3678
્યું	-10.368
ਸੀ	-10.3681
▁వే	-10.3683
▁భాష	-10.3684
ಾಂತರ	-10.3685
ಾಗುತ್ತದೆ	-10.3692
तून	-10.3693
▁असलेल	-10.37
▁दी	-10.3702
▁ਹੋਈ	-10.3708
▁মা	-10.3709
▁जोड	-10.3716
▁वर	-10.3718
▁t	-10.3718
▁प्रमाणात	-10.3719
▁ಮಿ	-10.3721
ப்படுகிறது	-10.3722
▁head	-10.3722
▁ਅਸ	-10.3727
▁ಮೈಲಿ	-10.3731
▁માત્ર	-10.3731
हार	-10.3736
▁ফলত	-10.3738
▁చెప్ప	-10.3744
▁ప్రమాదం	-10.3749
▁पश्चिम	-10.3752
▁ഇട	-10.3755
सानो	-10.3758
▁times	-10.3762
▁डे	-10.3763
▁என்றால	-10.3766
ಸ್ಟ್	-10.3767
▁pass	-10.3767
چہ	-10.377
re	-10.3772
ನೆಟ್	-10.3773
ಲ್ಲಿನ	-10.3774
▁بے	-10.3774
▁થી	-10.3774
ਵਲ	-10.3782
▁नागरिक	-10.3794
▁கை	-10.3798
▁నే	-10.3798
தான்	-10.3803
▁वै	-10.3806
▁দৃশ্য	-10.381
ுவதற்கு	-10.381
▁अप	-10.3811
ଙ୍କର	-10.3814
▁نظا	-10.3814
▁ओ	-10.3819
▁పొంద	-10.382
▁ମ	-10.3822
ಗ್	-10.3822
▁دار	-10.3825
▁ഇതിന	-10.3828
▁மாத	-10.3829
▁வ	-10.3829
पूर्व	-10.3831
▁विविध	-10.3838
▁ਜੇ	-10.3839
i	-10.3843
িন	-10.3846
తన	-10.3848
▁হোটেল	-10.3851
▁காலத்தில	-10.3853
▁ଆକ୍ରମଣ	-10.3854
▁गोष्टी	-10.3855
▁வெ	-10.3863
▁व्यक्ती	-10.3865
▁செய்தி	-10.3865
▁ছিলেন	-10.3869
▁easi	-10.387
▁ಹೇಳ	-10.3872
▁মানে	-10.3872
ড়া	-10.3874
▁ਜੀਵ	-10.3877
▁নির	-10.3878
▁ਮਾਰ	-10.3879
▁مس	-10.3879
ేషన్	-10.388
ਦੀ	-10.388
ଞ୍ଚ	-10.3888
▁ప్రాంతాల	-10.389
▁im	-10.3896
ैंड	-10.3901
▁play	-10.3902
▁அதன	-10.3907
িছ	-10.3912
▁શો	-10.3913
de	-10.3919
प्रमाणे	-10.392
مبر	-10.3922
▁પ્રકાશ	-10.3923
ite	-10.3929
▁سام	-10.3938
اؤ	-10.3942
▁ਚਾਰ	-10.3943
िस	-10.3945
പ്പെട്ട	-10.3952
▁সপ্তাহ	-10.396
دار	-10.3962
गा	-10.3963
▁करती	-10.397
▁book	-10.397
▁کھان	-10.3971
इ	-10.3971
▁കേന്ദ്ര	-10.3972
▁काफ	-10.3974
▁दुर्	-10.3976
▁کل	-10.398
▁होऊ	-10.3982
ਬੰਦ	-10.3983
▁उपकरण	-10.3985
ನ್ಸ್	-10.3986
▁மைல்	-10.3988
▁পাব	-10.3988
▁ଅତ୍ୟ	-10.3989
▁ప్రత్యేక	-10.3989
▁ഏത	-10.3989
▁জনপ্রিয়	-10.399
▁ਪ੍ਰਦਰਸ਼ਨ	-10.399
▁ವಿರುದ್ಧ	-10.399
▁ପ୍ରଦାନ	-10.3991
espec	-10.3991
▁particular	-10.3991
▁تعلیم	-10.3991
▁अवधि	-10.3991
▁ऐतिहासिक	-10.3991
▁विभाग	-10.3991
▁চিকিৎসা	-10.3991
▁বিরুদ্ধে	-10.3991
▁ভূমিকম্প	-10.3991
▁ઊભ	-10.3991
▁ଚେଷ୍ଟା	-10.3991
▁దగ్గర	-10.3991
▁ಆಹಾರ	-10.3991
▁বাতিল	-10.3991
▁କରୁଛନ୍ତି	-10.3991
▁অতিৰিক্ত	-10.3991
▁ചൈന	-10.3991
▁రాత్రి	-10.3991
▁ਰਿਪੋਰਟ	-10.3991
▁ધરાવત	-10.3991
▁তথা	-10.3991
▁طوفان	-10.3991
▁बेहतर	-10.3991
▁છીએ	-10.3991
▁वित्त	-10.3991
▁অবশ্য	-10.3991
▁ಕೇವಲ	-10.3991
▁चोट	-10.3991
▁week	-10.3991
▁युग	-10.3991
▁ਪ੍ਰਕਿਰਿਆ	-10.3991
▁اوپر	-10.3991
▁संकेत	-10.3992
▁ବହୁତ	-10.3992
▁night	-10.3992
▁ਮੰਦਰ	-10.3992
▁تیز	-10.3992
▁অন্যতম	-10.3993
▁ସବୁଠ	-10.3993
ଠାର	-10.3994
▁মধ্য	-10.3994
गाह	-10.3994
▁తయారు	-10.3994
সলনি	-10.3994
▁वेब	-10.3996
▁ಯುನ	-10.3997
عداد	-10.3997
▁ਉਮੀਦ	-10.3998
▁ଦ୍ଵାରା	-10.3998
▁उपचार	-10.3998
ਰਾਂ	-10.3999
▁होगी	-10.4001
▁ਪਹਿਲੀ	-10.4001
▁जुड़	-10.4006
▁বিদেশী	-10.4007
▁যেনে	-10.4007
రల్	-10.4007
▁तेज़	-10.4007
▁experience	-10.4009
▁దాదాపు	-10.4009
▁رہی	-10.4009
▁ਓਲ	-10.4011
▁رکھتے	-10.4011
▁ଠାର	-10.4012
▁ஆகியவை	-10.4015
▁ਰਹਿਣ	-10.4017
ever	-10.4018
▁নিয়ম	-10.4018
ਰਸ	-10.4021
ہیں	-10.4025
▁স্থাপন	-10.4028
▁ਆਉਣ	-10.4031
લો	-10.4032
▁விளையாட	-10.4039
ेको	-10.4039
▁ବ୍ୟକ୍ତି	-10.404
▁ದೇಶದ	-10.404
▁மா	-10.404
▁ಪ್ರದೇಶಗಳ	-10.4044
दी	-10.4045
▁ਮੁੜ	-10.4046
▁ہوسکت	-10.4048
▁ഭക്ഷണ	-10.4053
▁இருந்த	-10.4057
बार	-10.4057
▁ಮಾರ್ಗ	-10.4057
▁বিজ্ঞানী	-10.4062
स्रो	-10.4065
ೈಟ	-10.4071
अलग	-10.4072
▁come	-10.4072
▁بھر	-10.4072
▁பல்	-10.4073
▁ತ	-10.4077
▁ਦੋਸ਼	-10.408
▁राज	-10.4088
বার	-10.409
మెంట్	-10.4091
▁दुस	-10.4096
ಯಿತು	-10.4099
पूर्वी	-10.4103
▁মতে	-10.4103
▁വരുന്ന	-10.4104
▁جاتے	-10.4105
లాంటి	-10.4106
লৰ	-10.4107
जी	-10.4108
▁ട്ര	-10.4109
ৰূপে	-10.411
ਵਾ	-10.4111
શન	-10.4113
▁बाध	-10.4122
▁അവസാന	-10.4122
ਵੇਂ	-10.4127
▁আপনা	-10.4132
▁सो	-10.4137
ದ್ದು	-10.4139
▁مُ	-10.4139
▁खतरा	-10.4145
्रो	-10.4151
▁हवा	-10.4158
ेक	-10.4158
లా	-10.4158
య	-10.4163
▁संस्कृती	-10.4163
▁पटक	-10.4171
▁ra	-10.4173
ਾਏ	-10.4175
ள்	-10.4178
▁mus	-10.4181
ਵੀ	-10.4183
▁નાના	-10.4183
▁যুক্তৰাষ্ট্ৰ	-10.4186
রের	-10.4194
▁ನಿಂದ	-10.4196
▁રોજ	-10.4198
▁बोल	-10.4199
ைய	-10.4202
ia	-10.4203
ವರೆಗ	-10.4206
▁آئی	-10.4206
റെ	-10.4208
ਓ	-10.4209
▁পূৰ্ব	-10.4212
▁అంట	-10.4218
▁ಜಾ	-10.4225
▁న	-10.4226
می	-10.4227
▁தொடர	-10.423
ിച്ചു	-10.4234
జ్	-10.4244
द्द	-10.425
ിരുന്നു	-10.425
▁ಡ	-10.4259
ాల్సి	-10.4261
▁ഏതാ	-10.4262
▁ফুট	-10.4262
▁அதை	-10.4264
एको	-10.4266
▁வந்த	-10.4274
್ದರಿಂದ	-10.4276
▁رو	-10.4279
ల్లో	-10.4279
ಲೇ	-10.4281
ંગ	-10.4286
▁দা	-10.429
▁सब	-10.4298
ରଣ	-10.43
अर	-10.4301
is	-10.4309
ಗಿ	-10.4311
़न	-10.4319
▁উচ্চ	-10.4322
▁ছবি	-10.4323
▁குறிப்ப	-10.4324
▁లోని	-10.4327
ற்கு	-10.4327
▁ನಡೆಸ	-10.4329
▁રાખ	-10.4333
▁region	-10.4351
▁प्राथमिक	-10.4361
▁ਨਿਰ	-10.4365
▁ಸಮುದ್ರ	-10.4367
▁বিচার	-10.437
▁అలా	-10.4371
▁ਲੰਬ	-10.4372
▁করছে	-10.4372
▁पुढ	-10.4372
ಾತ್ಮಕ	-10.4373
▁શક્ય	-10.4374
जनक	-10.4375
▁ਸੁਰੱਖਿ	-10.4376
▁company	-10.4376
▁power	-10.4376
▁thousand	-10.4376
▁یورپ	-10.4376
▁गंभीर	-10.4376
▁घेऊ	-10.4376
▁process	-10.4376
▁जांच	-10.4376
▁दोन्ही	-10.4376
▁ନିକଟ	-10.4376
▁nba	-10.4376
▁बेलायत	-10.4376
▁मुद्दा	-10.4376
▁ಕರೆಯಲಾಗುತ್ತದೆ	-10.4376
▁গুরুত্বপূর্ণ	-10.4376
▁کلومیٹر	-10.4376
▁ହୋଇପାରେ	-10.4376
▁সভ্যতা	-10.4376
▁மில்லியன	-10.4376
▁मतदान	-10.4376
▁ब्रिटिश	-10.4376
▁european	-10.4376
▁main	-10.4376
▁కాదు	-10.4376
▁କରିଛନ୍ତି	-10.4376
▁આગળ	-10.4376
▁बताया	-10.4376
▁అక్కడ	-10.4376
▁نمبر	-10.4376
▁गर्दछन्	-10.4376
▁బహు	-10.4376
▁অধিকাংশ	-10.4377
▁সীমিত	-10.4377
▁مغرب	-10.4377
▁order	-10.4377
▁மணிக்கு	-10.4378
▁ક્યારે	-10.4378
▁আকৰ্ষণ	-10.4379
▁మంచి	-10.4379
▁સદી	-10.438
▁ಏಕೆ	-10.438
▁ನೀರಿನ	-10.438
रिब	-10.438
▁expect	-10.438
वजह	-10.4381
▁മൈ	-10.4382
▁বিজয়ী	-10.4382
▁ରହିଛି	-10.4383
▁জন্ম	-10.4383
▁पछि	-10.4383
▁ক্ষমতা	-10.4387
▁కారు	-10.4388
▁റിപ്പോർട്ട്	-10.4389
▁தர	-10.4392
▁சூறாவளி	-10.4394
▁ਅਰਥ	-10.4395
▁भ्रमण	-10.4395
বোৰৰ	-10.4398
▁sp	-10.4403
▁events	-10.4403
▁australia	-10.4404
ിനെ	-10.4405
▁নিউ	-10.4406
ਪ	-10.4415
ങ്	-10.4417
▁चर्च	-10.4419
▁प्रवाह	-10.4419
▁ਰ	-10.4422
▁लोकांनी	-10.4425
▁चंद्र	-10.4428
ent	-10.4428
▁पालन	-10.4433
▁వ్యక్తి	-10.4434
యం	-10.4438
ణ	-10.444
శా	-10.4443
▁স্বাস্থ্য	-10.4444
▁কেন্দ্র	-10.4446
بارہ	-10.4449
▁قوم	-10.4449
▁भन्द	-10.4449
बल	-10.4457
▁একমাত্	-10.446
▁लक्षण	-10.4463
सोबत	-10.4466
हा	-10.4469
▁வேறு	-10.447
▁off	-10.4479
▁തുടങ്ങിയ	-10.4479
el	-10.4491
▁तिथ	-10.4492
ছিলেন	-10.4496
হ	-10.4499
▁ગ	-10.4502
▁move	-10.4505
▁செலுத்த	-10.4511
्यो	-10.4513
et	-10.4519
▁জল	-10.452
▁گر	-10.4525
▁বয়স	-10.4528
▁साम	-10.4535
▁கொள்ள	-10.4541
am	-10.4547
▁sub	-10.4548
ंप	-10.4555
ଧ	-10.4558
▁خدم	-10.4562
কি	-10.4568
▁ഭാഷ	-10.4571
▁ਸਮਝ	-10.4571
▁উভয়	-10.4572
िम	-10.4587
ର୍	-10.4587
▁સાર	-10.4589
ral	-10.4589
▁ಟ್ರ	-10.4591
▁ਸਿ	-10.4592
▁गरिन्छ	-10.4596
▁पाण्या	-10.46
▁सी	-10.4604
▁ನೋಡ	-10.4605
▁ചെയ്ത	-10.4605
బడ్డాయి	-10.4607
িয়া	-10.4607
ਥ	-10.4611
▁ਦੁ	-10.4614
▁ਸ਼ੋ	-10.4616
▁सम्म	-10.4618
ിക്കുന്നു	-10.4624
ଡ୍	-10.4625
ెల్	-10.4628
▁ವಸ್ತುಗಳ	-10.4636
▁مج	-10.4658
▁উপরে	-10.4678
▁नीच	-10.4678
▁ভারত	-10.4681
ரு	-10.4681
▁हुनु	-10.4685
પર	-10.4693
▁मन	-10.4694
رت	-10.4694
یات	-10.4702
▁যাব	-10.4702
▁स्वीकार	-10.4705
▁चि	-10.4708
▁হব	-10.4709
▁च	-10.4716
▁ಪರಿಣಾಮ	-10.472
ાય	-10.4722
ंचा	-10.4727
▁दिखा	-10.4731
दान	-10.4734
▁காலை	-10.4745
▁રચના	-10.475
▁स्थित	-10.475
▁island	-10.4751
▁શરૂઆત	-10.4758
▁કહેવા	-10.4759
▁law	-10.4763
▁area	-10.4765
▁জার্মান	-10.4765
▁होत	-10.4766
ন্ন	-10.4767
▁परिवार	-10.4768
▁معلوم	-10.477
▁গৈ	-10.4775
પૂર્ણ	-10.4775
ంట	-10.4776
▁better	-10.4776
▁فراہم	-10.4776
▁उल्लेख	-10.4776
▁नियंत्रण	-10.4776
▁प्रतिशत	-10.4776
▁দ্রুত	-10.4776
▁ਪੱਧਰ	-10.4776
▁ਮੁਤਾਬ	-10.4776
▁બંને	-10.4776
▁முந்தைய	-10.4776
▁కలిసి	-10.4776
▁ప్రస్తుత	-10.4776
▁సుమారు	-10.4776
▁हस्ताक्षर	-10.4776
▁ਭੋਜਨ	-10.4776
▁fbi	-10.4776
▁କରାଯାଇଛି	-10.4776
▁قریب	-10.4776
▁ہاتھ	-10.4776
▁رپورٹ	-10.4776
▁could	-10.4776
▁প্রাচীন	-10.4776
▁সম্ভাব্য	-10.4776
▁ପ୍ରଭାବ	-10.4776
▁উভতি	-10.4776
▁مشکل	-10.4776
▁মুখ্য	-10.4776
▁କରିଥିଲା	-10.4776
▁गरियो	-10.4776
▁ఉండవచ్చు	-10.4776
▁ਬਣਾਇਆ	-10.4776
▁ਦੁਨੀਆ	-10.4776
▁food	-10.4776
▁speed	-10.4777
▁നൽകുന്നു	-10.4777
న్న	-10.4777
▁సంబంధించిన	-10.4777
▁अरू	-10.4777
▁મુસાફરી	-10.4777
الگ	-10.4777
▁పూర్తి	-10.4779
▁अनेकदा	-10.4779
▁ಜೊತೆಗೆ	-10.478
▁ವೇಗದಲ್ಲಿ	-10.478
▁land	-10.478
▁અંગે	-10.478
▁تین	-10.4783
▁କ୍ଷେତ୍ର	-10.4783
▁প্ৰৱেশ	-10.4783
▁past	-10.4783
▁आर्थिक	-10.4783
▁ਹਿੱਸੇ	-10.4783
▁সম্ভৱ	-10.4784
▁धोका	-10.4784
▁open	-10.4785
▁humans	-10.4786
▁ਅੰਕ	-10.4787
▁پھر	-10.4787
▁করেছেন	-10.4787
▁বেশ	-10.4789
▁બનાવવા	-10.4789
▁स्थापना	-10.4791
▁मानक	-10.4791
▁ਸਾਡ	-10.4793
▁স্থানত	-10.4793
▁যোগাযোগ	-10.4795
▁খাদ্য	-10.4796
▁கீழ்	-10.4796
▁યુદ્ધ	-10.4796
▁చేసింది	-10.4796
▁સારી	-10.4798
▁দুই	-10.4798
▁சென்று	-10.4799
ೊಮ್ಮ	-10.48
▁জীৱ	-10.4803
▁వచ్చే	-10.4804
سٹ	-10.4809
வோ	-10.481
▁குழந்தைகள	-10.4811
▁center	-10.4816
फ़	-10.4817
शन	-10.4818
▁ধ	-10.4821
▁مک	-10.4821
▁বহন	-10.4823
▁ভে	-10.4825
▁wide	-10.483
▁ঘন্টা	-10.4835
ര	-10.4843
▁இடத்தில	-10.4843
ియన్	-10.4843
▁गर्मी	-10.4845
ग्रीक	-10.4847
▁નવા	-10.4849
▁ಮಾ	-10.4849
▁class	-10.4852
કો	-10.4855
▁रोज	-10.4871
▁سیاحت	-10.4873
▁മത്സര	-10.4875
వలం	-10.4876
▁இன்ன	-10.4876
বহুল	-10.4877
ोर	-10.4878
▁கூடுதல	-10.4879
ुक	-10.488
▁ਗੋਲ	-10.4888
જે	-10.4892
▁होटल	-10.4896
▁ಭಾಗ	-10.4896
▁মাসে	-10.4897
ನು	-10.49
▁পারেন	-10.4901
ನೆಯ	-10.4902
▁মাত্ৰ	-10.4902
्मिक	-10.4903
िङ	-10.4909
▁விளையாட்டு	-10.4909
▁യാത്ര	-10.4909
▁ਇਲਾਕ	-10.4911
নৰ	-10.4913
▁மேல்	-10.4914
യി	-10.492
வர்கள்	-10.4923
டா	-10.4924
▁শ	-10.4935
▁বু	-10.4939
▁ધ	-10.4941
▁લો	-10.4944
▁চি	-10.4944
▁ಪಡೆದ	-10.4947
▁مزی	-10.4948
কৰ	-10.4958
शील	-10.4963
▁ধৰণ	-10.4967
నా	-10.4975
ലോ	-10.4979
▁કરત	-10.4985
▁इतक	-10.4985
▁સે	-10.4985
▁ખ	-10.4986
▁வி	-10.4995
▁ਬਣਾ	-10.4997
గే	-10.4999
▁તથ	-10.5001
േക്ക	-10.5014
▁sun	-10.5015
ally	-10.5016
ിയ	-10.5017
ిష్	-10.5019
▁चा	-10.502
▁பற்றி	-10.5026
▁ହେ	-10.503
ಿದ್ದರು	-10.5031
ण्याचा	-10.5034
▁വേഗത	-10.5035
red	-10.5038
tic	-10.5039
ച്ച	-10.5043
த்து	-10.5056
▁దూరం	-10.5069
بی	-10.5073
▁पी	-10.5074
कीय	-10.5075
ମାନଙ୍କ	-10.5076
▁সহজে	-10.5078
▁ਪੂਰ	-10.508
▁જોખમ	-10.508
▁मदत	-10.5082
▁ਕਾਲ	-10.5084
ओ	-10.5087
ৰিয়	-10.5089
▁ور	-10.509
زا	-10.5092
▁مستق	-10.51
्तै	-10.5101
▁কিয়	-10.5104
পূর্ণ	-10.5107
▁g	-10.5107
▁जीत	-10.5113
▁मिले	-10.5123
▁ദി	-10.5131
▁चाल	-10.5136
ਪਤੀ	-10.5137
▁നൽക	-10.514
▁ਅਧਿਕਾਰੀ	-10.5146
ियो	-10.5149
ਚਾਰ	-10.515
▁કલાક	-10.5153
▁तल	-10.5154
્યો	-10.5155
▁फेर	-10.5155
▁വഴി	-10.516
▁tourist	-10.516
ਬ	-10.5163
ઝ	-10.5165
▁பின்	-10.5173
▁ನಡೆದ	-10.5175
▁கார்	-10.5176
ప	-10.5178
▁add	-10.518
▁কো	-10.518
▁टापु	-10.518
▁হাই	-10.5181
▁मत	-10.5182
▁দাম	-10.5187
▁large	-10.519
▁குறிப்பிட்ட	-10.5192
▁જાહેર	-10.5192
▁বাণিজ্য	-10.5192
▁attack	-10.5192
▁international	-10.5192
▁مشرق	-10.5192
▁کمپنی	-10.5192
▁आणखी	-10.5192
▁विश्वविद्यालय	-10.5192
▁सङ्केत	-10.5192
▁সিদ্ধান্ত	-10.5192
▁ਗਤੀਵਿਧੀ	-10.5192
▁નુકસાન	-10.5192
▁ଦୁଇ	-10.5192
▁ନୁହେଁ	-10.5192
▁പ്രാദേശിക	-10.5192
▁french	-10.5192
▁ఒలింపిక్	-10.5192
▁তারপর	-10.5192
▁స్థాయి	-10.5192
▁بتایا	-10.5192
▁उष्ण	-10.5192
▁জুলাই	-10.5192
▁summer	-10.5192
যোগ্য	-10.5192
▁ਯੁੱਧ	-10.5192
▁ବେଗ	-10.5193
▁history	-10.5193
▁six	-10.5193
▁باقی	-10.5193
▁আন্তঃ	-10.5193
▁ঠিক	-10.5193
▁மத்திய	-10.5193
▁हुनेछ	-10.5193
▁ਸੰਘ	-10.5193
▁acta	-10.5193
▁दिन्छ	-10.5193
▁ഉൾപ്പെടുന്നു	-10.5194
▁கொண்டுள்ளது	-10.5194
▁live	-10.5194
▁అంతర్	-10.5194
▁അധിക	-10.5194
▁দুটি	-10.5195
▁ਡਿਜ਼	-10.5195
▁চন্দ্ৰ	-10.5195
▁ଆମେ	-10.5195
▁टिकट	-10.5196
వలన	-10.5196
▁त्यानंतर	-10.5198
ధ	-10.5198
▁బ్రిట	-10.5198
▁جدید	-10.5198
▁বৃদ্ধি	-10.52
▁ദശലക്ഷ	-10.52
▁देतात	-10.5202
ମ୍	-10.5203
ेन	-10.5203
▁reading	-10.5207
▁set	-10.5207
▁কী	-10.5208
▁સંસ્કૃતિ	-10.5209
▁महीन	-10.521
ान	-10.5211
▁બાળકો	-10.5211
▁अधिकारीहरू	-10.5211
▁ଟି	-10.5212
▁क्षमता	-10.5213
▁जवळपास	-10.5213
▁points	-10.5213
▁కొంత	-10.5213
▁কিমি	-10.5213
▁ਨਵੇਂ	-10.5213
▁હજાર	-10.5214
▁कार्ड	-10.5214
ेज	-10.5216
▁ટીમ	-10.5216
▁ୟୁରୋପ	-10.5217
▁ਰਾਹੀ	-10.5219
▁स्कूल	-10.522
▁ചിത്ര	-10.5223
▁ਬਰਫ਼	-10.5223
▁শতাংশ	-10.5226
▁घण्टा	-10.5226
▁মি	-10.5228
▁जनावरहरू	-10.5229
▁آسٹریلیا	-10.5235
▁নিজের	-10.5238
▁سائٹ	-10.5241
▁ಅರ್ಥ	-10.5241
یوں	-10.5241
▁ତଥା	-10.5245
▁वापरले	-10.5246
ਲਾਈ	-10.5246
▁require	-10.5246
▁লোৱা	-10.5247
▁सहज	-10.5248
▁அணிய	-10.5252
▁آنے	-10.5259
നിന്ന	-10.526
▁ਚੀਨ	-10.526
▁نشان	-10.5264
▁യുദ്ധ	-10.5268
▁ja	-10.5272
ड़े	-10.5274
हि	-10.5275
ങ്കിലും	-10.5278
ହିତ	-10.5278
▁पश्चिमी	-10.5279
▁ସୁ	-10.528
മോ	-10.5283
▁ten	-10.5283
▁receiv	-10.5286
બી	-10.5288
خصوص	-10.5293
▁வகை	-10.5293
सन	-10.5293
▁ହୁଏ	-10.5293
▁ద	-10.5293
▁હજ	-10.5295
▁از	-10.5296
ंबर	-10.5297
ಕ್ಕಿಂತ	-10.5299
▁माध्यम	-10.53
õ	-10.5306
▁ਮੰਨ	-10.5307
▁ڈی	-10.531
▁டி	-10.5312
▁ప్రదేశాల	-10.5315
▁മണിക്കൂറി	-10.5317
▁രാജ്യങ്ങള	-10.5319
▁ಏನ	-10.5319
ਵੱਖ	-10.5321
▁ਰਹਿੰਦ	-10.5322
▁تش	-10.5325
ions	-10.5327
▁ہمار	-10.5329
ાર	-10.533
▁பட	-10.5333
▁বেছিভাগ	-10.5336
▁जान	-10.5336
▁ವರ್ಷ	-10.534
▁గంటల	-10.5342
ത്തിന്റെ	-10.5349
▁కాన	-10.5351
▁आयोजन	-10.5351
▁महासागर	-10.5353
ബ	-10.5353
▁রাজা	-10.5354
ஷ்	-10.5354
ಿತ್ತು	-10.5355
फ़ी	-10.5364
▁લેન્સ	-10.5371
▁ಮತ್ತ	-10.5371
സ്റ്റ്	-10.5372
तर्फ	-10.5373
▁ਜਨ	-10.5376
की	-10.5377
▁હોવ	-10.5377
ించారు	-10.5381
ದು	-10.5381
▁तास	-10.5384
▁போர்	-10.5386
▁ನಮ್ಮ	-10.5389
▁ସା	-10.5394
તી	-10.5396
ਧ	-10.5404
▁பய	-10.5407
ಿನಲ್ಲಿ	-10.5413
▁தீவுகள	-10.5414
▁আই	-10.5422
▁இத	-10.5423
▁বছৰৰ	-10.5424
ന്ന	-10.5426
▁بنیادی	-10.5427
▁ਭੇਜ	-10.5432
▁বিভাগ	-10.5435
▁ধৰি	-10.5444
▁કરવ	-10.5456
وز	-10.546
▁बैठक	-10.5464
▁ترک	-10.5467
ందుకు	-10.5476
ಷ	-10.5477
sure	-10.5479
▁தனி	-10.5487
▁விலங்குகள	-10.5488
ത്തിലെ	-10.5489
▁কোম্পানী	-10.5497
▁site	-10.5498
▁ഒന്ന	-10.5501
इल	-10.5504
▁ਆਪ	-10.5504
▁দিব	-10.5506
▁ایل	-10.5506
▁காண	-10.5506
▁ਸਥਿਤੀ	-10.5508
▁கி	-10.5508
▁चला	-10.5508
▁ಫ	-10.5511
▁দ্বীপপুঞ্জ	-10.5511
▁far	-10.5518
کس	-10.5523
▁চলে	-10.5525
णी	-10.5531
▁தங்க	-10.5531
ਚ	-10.5539
▁real	-10.5539
ती	-10.5542
▁পানী	-10.5542
▁डर	-10.5542
▁মূল্য	-10.5544
टेड	-10.5545
کر	-10.5546
ਵਾਦ	-10.5547
▁শীত	-10.5549
▁चालक	-10.5551
▁বো	-10.5554
▁یقین	-10.5557
মি	-10.5558
▁ਜਿਹੜ	-10.5559
▁माग	-10.5561
ವರಿ	-10.5562
▁pro	-10.5563
િ	-10.5566
▁અનુ	-10.557
▁ഉപയോഗ	-10.5571
▁చూడ	-10.5573
నైట	-10.5576
▁देखि	-10.5582
▁जन्म	-10.5582
▁चिन्ह	-10.5587
▁सामन	-10.5589
ല്ല	-10.559
وار	-10.5592
▁ৰাষ্ট্ৰীয়	-10.5594
▁ಕಳೆದ	-10.5595
આ	-10.5599
ड	-10.5601
ছৰ	-10.5603
▁आकर्षण	-10.5604
▁बांध	-10.5607
▁cause	-10.5609
▁કંપની	-10.5609
▁ଅଞ୍ଚଳ	-10.5611
▁డి	-10.5611
▁public	-10.5612
ண்டும்	-10.5615
्दत	-10.5618
▁आफू	-10.5619
ੇਸ਼ਨ	-10.5619
▁इटालियन	-10.5621
▁according	-10.5621
ங்களை	-10.5621
्छ	-10.5621
▁हुँदै	-10.5622
▁সৰ্ব	-10.5623
▁सम्भाव	-10.5624
▁low	-10.5625
ப்படுகின்றன	-10.5625
▁ہوگی	-10.5625
▁অনুষ্ঠ	-10.5627
▁वेगवेगळ	-10.5627
▁enough	-10.5627
▁تہذیب	-10.5627
▁নিচিনা	-10.5627
▁પરિણામ	-10.5627
▁મદદ	-10.5627
▁વિરોધ	-10.5627
▁ଛୋଟ	-10.5627
▁ಸಂಪೂರ್ಣ	-10.5627
▁تصویر	-10.5627
▁കിലോമീറ്റർ	-10.5627
▁نقصان	-10.5627
▁தேசிய	-10.5627
▁discover	-10.5627
▁टर्की	-10.5627
▁भनिन्छ	-10.5627
▁ਜਾਵੇਗਾ	-10.5627
▁નિયમ	-10.5627
▁మద్దతు	-10.5627
▁ଏପରି	-10.5627
▁সন্মুখ	-10.5627
▁ਉੱਪਰ	-10.5627
▁big	-10.5627
▁ହୋଇଛି	-10.5627
▁लाभ	-10.5627
▁ਹੋਵੇਗਾ	-10.5628
▁ताकि	-10.5628
▁roman	-10.5628
▁முன்	-10.5628
▁ਮੌਸਮ	-10.5628
▁ਮੌਤ	-10.5628
▁அங்கே	-10.5628
▁इतन	-10.5628
▁বিবেচনা	-10.5628
▁later	-10.5629
▁দুটা	-10.5629
▁करेंगे	-10.5629
▁झुक	-10.5629
▁information	-10.5629
▁خاندان	-10.5629
▁park	-10.563
▁support	-10.563
▁మార్పు	-10.563
▁اضاف	-10.5631
ிருக்கும்	-10.5632
▁चेता	-10.5632
▁ਤਿਆਰ	-10.5632
▁આપી	-10.5633
▁ବହୁ	-10.5634
▁হৈছিল৷	-10.5635
▁ओलम्पिक	-10.5635
▁ਢੰਗ	-10.5635
▁धार	-10.5637
▁২	-10.5638
▁ച	-10.5639
▁ਮੀਲ	-10.5641
▁स्रोत	-10.5641
▁ஒருவர	-10.5642
▁তিন	-10.5643
ਾਨੀ	-10.5643
▁सवारी	-10.5646
▁થવા	-10.5646
▁નિર્	-10.5647
▁ਯੋਗ	-10.5648
▁বৃহ	-10.5648
▁वर्ल्ड	-10.5648
▁ଯାତ୍ରା	-10.5648
▁اولمپک	-10.5648
▁গুণ	-10.5649
▁ഒപ്പം	-10.5652
▁ਸਾਹਮਣ	-10.5652
▁معمول	-10.5654
▁દેશોમાં	-10.5654
▁plann	-10.5655
దు	-10.5656
▁জন্তু	-10.5656
ৰা	-10.5657
▁ভিত্তি	-10.5657
▁fall	-10.5659
▁খা	-10.5661
▁प्रती	-10.5666
▁पैस	-10.5666
▁ਸੰਬੰਧ	-10.5669
ிஷ்	-10.567
▁આવત	-10.567
▁ಭಾರತ	-10.5673
▁যুক্তরাষ্ট্র	-10.5675
▁ਤੇਜ਼	-10.5675
▁ഓ	-10.5676
▁శతాబ్దం	-10.5676
▁ಕಾರ್ಯ	-10.5679
ಕ್ಕ	-10.568
▁କମ	-10.5685
ਟੀ	-10.5685
▁నేర	-10.5685
▁رہ	-10.5691
دود	-10.5693
ਨੀ	-10.5696
ેશન	-10.5696
▁ଯୁଦ୍ଧ	-10.5702
▁संस्कृत	-10.5704
▁ਲੈਣ	-10.5705
ेस	-10.5705
▁వై	-10.5706
ਜਾ	-10.5707
▁धन	-10.5711
▁days	-10.5712
▁ਪ੍ਰੋ	-10.5715
▁ਬਣਾਉਂਦ	-10.5715
▁একই	-10.5717
▁ರಾಜ	-10.5719
▁ਬਾ	-10.5719
▁ثقافت	-10.5723
▁ٹیکس	-10.5725
▁സി	-10.5727
ौँ	-10.5729
▁ଘର	-10.5733
▁અંત	-10.5735
▁نظر	-10.5736
▁این	-10.5739
ਾਇਦ	-10.5744
▁माइल	-10.5746
চে	-10.5747
▁ஆய்வு	-10.5749
▁গায়	-10.575
▁وا	-10.5752
ذ	-10.5759
▁ന	-10.5763
▁వేగం	-10.5765
▁ನೀಡುವ	-10.5766
▁news	-10.5771
జాతీయ	-10.5773
ഡി	-10.5775
िल	-10.5775
▁રહ્ય	-10.5778
साथ	-10.5779
بین	-10.5785
ങ്ങളെ	-10.5786
▁रहत	-10.5787
यो	-10.5789
▁ಲ್ಯಾಂಡ್	-10.5792
ફ	-10.5805
▁ਠ	-10.5809
જો	-10.5813
ारा	-10.5813
▁जवळ	-10.5817
ವರು	-10.5817
▁રાષ્ટ્રીય	-10.5818
▁ஐரோப்பிய	-10.582
▁സാധാരണ	-10.5822
िश	-10.5831
▁खाली	-10.5832
▁ব্যবস্থা	-10.5832
▁اط	-10.5834
▁এন	-10.5844
▁ਸ਼ਬਦ	-10.5846
لس	-10.5855
چے	-10.5856
▁দিশ	-10.5859
ക്കിന്	-10.5859
ியது	-10.5863
▁ਬੇ	-10.5872
రో	-10.5876
কালে	-10.5879
▁ವರದಿ	-10.5881
ന്ന്	-10.5883
ੀਰ	-10.5892
▁३	-10.59
▁ਕਾ	-10.59
▁ਲੈ	-10.5905
ಿಸಿತು	-10.5909
▁ক্ৰ	-10.5912
اہر	-10.5915
▁বরফ	-10.5917
வு	-10.5918
ାର	-10.5918
▁বুজি	-10.5918
ष्ट	-10.592
عض	-10.5926
▁मनुष्य	-10.5927
યારે	-10.5928
▁జాతీయ	-10.5931
▁நோக்கி	-10.5935
▁ਪੀ	-10.5936
ತ್	-10.5937
ੀਕ	-10.5941
▁ചിലപ്പോ	-10.5943
▁సంబంధ	-10.5944
▁ఓ	-10.5946
▁তাঁ	-10.5946
▁कड	-10.5948
▁su	-10.5948
▁സംഭവ	-10.5949
▁ಮೂರ	-10.5956
▁ইন	-10.5957
▁முன்னர	-10.5963
▁சட்ட	-10.5964
কিং	-10.5968
▁ਜੈ	-10.5969
▁ஒலிம்பிக்	-10.5973
▁شای	-10.5973
ok	-10.5978
▁লৈ	-10.5978
ന്റെ	-10.5979
▁बल	-10.5984
మే	-10.5988
▁ನಗರ	-10.5992
▁प्रस्तुत	-10.5998
▁ದೇಶ	-10.6001
▁خو	-10.6007
▁رائ	-10.601
യെ	-10.6013
▁இருந்தால	-10.6018
▁ڈ	-10.6021
▁रॉक	-10.6025
లతో	-10.6026
▁રમત	-10.6032
▁লোকে	-10.6043
▁ನೇ	-10.6044
േഷൻ	-10.605
અ	-10.6053
ലുകൾ	-10.6054
▁خ	-10.6054
▁সেৱা	-10.6054
▁વિ	-10.6058
ൈറ്റ	-10.6058
ഷൻ	-10.6067
▁அமெரிக்க	-10.607
▁ହେବ	-10.607
▁ರಾಷ್ಟ್ರ	-10.607
▁દ	-10.6071
▁ಮಧ್ಯ	-10.6072
▁पोल	-10.6072
▁ಜನಪ್ರಿಯ	-10.6073
▁जपान	-10.6076
शाल	-10.6076
પૂર્વક	-10.6078
▁તેમાં	-10.6079
▁જીવ	-10.608
▁अवैध	-10.608
▁అధిక	-10.6081
–	-10.6082
▁बरेच	-10.6082
▁भौगोलिक	-10.6082
▁দীর্ঘ	-10.6082
▁document	-10.6082
▁تعلق	-10.6082
▁অনুভৱ	-10.6082
▁ବିଭିନ୍ନ	-10.6082
▁ಕನಿಷ್ಠ	-10.6082
ʼ	-10.6082
▁internet	-10.6082
▁اختیار	-10.6082
▁বাসিন্দা	-10.6082
▁specific	-10.6082
▁ଭିନ୍ନ	-10.6082
▁तुर्की	-10.6082
▁ਮਦਦ	-10.6082
▁ପରିବର୍ତ୍ତନ	-10.6082
▁addition	-10.6082
▁oha	-10.6082
▁ابتدا	-10.6082
▁विवाह	-10.6082
▁కనీస	-10.6082
▁গুৰুত্বপূৰ্ণ	-10.6082
▁ਜਾਨਵਰ	-10.6082
▁authorities	-10.6082
▁अत्यंत	-10.6082
▁ਸਮਰਥ	-10.6082
▁કેન્દ્ર	-10.6082
▁सभ्यता	-10.6082
▁বৃহত্ত	-10.6082
ਰੋਧ	-10.6082
▁मान्यता	-10.6082
▁चरण	-10.6083
▁చైనా	-10.6083
▁विगत	-10.6083
▁আকর্ষণ	-10.6083
▁fire	-10.6083
▁సమస్యల	-10.6083
▁सिटी	-10.6084
▁यूरोपीय	-10.6084
▁అర్థం	-10.6084
▁علم	-10.6084
▁चिली	-10.6084
▁କରିଥିବା	-10.6084
▁യുഎസ്	-10.6085
▁آزاد	-10.6085
▁মারা	-10.6085
യുണ	-10.6085
▁ਹੋਵੇ	-10.6086
▁ಸಮಯದಲ್ಲಿ	-10.6086
▁ସୂଚନା	-10.6087
▁झालेल्या	-10.6089
્યે	-10.6089
▁சிறு	-10.6089
▁ಐ	-10.6089
▁પ્રયાસ	-10.609
▁യൂറോപ്യ	-10.609
▁മാത്രമല്ല	-10.609
▁প্রদান	-10.609
▁సంస్కృతి	-10.6091
▁पक्ष	-10.6091
desp	-10.6092
▁நேரம்	-10.6094
▁station	-10.6096
▁बेला	-10.6099
▁होतो	-10.6099
▁अनु	-10.6099
▁हुँद	-10.6099
▁आली	-10.6101
ಗಿಂತ	-10.6101
ાની	-10.6103
▁वास्तव	-10.6103
▁ਸਕਦੀਆਂ	-10.6103
▁सागर	-10.6104
▁knowledge	-10.6104
▁নিয়ন্ত্ৰণ	-10.6104
▁event	-10.6105
▁ਰੱਖਣ	-10.6105
▁यात्री	-10.6106
▁تبدیلی	-10.6107
▁কয়	-10.6107
▁कोणती	-10.6108
▁داخل	-10.6108
یل	-10.6112
▁ਮਨੁੱਖ	-10.6113
▁নিয়মিত	-10.6114
নৈতিক	-10.6115
▁പോലും	-10.6115
▁വ്യത്യസ്ത	-10.6116
▁নীতি	-10.6117
▁చూడట	-10.6118
▁બંધ	-10.6119
▁देत	-10.6125
▁বাহিনী	-10.6127
▁ഇപ്പോ	-10.6127
▁جائیں	-10.613
l	-10.613
▁பெற	-10.6132
ple	-10.6135
ിക്കുകയു	-10.6135
▁భాగం	-10.6136
▁ఫోన్	-10.6138
ಲೆಂಡ	-10.6139
▁ice	-10.6144
▁ସଂଖ୍ୟା	-10.6145
▁સંસ્થા	-10.6147
▁তাত	-10.6147
▁মুখ	-10.615
▁இல்லாத	-10.6151
▁सर्वो	-10.6152
▁ਕਦੇ	-10.6158
ତୁ	-10.6159
▁believe	-10.616
టి	-10.6162
▁அமைப்பு	-10.6163
ਾਉਣ	-10.6164
शारी	-10.6165
एस	-10.6165
തിന്	-10.6165
▁গছ	-10.6167
▁भेज	-10.6168
వృద్ధ	-10.6172
▁அருகில	-10.6173
▁injur	-10.6173
ಬೇಕು	-10.6174
▁ਰੋ	-10.6179
شتہ	-10.6183
ലുള്ള	-10.6184
સી	-10.6186
সমূহত	-10.6192
ਬੀ	-10.6193
കളുടെ	-10.6195
▁कार्यालय	-10.62
▁ସମ	-10.6203
یسی	-10.6209
▁ਬੁ	-10.6212
রূপ	-10.6212
തും	-10.6213
▁آر	-10.6216
ny	-10.622
▁लगाए	-10.6226
তিক	-10.6228
ଭ	-10.623
टन	-10.6231
▁સં	-10.6234
▁வெற்றி	-10.6237
▁দূৰ	-10.6238
▁शक्य	-10.6238
യിലേക്ക	-10.6239
▁حکومت	-10.624
जना	-10.6242
▁దక్షిణ	-10.6243
▁हमार	-10.6244
ীৰ	-10.6244
▁رکھن	-10.6246
▁ਖ	-10.6247
ٹی	-10.6248
ांवर	-10.6251
ுகின்றன	-10.6251
▁প্রক্রিয়া	-10.6252
کام	-10.6258
▁सैन्य	-10.6258
ദേശീയ	-10.626
▁भूकंप	-10.626
تھ	-10.626
گھنٹہ	-10.626
ways	-10.6262
ક્ત	-10.6264
بہ	-10.6266
सहित	-10.6269
▁فون	-10.6273
ਿਲ	-10.6274
વાળા	-10.6275
▁जिन्हे	-10.6276
▁जंगल	-10.6279
ಬ್	-10.6279
ाचार	-10.6281
गर	-10.6282
▁ਮਾ	-10.6296
க்கூடிய	-10.6296
▁என்ன	-10.6297
▁దేశ	-10.6299
▁മാസ	-10.63
▁છોડ	-10.6303
পৰ	-10.6305
▁ಕೈ	-10.6306
▁माथि	-10.6311
ണ്ട	-10.6312
▁ચંદ્ર	-10.6315
▁ਦੇਣ	-10.6317
ిక్	-10.6319
one	-10.6322
▁ಸಮಸ್ಯೆಗಳ	-10.6325
▁अभ	-10.6327
लैंड	-10.6328
▁काय	-10.633
▁ধর্ম	-10.6331
▁యుద్ధం	-10.6338
▁ਰਾਸ਼ਟਰੀ	-10.6341
कार	-10.6342
▁ধৰ্ম	-10.6342
ضی	-10.6344
فو	-10.6345
id	-10.6349
மல்	-10.635
डियो	-10.6351
टी	-10.6354
▁পড়ে	-10.6358
ರುತ್ತದೆ	-10.6363
▁பகுதிகள	-10.6363
▁વિસ્તાર	-10.6366
▁ਕੰਪਨੀ	-10.6367
▁تا	-10.6368
یاتی	-10.6369
ೆಟ್	-10.6369
▁ಸೇರಿದ	-10.637
ؤ	-10.6371
ിട്ടുണ്ട്	-10.6372
▁पुरुष	-10.6376
▁अधिकार	-10.6381
▁സാധാരണയ	-10.6385
ਗਰ	-10.6385
வ்	-10.6385
ಿದ್ದರೆ	-10.6387
▁ਪਾਰ	-10.6393
▁மனிதர்கள	-10.6395
▁సులభ	-10.6397
▁മാ	-10.6403
▁ডি	-10.6405
▁মো	-10.6406
খানে	-10.6411
▁काळात	-10.6413
▁પૂર	-10.6417
▁پولی	-10.6422
રો	-10.6424
رہ	-10.6425
களைப்	-10.6426
▁পি	-10.6428
ୃତ	-10.643
▁क्षेत्रहरू	-10.6432
र्फ	-10.6432
▁ಬಂದ	-10.6435
▁ನೀಡಲ	-10.6441
वाला	-10.6441
شتر	-10.6442
▁ਕੀ	-10.6446
▁বিষ	-10.6448
▁فرانس	-10.6453
নোর	-10.6454
▁મંદિર	-10.6455
तिर	-10.6457
▁ലോ	-10.6458
رڈ	-10.6459
ید	-10.646
▁അനുഭവ	-10.646
▁run	-10.6461
ുകളുടെ	-10.6461
▁என்பத	-10.6463
▁व्यक्त	-10.6463
▁ഉയർന്ന	-10.6464
▁వైపు	-10.6465
ves	-10.6469
▁পৰিবহ	-10.6472
▁பயன்படுத்தி	-10.6474
बद्दल	-10.6481
▁ଭ୍ରମଣ	-10.6482
▁ଉପର	-10.6482
بنی	-10.6485
▁حی	-10.6493
▁মুক্ত	-10.6501
▁ಮಟ್ಟ	-10.6502
▁రకాల	-10.6505
ുണ്ട്	-10.6507
్ల	-10.6508
ும்போது	-10.6512
▁கண்டுபிடி	-10.6512
▁जैस	-10.6514
▁প্ৰদৰ্শন	-10.6514
ம்பர்	-10.6515
ਂਦੇ	-10.6521
▁സമുദ്ര	-10.6522
cient	-10.6522
▁ଖେଳ	-10.6523
▁സ്ഥലത്ത	-10.6526
सेच	-10.6527
▁game	-10.6527
▁দেশত	-10.6527
▁report	-10.6528
▁ગરમ	-10.6532
▁व्यवसाय	-10.654
रित	-10.6541
▁উন্নত	-10.6544
▁ಶ	-10.6545
▁ഇരു	-10.6545
▁तुमच	-10.6546
▁she	-10.6548
▁group	-10.6549
▁प्रजाति	-10.655
▁ಗ	-10.6551
▁വിമാന	-10.6552
ce	-10.6553
um	-10.6554
▁ವಿಭಿನ್ನ	-10.6555
াংশ	-10.6557
▁ଅର୍ଥ	-10.6557
▁living	-10.6558
▁snow	-10.6558
▁ఆధ	-10.6558
ंस्कृतिक	-10.6558
]	-10.6558
▁built	-10.6558
▁education	-10.6558
▁similar	-10.6558
▁zealand	-10.6558
▁आविष्कार	-10.6558
▁टेलिभिजन	-10.6558
▁बिहान	-10.6558
▁म्हटले	-10.6558
▁আফ্রিকা	-10.6558
▁কর্তৃপক্ষ	-10.6558
▁দুয়ো	-10.6558
▁রাস্তা	-10.6558
▁ਅਧੀਨ	-10.6558
▁ਚਾਹੁੰਦ	-10.6558
▁સૂર્ય	-10.6558
▁ନୂତନ	-10.6558
▁ରିପୋର୍ଟ	-10.6558
▁سمجھ	-10.6558
▁তদন্ত	-10.6558
▁ਸ਼ਕਤੀ	-10.6558
▁અગાઉ	-10.6558
▁ବର୍ତ୍ତମାନ	-10.6558
▁অবস্থিত	-10.6558
▁ધ્યાન	-10.6558
▁ଯିଏ	-10.6558
▁दिशे	-10.6558
▁શરૂ	-10.6558
▁ಯುರೋಪಿಯನ್	-10.6558
▁university	-10.6558
▁किलोमीटर	-10.6558
▁मृत्यू	-10.6558
▁वर्ण	-10.6558
▁আবিষ্কার	-10.6558
▁crash	-10.6558
▁उत्तम	-10.6558
▁पार्टी	-10.6558
▁राष्ट्रपति	-10.6558
▁सक्दछन्	-10.6558
▁असणाऱ्या	-10.6558
▁मूळ	-10.6558
▁થયું	-10.6558
▁रेडियो	-10.6558
▁विशाल	-10.6558
til	-10.6558
▁china	-10.6558
▁પ્રમાણ	-10.6558
▁ਵਿਦੇਸ਼	-10.6558
▁प्रशिक्षण	-10.6558
▁ਲਗਾਇਆ	-10.6558
विरुद्ध	-10.6558
ीकरण	-10.6559
▁অনুমান	-10.6559
▁bce	-10.6559
▁اسٹیشن	-10.6559
▁ਪ੍ਰਦਾਨ	-10.6559
▁స్టేట్	-10.6559
▁উদ্যান	-10.6559
▁वापस	-10.656
▁trip	-10.656
▁খৰচ	-10.656
▁होंगे	-10.656
▁enter	-10.656
▁चुनाव	-10.656
▁नजिकै	-10.6561
कृतिक	-10.6561
▁महिना	-10.6561
▁स्केटर	-10.6561
▁বাল্ব	-10.6562
▁चिंता	-10.6562
▁ಸರಿ	-10.6563
▁नॉर्	-10.6563
▁ಜೂ	-10.6564
▁ਮੈਂ	-10.6565
▁ਭੂ	-10.6565
▁બનાવી	-10.6565
▁સવાર	-10.6566
▁ஒவ்வொ	-10.6566
▁संपर्क	-10.6566
▁पहचान	-10.6567
▁ఆర్థిక	-10.6567
▁ఉన్నారు	-10.6567
వర్	-10.6567
▁gain	-10.6567
▁ਸਮੂਹ	-10.6567
▁રહ્યો	-10.6567
ാത്ത	-10.6567
▁উদ্ভিদ	-10.6567
शनल	-10.6568
▁شکل	-10.6568
▁ড	-10.6568
▁ਬਾਕੀ	-10.6568
▁ಪ್ರಾ	-10.6569
▁problems	-10.6569
▁ਪੂਰੀ	-10.6571
طلب	-10.6571
▁टोली	-10.6572
्दै	-10.6574
▁आपके	-10.6574
کا	-10.6575
▁సీజన్	-10.6577
▁camp	-10.6577
▁गायक	-10.6578
▁آئے	-10.6578
നെ	-10.6578
▁जागा	-10.6581
ूद	-10.6581
▁গৃহ	-10.6581
▁സാമ്പത്തിക	-10.6581
▁school	-10.6581
▁জলের	-10.6583
▁നിലവി	-10.6583
▁തീ	-10.6584
ರಿ	-10.6584
▁سور	-10.6586
▁जातो	-10.6587
▁രാജ്യത്ത	-10.6589
▁ಕುರಿತ	-10.6589
▁జర్మన్	-10.659
▁அதிகமான	-10.6592
▁పేరు	-10.6593
▁learning	-10.6595
▁अंक	-10.6596
▁তৃতীয়	-10.6597
▁वाहन	-10.66
ವೆಂದ	-10.66
ਯਾਦ	-10.66
▁मुक्त	-10.6602
▁ಬಾರಿ	-10.6603
লা	-10.6604
▁সম	-10.6604
▁మొత్తం	-10.6606
ਿਸ਼	-10.6611
▁सोप	-10.6613
▁మో	-10.6618
▁কমিটি	-10.6619
▁ಸೈಟ್	-10.6619
▁చివరి	-10.6621
▁ভালো	-10.6622
▁முன்ப	-10.6628
▁সংখ্যক	-10.6628
న్స్	-10.6629
▁మార్గం	-10.6629
▁गृह	-10.6629
▁बोली	-10.6631
▁دست	-10.6632
▁পুনৰ	-10.6633
▁act	-10.6633
▁ভূ	-10.6635
▁বিষয়টি	-10.6636
ಕರ	-10.6637
ுடைய	-10.6639
▁घेण	-10.664
▁ऑफ	-10.6641
▁किलोमिटर	-10.6643
▁ظاہر	-10.6643
▁இடங்கள	-10.6643
▁ডা	-10.6643
કે	-10.6644
▁ఆడ	-10.6646
্দিষ্ট	-10.6648
ેલ	-10.6652
▁ਡਰ	-10.6653
▁কিলোমিটার	-10.6658
▁உருவாக்க	-10.6659
▁இன்	-10.666
▁शुल्क	-10.6663
▁اصل	-10.6664
▁যাই	-10.6667
▁करणाऱ्या	-10.667
▁നൽകി	-10.6681
▁انسان	-10.6685
▁जोन	-10.6687
▁ਵਿਗਿਆਨ	-10.6688
▁east	-10.6689
▁മുന്ന	-10.6696
मिल	-10.6696
▁രണ്ടാ	-10.6703
क्स	-10.6705
▁കൊണ്ട	-10.6708
तो	-10.6709
▁समझ	-10.6709
▁মে	-10.671
▁आई	-10.6711
▁অভি	-10.6718
▁যুক্ত	-10.6718
▁ಹೆಚ್ಚಾಗಿ	-10.6719
ical	-10.6721
▁முன்ன	-10.6729
▁eas	-10.6735
ാതെ	-10.6736
▁കുറഞ്ഞ	-10.6738
ಿದ್ದರೂ	-10.6741
যায়	-10.6743
cross	-10.6744
ిత	-10.6748
ाउन	-10.675
▁ਜਦ	-10.6751
ਅਤ	-10.6756
ਭਰ	-10.6757
▁ٹ	-10.6757
▁ذ	-10.6758
ાત્ર	-10.6761
्छन्	-10.6761
▁আসা	-10.6765
▁ಬೇರೆ	-10.6769
▁కింద	-10.6772
▁سرو	-10.6776
▁ગ્રી	-10.6779
റി	-10.679
▁चल	-10.6792
▁ਵੱਡੀ	-10.6796
▁بینک	-10.6799
ੁਲ	-10.6803
▁শতিকা	-10.6806
▁گیم	-10.6811
▁ଏ	-10.6811
ग्र	-10.6812
ન્ડ	-10.6835
اف	-10.6837
▁मिन	-10.6839
to	-10.6839
ાઈ	-10.6842
▁जिसस	-10.6851
▁ಪ್ರವಾಸ	-10.6853
▁பயன்படுத்த	-10.6855
▁बहु	-10.6862
▁ਸਹ	-10.6862
▁മനസ്സിലാക്ക	-10.6863
▁پت	-10.6865
ষ্ট	-10.6866
▁প্ৰায়ে	-10.6866
منٹ	-10.6867
▁ஆ	-10.6868
ੁੱਧ	-10.6869
▁خان	-10.687
نس	-10.6871
▁ঘ	-10.6873
▁fo	-10.6873
▁قر	-10.6874
▁ಹೋಗ	-10.6875
▁learn	-10.6878
ंट	-10.6878
ाही	-10.6882
▁উদ্দেশ্য	-10.6884
▁da	-10.6893
▁பகுதி	-10.6901
▁सध्या	-10.6901
▁தேதி	-10.6902
▁அறிவ	-10.6902
▁उनी	-10.6903
কুৱা	-10.6903
ਿਨ	-10.6903
▁இணைய	-10.6906
ನಲ್ಲಿ	-10.6907
ਕਰ	-10.6911
ത്തിലുള്ള	-10.6914
ਂਡ	-10.6915
▁सिर्फ	-10.6916
▁साहित्य	-10.6918
▁নিজ	-10.6934
▁মিনিট	-10.6934
ज़ा	-10.6938
▁পয়েন্ট	-10.6938
भी	-10.694
▁match	-10.6945
মা	-10.6949
▁বুক	-10.6952
▁پہنچ	-10.6954
▁പ്രത്യേക	-10.6956
ext	-10.6958
▁উ	-10.6966
▁پیر	-10.6971
▁دا	-10.6971
▁ఆట	-10.6971
ప్	-10.6975
▁ବାହାର	-10.6977
▁कॅ	-10.6979
▁अपना	-10.6984
बद्ध	-10.6984
ன்று	-10.6985
▁దేశం	-10.6986
▁உறுதி	-10.6987
▁رہت	-10.6992
ിൻ	-10.6992
▁മരണ	-10.6997
ണ	-10.6998
രെ	-10.6999
ৰাষ্ট্ৰীয়	-10.7001
▁lead	-10.7006
റുകൾ	-10.7009
▁ਸੰਬੰਧੀ	-10.701
▁सुरुवात	-10.7013
सिल	-10.7013
ಬೇಕಾಗುತ್ತದೆ	-10.7017
મારી	-10.7021
▁સંબંધ	-10.7021
▁પહોંચ	-10.7023
▁മാറ്റ	-10.7027
il	-10.7035
▁host	-10.7037
▁जना	-10.7038
▁फ़ो	-10.704
▁સુ	-10.7042
▁ਲਾਗ	-10.7042
▁ત્યાર	-10.7042
▁ڈال	-10.7043
▁देऊ	-10.7047
▁office	-10.7049
▁ಹೀಗ	-10.7051
▁انٹر	-10.7051
▁நிறுவனத்த	-10.7051
▁ദ്വീപ	-10.7052
▁റ	-10.7052
▁झाल्या	-10.7053
▁निर्यात	-10.7053
▁german	-10.7053
▁താരതമ്യ	-10.7054
▁உண்மைய	-10.7054
▁गण	-10.7055
▁ટાપુઓ	-10.7057
▁ear	-10.7057
▁बर्लिन	-10.7057
▁europe	-10.7057
▁phone	-10.7057
▁japan	-10.7058
▁നല്ല	-10.7058
▁ఆఫ్	-10.7058
—	-10.7058
▁john	-10.7058
▁kanjar	-10.7058
▁rspca	-10.7058
▁انداز	-10.7058
▁علاوہ	-10.7058
▁अनुसन्धान	-10.7058
▁उम्मीद	-10.7058
▁जहा	-10.7058
▁दुवै	-10.7058
▁প্ৰেৰণ	-10.7058
▁ਪ੍ਰਸਿੱਧ	-10.7058
▁ચોક્કસ	-10.7058
▁તુર્કી	-10.7058
▁નંબર	-10.7058
▁શિક્ષણ	-10.7058
▁ଅପେକ୍ଷା	-10.7058
▁ଜାତୀୟ	-10.7058
▁అంచనా	-10.7058
▁నిరసన	-10.7058
▁పరిస్థితుల	-10.7058
▁ముఖ్యమైన	-10.7058
▁రవాణా	-10.7058
▁ഞങ്ങൾ	-10.7058
▁दौड	-10.7058
▁সুযোগ	-10.7058
▁ব্রিটিশ	-10.7058
▁ਸਿਸਟਮ	-10.7058
▁ఎన్నికల	-10.7058
▁regular	-10.7058
▁विजय	-10.7058
▁शैक्ष	-10.7058
▁اعلا	-10.7058
▁করুন	-10.7058
▁କରୁଥିଲେ	-10.7058
▁کھڑکی	-10.7058
▁उत्पन्न	-10.7058
▁ਪੰਜ	-10.7058
▁ہوٹل	-10.7058
▁ഇന്ത്യ	-10.7058
▁ଭୟ	-10.7058
▁زندگی	-10.7058
▁छात्र	-10.7058
रोबर	-10.7058
▁छैनन्	-10.7058
▁ਮੈਂਬਰ	-10.7058
▁স্টেশন	-10.7058
▁પ્રદેશ	-10.7058
▁പ്രത്യേകിച്ച	-10.7058
▁વાત	-10.7058
▁ಆತನ	-10.7059
▁مرب	-10.7059
▁सजिल	-10.7059
▁ਕਹਿੰਦ	-10.7059
▁हाम्रो	-10.7059
▁black	-10.7059
▁court	-10.7059
▁ઘટના	-10.7059
▁हवे	-10.706
▁ଉଚିତ	-10.706
▁مندر	-10.706
▁நான்கு	-10.706
त्याचा	-10.7061
▁ஆண்டுகளுக்கு	-10.7061
▁પહેલાં	-10.7061
▁ଭିତର	-10.7061
▁સેવા	-10.7061
▁অবস্থায়	-10.7062
▁સીધ	-10.7062
▁ಹೊಂದಿದೆ	-10.7062
ునిక	-10.7062
▁लेंस	-10.7062
▁fund	-10.7063
▁damage	-10.7063
झाव	-10.7063
▁ಮೇಲ	-10.7064
▁সেয়ে	-10.7065
▁येते	-10.7066
▁ساحل	-10.7066
▁എണ്ണ	-10.7066
▁ਜਾਣਿਆ	-10.7067
▁बम	-10.7068
▁हुँदैन	-10.7068
▁करण्यास	-10.7069
اسب	-10.707
▁வடக்கு	-10.7071
▁ഉണ്ട്	-10.7072
▁മഞ്ഞ	-10.7074
▁normal	-10.7074
▁அதிகமாக	-10.7074
▁આવ	-10.7076
▁ভাৰত	-10.7076
▁वेगळ	-10.7076
▁think	-10.7077
▁सीध	-10.7078
▁लेकर	-10.708
▁ফল	-10.7081
▁term	-10.7082
▁level	-10.7083
▁ਕਾਨੂੰਨ	-10.7083
▁எல்லா	-10.7083
▁নির্ভর	-10.7085
▁மிகப்	-10.7085
▁ಜರ್ಮನಿಯ	-10.7085
ଥିଲା	-10.7088
િન	-10.709
▁পুৰণ	-10.709
▁వేడి	-10.7091
▁બની	-10.7092
▁करतो	-10.7093
▁औँ	-10.7094
▁সঠিক	-10.7097
▁ఎయిర్	-10.7099
▁પોલીસ	-10.7099
▁ଦୂର	-10.7101
▁design	-10.7103
▁నది	-10.7104
▁ಗಾಳಿಯ	-10.7107
▁दैन	-10.7108
▁चलत	-10.7108
▁শাসন	-10.711
▁ਭਾਰ	-10.7114
▁জীব	-10.7116
▁स्वत	-10.7117
▁இரவு	-10.7122
▁ਥੋੜ੍ਹੀ	-10.7122
ेथ	-10.7123
ଟ	-10.7123
▁ದೇಶವ	-10.7126
▁గోల్	-10.7127
قانونی	-10.7128
करून	-10.7128
मान	-10.7129
▁सामने	-10.713
ರಿಗೆ	-10.713
▁রাজ	-10.7139
▁ચાલ	-10.7143
ந்த	-10.7147
সমূহে	-10.7147
▁স্কেট	-10.7148
ਲਾਈਟ	-10.7148
ెంట్	-10.7148
▁ਇਤਿਹਾਸ	-10.7151
led	-10.7152
ate	-10.7153
▁dr	-10.7153
مین	-10.7154
▁রাখা	-10.7159
ಸನ್	-10.716
▁ଗୁଡ଼ିକ	-10.7163
▁செய்த	-10.7164
ॉल	-10.7165
رس	-10.7165
▁सीखन	-10.7165
ினர்	-10.717
ീ	-10.7177
িবলৈ	-10.7179
▁गै	-10.7179
ਕਿੰਗ	-10.7181
ism	-10.7182
ାନ୍ୟ	-10.7184
▁পাকিস্তান	-10.7184
યા	-10.7185
▁ਨਿਯਮ	-10.7186
▁पाय	-10.719
▁ਵੱਖਰੇ	-10.7194
ائ	-10.7194
▁ৰাজ	-10.7195
▁حق	-10.7198
▁স্ব	-10.72
▁ഫ	-10.7203
▁பயணிகள	-10.7217
नाक	-10.7218
▁முழுவதும	-10.7223
▁அடி	-10.7224
ंची	-10.7225
▁ৰাখিব	-10.7231
▁متح	-10.7232
ଯା	-10.7244
▁লগ	-10.7248
▁അതി	-10.7251
▁श्री	-10.7251
▁ਦੂਰ	-10.7256
▁দি	-10.7258
▁சும	-10.7258
▁মান	-10.7258
अघि	-10.7263
तरी	-10.7266
▁रात्री	-10.7269
▁କରିବାର	-10.7272
▁ভাড়া	-10.7274
పెద్ద	-10.7278
بح	-10.7283
এই	-10.7288
▁இருப்பத	-10.7288
কৃত	-10.7291
க்கப்பட்ட	-10.7294
▁मे	-10.7302
▁अधिकाऱ्यांन	-10.7307
▁കൂട്ട	-10.7309
▁ଥିଲେ	-10.7315
▁இரண்டாவத	-10.7315
टा	-10.7317
▁हजार	-10.7324
▁ৰাষ্ট্ৰ	-10.7328
▁इटली	-10.7331
ഫ	-10.7337
▁bus	-10.7338
ैले	-10.7339
▁सात	-10.7339
শন	-10.7341
▁ری	-10.7344
▁رکھت	-10.7344
▁ലെൻസ	-10.7344
▁କା	-10.7345
▁چک	-10.7349
▁জু	-10.735
▁ଦେଇ	-10.7351
▁याद	-10.7351
ாமல	-10.7352
▁செய்யப்பட்ட	-10.7371
af	-10.7373
کو	-10.7377
നു	-10.7378
▁विज्ञान	-10.7386
مر	-10.7387
సి	-10.7392
▁পাই	-10.7395
▁அமெரிக்காவ	-10.7396
▁ಈಗಲ	-10.7396
▁شر	-10.74
▁سا	-10.7405
ക്	-10.7406
▁सैनिक	-10.7412
▁അറിയ	-10.7413
▁ഭാര	-10.7417
▁ജല	-10.7418
▁ഷോ	-10.742
ಕೀಯ	-10.7434
▁প্ৰক্ৰিয়া	-10.7435
▁ಸರ್ಕಾರ	-10.7438
▁రా	-10.7444
দিন	-10.7446
▁gree	-10.7449
મુક	-10.7453
▁सोबत	-10.7461
ेत	-10.7467
লি	-10.7467
ીઓ	-10.747
▁सेल	-10.7473
পাত	-10.7473
▁ಕರೆ	-10.7485
ામ	-10.7495
▁সমাধি	-10.7498
▁চলি	-10.7501
▁जागत	-10.7502
▁હો	-10.7504
▁എളുപ്പ	-10.7504
▁കണ്ടെത്ത	-10.7507
▁গেছ	-10.7509
▁சி	-10.7509
▁നദി	-10.7513
ುಗಳು	-10.7514
ക്കുന്ന	-10.7515
विक	-10.7517
▁ഒന്നു	-10.7519
▁ইউৰোপীয়	-10.7521
▁ସରକାର	-10.7523
టర్ల	-10.7524
▁tax	-10.7524
ிட	-10.7525
ض	-10.7529
डे	-10.753
▁পৰিয়াল	-10.7531
▁اتن	-10.7533
▁ಅನುಭವ	-10.7533
াত	-10.7537
بت	-10.7544
▁தென்	-10.7545
▁येथ	-10.7545
▁vari	-10.7545
right	-10.7546
मीन	-10.7547
००	-10.7548
▁கூட்ட	-10.7548
সের	-10.755
▁घंट	-10.7553
▁ଇ	-10.7554
▁ਕਿਸਮ	-10.7557
▁స్వ	-10.7557
▁નવી	-10.7558
খ্যাত	-10.7559
▁issue	-10.756
▁ದಾಟ	-10.7561
▁আজ	-10.7561
▁रोक	-10.7561
▁جاپان	-10.7562
▁সংঘ	-10.7564
▁ஏற	-10.7566
حض	-10.7567
ਸਾਨ	-10.7568
▁ਚਲ	-10.7569
▁depend	-10.7571
▁త	-10.7572
ியல்	-10.7575
▁hour	-10.7578
ము	-10.7578
▁رق	-10.7582
ामक	-10.7582
▁సమస్య	-10.7582
▁യഥാർത്ഥ	-10.7582
ಿಕ್	-10.7582
▁ব্যবহ	-10.7583
▁பொருளாதார	-10.7583
▁அடையாள	-10.7583
ائد	-10.7584
घातक	-10.7584
▁सक्दछ	-10.7584
ాత్మక	-10.7584
▁अहिले	-10.7584
▁मेट्रो	-10.7584
▁വിനോദസഞ്ചാര	-10.7584
▁গিয়েছিল	-10.7584
▁ऑन	-10.7584
▁ਸਮੱਸਿਆ	-10.7584
▁already	-10.7584
▁available	-10.7584
▁computer	-10.7584
▁death	-10.7584
▁health	-10.7584
▁television	-10.7584
▁threat	-10.7584
▁zmapp	-10.7584
▁एजेंट	-10.7584
▁चार्ल	-10.7584
▁तनाव	-10.7584
▁बुधवार	-10.7584
▁भौतिक	-10.7584
▁रग्बी	-10.7584
▁सहभाग	-10.7584
▁অর্জন	-10.7584
▁ঐতিহ্য	-10.7584
▁পর্যটন	-10.7584
▁পৰিমাণ	-10.7584
▁ফলাফল	-10.7584
▁সাহায্য	-10.7584
▁પૃથ્વી	-10.7584
▁ଯେଉଁଥିର	-10.7584
▁ಆರೋಗ್ಯ	-10.7584
▁ಪಾಯಿಂಟ	-10.7584
▁ಸಾರ್ವಜನಿಕ	-10.7584
▁കിഴക്ക	-10.7584
▁कॉपी	-10.7584
▁സിദ്ധാന്ത	-10.7584
▁rough	-10.7584
▁مذہب	-10.7584
▁व्यावसाय	-10.7584
▁president	-10.7584
▁permit	-10.7584
▁पसंद	-10.7584
▁వైద్య	-10.7584
▁short	-10.7584
▁ਸੰਭਾਵ	-10.7584
▁मोबा	-10.7584
▁गेम	-10.7584
ਊਰ	-10.7584
▁spanish	-10.7584
▁જંગલ	-10.7584
▁ಸಾವಿರ	-10.7584
▁స్టేషన్	-10.7584
▁check	-10.7584
▁ପାଖ	-10.7584
▁ਮੈਚ	-10.7584
▁مسافر	-10.7585
▁एकदम	-10.7585
▁want	-10.7585
▁परीक्षण	-10.7585
▁ਰੱਖਿਆ	-10.7585
▁ગઈ	-10.7585
▁ਨੰਬਰ	-10.7585
▁ଉପାୟ	-10.7585
▁କରିଛି	-10.7585
▁बदलाव	-10.7585
▁تمہار	-10.7585
▁তুমি	-10.7585
▁लक्ष्य	-10.7585
▁serve	-10.7585
▁ডলার	-10.7585
▁સ્ટેશન	-10.7585
▁পরবর্তী	-10.7585
▁ગં	-10.7586
ન્સ	-10.7586
▁রাখতে	-10.7587
▁ബന്ധപ്പെട്ട	-10.7587
▁concern	-10.7587
▁building	-10.7587
▁গোট	-10.7587
▁ਮਾਮਲ	-10.7588
▁कच्च	-10.7588
▁post	-10.7589
▁american	-10.7589
▁ప్రారంభ	-10.7589
▁ತಕ್ಷಣ	-10.7589
▁germany	-10.7589
▁care	-10.7589
▁નીચે	-10.759
▁close	-10.7591
▁निरीक्ष	-10.7591
▁காற்று	-10.7591
▁physical	-10.7591
▁કાયદા	-10.7592
▁person	-10.7592
▁تصور	-10.7592
▁યોગ્ય	-10.7594
▁معلومات	-10.7594
▁ਮੱਧ	-10.7594
▁ਆਧਾਰ	-10.7594
ાચ	-10.7594
▁الزام	-10.7594
▁খুঁজ	-10.7596
▁چلا	-10.7597
ार्थ	-10.7597
▁ಇದೇ	-10.7597
▁હતાં	-10.7598
▁પ્રવાસીઓ	-10.7598
▁words	-10.7599
▁வழியாக	-10.7599
▁நடந்த	-10.76
▁ఆధారపడి	-10.76
▁ಪ್ರವಾಸಿಗರ	-10.7601
▁विदेशी	-10.7601
▁दिली	-10.7601
▁চিন্তা	-10.7602
▁দরকার	-10.7602
▁এইটোৱে	-10.7602
ିଷ୍ଟ	-10.7602
▁ପ୍ରକାଶ	-10.7603
▁વિસ્તારમાં	-10.7604
▁पहिल्या	-10.7604
ല്ലാതെ	-10.7604
▁leas	-10.7604
▁पुल	-10.7604
▁ಸಂಬಂಧಿಸಿದ	-10.7605
▁sport	-10.761
▁ਪ੍ਰਣਾਲੀ	-10.761
▁প্ৰধান	-10.7611
▁activity	-10.7611
▁হয়নি	-10.7611
▁ریاست	-10.7612
▁जेल	-10.7612
ுக்கும்	-10.7612
▁मामले	-10.7613
▁करीब	-10.7613
▁ସମସ୍ୟା	-10.7613
▁અધિકારીઓ	-10.7615
▁فیصل	-10.7619
▁ਨਿ	-10.7619
▁আয়	-10.762
▁മുൻപ	-10.7623
▁दाव	-10.7625
ਾਚੀਨ	-10.7625
▁পৰীক্ষা	-10.7626
▁ব্যৱস্থা	-10.7627
▁سابق	-10.7627
▁ಲೈನ್	-10.7627
▁മൂന്ന	-10.7628
▁पर्ने	-10.7629
▁મધ્ય	-10.763
▁भूमि	-10.7631
▁বোঝা	-10.7632
▁दु	-10.7632
▁ହା	-10.7632
ੜੀ	-10.7633
▁राख	-10.7633
ौं	-10.7636
ോടൊപ്പ	-10.7641
▁ಹೊಂದ	-10.7642
▁নিম্ন	-10.7644
▁ঝড়	-10.7644
▁body	-10.7644
ುವುದಿಲ್ಲ	-10.7645
▁বজা	-10.7646
▁ਸੂਰ	-10.7647
▁نسبت	-10.7647
▁கிழக்கு	-10.7648
▁അമേരിക്ക	-10.7649
▁ਕੁ	-10.765
▁சேர்ந்த	-10.7651
▁boat	-10.7653
▁ଏଥି	-10.7654
ंस	-10.7654
▁नेता	-10.7656
▁நாடுகள	-10.7656
▁ಸಂಸ್ಥೆಯ	-10.7658
लॉस	-10.7658
ୋ	-10.7659
िने	-10.7661
▁હવે	-10.7662
▁கடுமையா	-10.7662
▁ఉపయోగ	-10.7662
▁places	-10.7663
▁গেলে	-10.7665
▁جیسی	-10.7666
▁പേര	-10.7672
▁કરવાનો	-10.7673
▁રાખી	-10.7673
▁सहस	-10.7677
ള	-10.7684
▁થોડા	-10.769
▁মত	-10.7697
یاں	-10.7699
▁இடங்களில	-10.7702
పర	-10.7703
▁শতকে	-10.7705
ભી	-10.7711
▁शतकात	-10.7714
সে	-10.7717
ுக்காக	-10.7718
ગત	-10.7719
▁ಮಾಡುವುದ	-10.772
▁രീതിയി	-10.7722
হীন	-10.7722
▁ಫ್ರೆ	-10.7724
ಂಚ	-10.7726
▁ਯੂਰਪ	-10.773
▁اجا	-10.7733
▁மலை	-10.7733
ୁଁ	-10.7734
नीय	-10.7736
▁di	-10.7739
▁ਅਗ	-10.7745
ख्या	-10.7756
line	-10.7759
▁പുറത്ത	-10.7761
self	-10.7764
ನಲ್ಲಿರುವ	-10.7769
▁జ	-10.777
చెం	-10.7772
▁জান	-10.7772
स्ट	-10.7773
ਚੇ	-10.778
▁ભારત	-10.7785
▁ಪ್ರದೇಶ	-10.7787
▁ભ	-10.7787
शिश	-10.7792
▁چون	-10.7798
▁१	-10.7798
▁چاہت	-10.7801
ுதல்	-10.7802
ಿಗಳು	-10.7804
▁जाँच	-10.7806
কাল	-10.7807
▁উপস্থিত	-10.7811
ೆಂಟ್	-10.7816
▁കഴിയുന്ന	-10.7816
ہائی	-10.7816
വുമായ	-10.782
ുവാന	-10.7822
man	-10.7822
▁જર્મન	-10.7824
▁ವೇಳೆ	-10.7824
▁শে	-10.7824
દ	-10.7825
یئر	-10.7825
दृश्य	-10.7833
వంటి	-10.7835
మంది	-10.7836
▁انت	-10.7837
ನಿ	-10.7841
▁கலாச்சார	-10.7843
▁ആയ	-10.7845
സ	-10.7847
નાઇટ	-10.7851
ਹ	-10.7853
▁litt	-10.7854
▁باع	-10.7857
ಮತ್ತೆ	-10.7868
▁विकल्प	-10.7874
▁বাই	-10.7876
▁সেইটো	-10.7877
رام	-10.7877
ଣୁ	-10.7879
ட்ட	-10.7888
▁సంఖ్య	-10.7888
▁ನನ್ನ	-10.7892
▁ज़्यादात	-10.7895
▁પ્રવાસ	-10.7895
ിക്	-10.7896
ഓഫ്	-10.7897
વાની	-10.79
▁حالا	-10.7908
▁താമസ	-10.7908
പ്പ്	-10.7909
پر	-10.791
▁સહ	-10.7911
▁ਓ	-10.7915
▁ઓળખ	-10.7918
▁कहत	-10.7918
ರಲ್ಲಿ	-10.7921
▁जगात	-10.7923
యిత	-10.7926
▁ఖర్చు	-10.793
▁నెల	-10.7935
ति	-10.7935
▁ಬ್ರಿಟಿಷ	-10.7935
▁ଯା	-10.7942
ಸಿ	-10.7943
നി	-10.7948
▁കണ്ടെത്തി	-10.7948
ند	-10.7948
ದಂತೆ	-10.7948
▁ಚಂಡಮಾರುತ	-10.7955
▁ആയിര	-10.7956
▁ਨਦੀ	-10.7957
മുണ്ട്	-10.7961
▁பெற்ற	-10.7963
▁કરેલ	-10.7963
▁سامن	-10.7963
▁دل	-10.7966
day	-10.7968
▁यांच	-10.797
ಬೇಕಾದ	-10.7971
▁ମାନଙ୍କ	-10.7972
ତ୍ତି	-10.7973
▁चे	-10.7977
০০০	-10.7979
▁il	-10.7981
لت	-10.7982
▁ओळखल	-10.7984
▁ઓ	-10.799
લી	-10.7992
▁ಹೊಂದಿದ್ದ	-10.7995
ାହା	-10.8002
▁బయట	-10.8003
▁ਮੈ	-10.8005
▁शतका	-10.8006
▁सम्भव	-10.8007
▁एल	-10.8018
▁प्रदेश	-10.8018
▁ਦੇਖ	-10.802
માન	-10.8022
▁control	-10.8023
ണ്	-10.8024
▁ট	-10.8025
माना	-10.8033
ities	-10.8036
ಿರುತ್ತದೆ	-10.8037
▁تح	-10.8038
▁rich	-10.8043
▁ಅಗತ್ಯ	-10.8043
▁ಸಂಸ್ಕೃತ	-10.8049
▁परिस्थिती	-10.8052
▁جنگل	-10.8053
▁पत्र	-10.8057
▁ಸಾಗ	-10.8059
▁समज	-10.8062
▁আক্ৰমণ	-10.8067
र्वाधिक	-10.8068
ினார்	-10.8068
▁तयारी	-10.8069
▁नोंद	-10.807
ुन	-10.807
▁ஐ	-10.8072
▁இறுதி	-10.8073
▁direct	-10.8073
ल्लो	-10.808
ുകളെ	-10.8081
▁ఒ	-10.8082
ക്കാർ	-10.8089
டம்	-10.8089
▁টি	-10.809
▁বৰ	-10.8091
کار	-10.8094
ਕਸ਼	-10.8094
دید	-10.8095
اد	-10.8096
▁सक्न	-10.8097
ੰਪਿ	-10.8101
▁नव	-10.8102
▁భూమి	-10.8103
▁परवान	-10.8104
च्च	-10.8104
▁आत्म	-10.8107
▁शुक्र	-10.8108
▁nation	-10.8108
▁تبدیل	-10.8109
▁wild	-10.8112
▁कम्पनी	-10.8114
▁நம்ப	-10.8115
▁ಸೀ	-10.8116
પોર્ટ	-10.8117
പരമായ	-10.8117
ੰਬ	-10.8118
▁লক্ষ	-10.8124
▁nu	-10.8124
▁माहित	-10.8125
રે	-10.8127
ವರ	-10.8128
▁मन्दिर	-10.8132
▁सहाय	-10.8133
▁మార	-10.8134
▁প্ৰকাশ	-10.8134
▁ਅਨੁ	-10.8135
ଯ୍ୟ	-10.8135
▁ಅಂತರ	-10.8135
▁વિચાર	-10.8136
▁પ્રવૃત્તિ	-10.8137
▁यूरोप	-10.8137
▁our	-10.8139
▁गाय	-10.8139
ember	-10.8139
▁উল্লেখ	-10.8139
ుతుంది	-10.8139
▁amount	-10.814
▁certain	-10.814
▁families	-10.814
▁gmt	-10.814
▁republic	-10.814
▁surround	-10.814
▁باشند	-10.814
▁مضبوط	-10.814
▁ہزار	-10.814
▁क्षति	-10.814
▁पक्राउ	-10.814
▁प्रत्यक्ष	-10.814
▁विरूद्ध	-10.814
▁দোষ	-10.814
▁ଉଭୟ	-10.814
▁ମୃତ୍ୟୁ	-10.814
▁ఇంటర్నెట్	-10.814
▁మ్యాచ్	-10.814
▁ಆಡ	-10.814
▁ಉದಾಹರಣೆ	-10.814
▁ഉദാഹരണ	-10.814
▁ബഹിരാകാശ	-10.814
▁ବିଚାର	-10.814
▁ମୁଖ୍ୟ	-10.814
▁வணிக	-10.814
▁అమెరికన్	-10.814
ଘାତ	-10.814
▁پوائنٹ	-10.814
▁উদ্ধাৰ	-10.814
▁বিৰুদ্ধে	-10.814
▁ਆਕਰਸ਼	-10.814
▁ஆயிர	-10.814
▁పురా	-10.814
▁ವೈದ್ಯ	-10.814
▁समाधान	-10.814
▁சிறப்பு	-10.814
▁winter	-10.814
▁اطلاع	-10.814
▁ਅਨੁਸਾਰ	-10.814
▁مثال	-10.814
▁ପ୍ରସିଦ୍ଧ	-10.814
▁turn	-10.814
▁હેઠ	-10.814
▁ਜਿੱਤ	-10.814
▁ਪ੍ਰਕਾਸ਼	-10.814
▁kv	-10.814
▁अवलंब	-10.814
▁जोखिम	-10.814
▁উপকূল	-10.814
▁तूफ	-10.814
▁নিৰ্দিষ্ট	-10.814
▁वाईट	-10.814
▁ସମ୍ପର୍କ	-10.814
▁തമ്മി	-10.814
▁خبر	-10.814
▁अन्त्य	-10.814
▁மற்றொரு	-10.814
▁ਸਹਾਇ	-10.814
▁କରନ୍ତୁ	-10.814
ظیم	-10.814
▁સમગ્ર	-10.814
▁२००	-10.814
▁ਨੁਕ	-10.814
▁બહુ	-10.814
▁عالم	-10.814
▁sky	-10.814
▁brit	-10.814
▁apple	-10.814
▁માહિતી	-10.814
▁स्टेट्स	-10.8141
▁ತನಿಖೆ	-10.8141
▁પાછળ	-10.8141
▁બુક	-10.8141
▁ਮਹੀਨ	-10.8141
▁पारंप	-10.8141
ଘ୍	-10.8141
▁ریڈ	-10.8141
▁बचाव	-10.8141
▁ਹੋਟਲ	-10.8141
▁ಮೂರನೇ	-10.8141
▁ਆਇਆ	-10.8141
▁चीज़	-10.8141
▁वजन	-10.8141
▁ಹೇಳಿದ್ದಾರೆ	-10.8141
▁ਘੱਟੋ	-10.8141
▁foot	-10.8141
▁पृथ्वीवर	-10.8142
▁চিহ্নিত	-10.8142
▁range	-10.8142
▁उडान	-10.8143
ిష్ట	-10.8143
▁रास्त	-10.8143
▁પડી	-10.8143
▁बच्चाहरू	-10.8143
▁பள்ளி	-10.8143
सुस	-10.8143
▁முயற்சி	-10.8144
ोरै	-10.8144
▁ఉండటం	-10.8144
▁গেম	-10.8144
▁ఒకటి	-10.8145
▁મળે	-10.8145
▁ଅନୁସ	-10.8145
▁സേവന	-10.8145
▁scientist	-10.8145
▁हद	-10.8145
▁हाथ	-10.8146
▁ਸੋ	-10.8146
▁જશે	-10.8146
▁جیت	-10.8147
▁നീണ്ട	-10.8147
▁കാല	-10.8148
▁নেওয়া	-10.8148
▁ডে	-10.8148
▁cost	-10.8148
▁বলতে	-10.8149
▁करेल	-10.8149
▁हावा	-10.815
▁l	-10.815
▁شکار	-10.8151
▁विजेता	-10.8151
▁आयुक्त	-10.8151
▁আফ্ৰিকা	-10.8152
▁रचना	-10.8153
▁करीत	-10.8154
▁கோல்	-10.8154
▁away	-10.8155
▁image	-10.8155
▁മൂല	-10.8156
▁பொருட்கள	-10.8157
▁toward	-10.8157
▁ಕಂಪನಿಯ	-10.8159
▁ചെയ്യുന്നത്	-10.8159
▁سینٹ	-10.8162
ುತ್ತಿತ್ತು	-10.8163
▁cases	-10.8165
▁wind	-10.8165
▁अधिकारी	-10.8166
▁राख्न	-10.8167
▁പടിഞ്ഞാറ	-10.8167
▁ocean	-10.8167
▁വെള്ളം	-10.8167
গিত	-10.8168
▁કિમી	-10.8168
▁क्लास	-10.8168
▁જમીન	-10.8168
▁આર્થ	-10.8168
▁ಪಟ್ಟ	-10.8168
▁കാണുന്ന	-10.817
▁nations	-10.8171
▁આફ્રિકા	-10.8172
▁বাধা	-10.8175
्हें	-10.8179
ایت	-10.818
▁हेर्न	-10.818
ಕ್ಸ್	-10.8183
▁সম্পূর্ণ	-10.8184
▁ವಿಷಯ	-10.8184
▁ਸੈਨਾ	-10.8185
▁मर्याद	-10.8185
ur	-10.8185
▁race	-10.8188
▁put	-10.8188
మును	-10.8189
▁رہن	-10.8189
േറിയ	-10.8192
▁ਅੰਤ	-10.8192
▁ಬಳಸಿ	-10.8192
▁માંગ	-10.8194
▁শিখ	-10.8196
▁ஃப	-10.8197
▁آبادی	-10.8198
▁अफ्रिका	-10.82
▁ఆధార	-10.8203
▁ground	-10.8203
▁ଭଳି	-10.8203
land	-10.8204
▁modern	-10.8204
▁पेश	-10.8212
▁ચીન	-10.8214
▁பிரிட்ட	-10.8215
ापासून	-10.8215
▁जनर	-10.8217
न्स	-10.822
ାନ	-10.8224
ৰ্ট	-10.8226
ುತ್	-10.8227
▁দুর্	-10.8227
▁परिस्थितीत	-10.8228
▁कल	-10.8229
▁rock	-10.8229
ிடமிருந்து	-10.823
▁ইঙ্	-10.823
ടെ	-10.823
▁நிகழ்வுகள	-10.8233
▁رس	-10.8238
▁অ্যা	-10.8238
▁മറ്റൊര	-10.8239
▁ಜಲ	-10.8241
▁দশকে	-10.8241
धिकारि	-10.8242
▁تنظیم	-10.8244
▁నిజ	-10.8245
▁बढ	-10.8245
ിരിക്കുന്നു	-10.8249
▁union	-10.8249
▁మూడ	-10.8255
▁ग्र	-10.8255
▁दूरी	-10.8256
यात	-10.826
▁पहुंच	-10.8261
done	-10.8265
ਥੇ	-10.8267
▁ଜ	-10.8269
▁मूल्य	-10.8276
യർ	-10.8277
▁झ	-10.8281
▁old	-10.8284
▁sa	-10.8285
ত্ব	-10.8286
▁ಹೆಸರ	-10.8286
▁అతని	-10.8287
▁खिलाफ	-10.8289
টিকে	-10.829
▁পূর্বে	-10.8293
▁વિશેષ	-10.8294
▁আলো	-10.8297
हीँ	-10.8299
▁گرین	-10.8303
▁କମ୍	-10.8306
▁সরবরাহ	-10.8308
ٰ	-10.8309
▁ਅਜਿਹੀ	-10.831
शिप	-10.8314
ವ್	-10.8314
▁ଆଇନ	-10.8321
मत	-10.8321
mi	-10.8327
▁किंग	-10.8334
▁ರಿಂದ	-10.8335
ಿಸುವ	-10.8335
▁મિ	-10.8336
ക്കി	-10.834
▁लॉ	-10.8343
▁যান	-10.8351
्ज	-10.8356
िका	-10.8359
▁ਮਰ	-10.8365
▁others	-10.8367
▁खुल	-10.8369
▁बु	-10.837
▁எதிர்	-10.8371
▁سان	-10.8371
▁ಸಂ	-10.8378
ുവരെ	-10.838
సీ	-10.8384
▁لو	-10.8385
▁اسٹ	-10.8387
ास	-10.839
ेंट	-10.8394
▁আনক	-10.8395
▁لہ	-10.8396
ors	-10.8398
ইছিল	-10.8406
▁செ	-10.8407
▁দ্বীপটো	-10.8409
صر	-10.8411
्क	-10.8415
+	-10.8417
ਰਾਸ਼ਟਰੀ	-10.8419
▁ਪਿ	-10.842
▁ಅಡಿಯಲ್ಲಿ	-10.842
দৃশ্য	-10.8421
ದೊಡ್ಡ	-10.8422
▁ରୁ	-10.8423
▁ಕೇಂದ್ರ	-10.8424
એસ	-10.8425
most	-10.8425
ಾನ್	-10.8426
▁ತಾ	-10.8426
ୁଥିବା	-10.8431
मात्र	-10.8432
ਾਇਆ	-10.8433
b	-10.8434
▁hu	-10.8437
▁ଶୋ	-10.8437
ോട്	-10.8439
ಯೂ	-10.844
▁सफलता	-10.8442
ംഗ്	-10.8444
▁ബന്ധ	-10.8444
▁যাবে	-10.8447
▁শতাব্দী	-10.8447
તો	-10.8447
▁خرید	-10.8448
▁स्ट्री	-10.8452
ons	-10.8453
▁डा	-10.8453
▁നടന്ന	-10.8455
▁لگ	-10.8456
▁இரு	-10.8456
▁सर	-10.8458
रा	-10.8461
ப்பட்டுள்ளது	-10.8461
▁ವ	-10.8462
ক্স	-10.8466
the	-10.8467
▁بیل	-10.8468
▁ജീവ	-10.8469
▁ಆರಂಭ	-10.847
লগে	-10.8473
▁স্থল	-10.8473
কার	-10.8475
▁fear	-10.8477
ುದು	-10.848
▁പ്രശ്ന	-10.8483
▁આગ	-10.8486
▁ప్రాంతం	-10.8487
▁भविष्य	-10.8488
ಿದ	-10.8488
फा	-10.8489
ize	-10.849
▁fe	-10.8494
दायक	-10.8496
▁ದರ	-10.8499
ுமார்	-10.85
સન	-10.8501
ഷ്	-10.8512
▁ମୂଲ୍ୟ	-10.8517
اس	-10.8518
▁ವೈ	-10.8521
▁लगाउन	-10.8522
▁మాట్లాడే	-10.8524
▁ಸು	-10.8527
▁नंतर	-10.8528
▁مشت	-10.8528
િયા	-10.8533
▁शक्यत	-10.8534
▁सहित	-10.8538
▁ମସିହା	-10.8539
ൻ്റ്	-10.8542
▁চিত্র	-10.8549
লাৰ	-10.8553
▁ব্যা	-10.8554
""।	-10.8556
ाशी	-10.8556
▁less	-10.8559
க்கப்பட்டது	-10.856
থ	-10.8564
▁தேவை	-10.8569
ନିକ	-10.8569
▁ಹೇಗ	-10.8574
▁ഇവ	-10.8575
▁നേടിയ	-10.8578
படி	-10.858
▁திரும்ப	-10.8581
ട്ര	-10.8584
▁ட	-10.8586
▁মানুহক	-10.8587
▁અંતર	-10.8587
ਾਵਾਂ	-10.8588
க்கிறது	-10.8589
തിൻ്റെ	-10.859
ଥିଲେ	-10.8592
▁పర్యాటక	-10.8598
▁મુશ્કેલ	-10.8599
ovid	-10.86
سی	-10.86
▁ଭାଷ	-10.86
mm	-10.8605
▁ખાત	-10.8611
ानुसार	-10.8614
▁কেন্দ্ৰ	-10.8615
▁free	-10.8622
▁என்பதைப்	-10.8623
க்கூடும்	-10.8625
▁ਭ	-10.863
▁پڑ	-10.8632
▁अभ्यास	-10.8634
▁ஏற்	-10.8634
▁நூற்றாண்ட	-10.8635
▁ट्रै	-10.8636
▁చేసి	-10.8637
▁ওচৰ	-10.864
▁அறிந்த	-10.864
▁qui	-10.8641
▁પ્રયત્ન	-10.8642
▁മത	-10.8643
▁ਵ	-10.8644
▁ರಾಷ್ಟ್ರೀ	-10.8645
▁ମୁ	-10.8645
▁حا	-10.8648
সব	-10.8651
▁ट्र	-10.8653
▁છ	-10.8657
నీ	-10.8659
▁சமய	-10.8663
▁ಹಡಗುಗಳ	-10.8665
▁সংস্কৃত	-10.8674
▁விரும்ப	-10.8677
▁৩	-10.8679
▁শান্তি	-10.868
▁ਰੱਖਦ	-10.8681
لب	-10.8682
িষ্ট	-10.8682
राब	-10.8682
▁ਆਪਣ	-10.8684
▁ಚ	-10.8688
▁रखत	-10.869
▁ચ	-10.869
▁खतर	-10.8694
ക്കണ	-10.8694
ਰਕ	-10.8696
▁आकर्ष	-10.8699
بو	-10.8702
tion	-10.8702
▁बा	-10.8702
ਾਰ	-10.8702
▁ഫല	-10.8703
▁ৰোগ	-10.8705
▁ਨਵ	-10.8708
▁ಹೇಳಿದ	-10.871
▁ओल	-10.8711
ెస్	-10.8714
▁ఉద	-10.8714
▁చరిత్ర	-10.8718
ಜ್	-10.8719
▁રોગ	-10.872
▁ضروری	-10.8721
▁రక	-10.8721
▁अङ्क	-10.8722
▁कोष	-10.8722
▁మొదట	-10.8723
▁অস্ট্রেলিয়া	-10.8724
▁یونی	-10.8725
ਬਾਰਾ	-10.8725
▁বিকল্প	-10.8726
▁ગેર	-10.8727
▁விசாரணை	-10.8727
▁effect	-10.8728
▁ನಮ	-10.8728
▁women	-10.8728
▁قلع	-10.8728
▁مشہور	-10.8728
▁कुठे	-10.8728
▁चट्टान	-10.8728
▁टाढा	-10.8728
▁दृष्टिकोण	-10.8728
▁बावज	-10.8728
▁वरिपरि	-10.8728
▁ধ্বংস	-10.8728
▁পৰিস্থিতি	-10.8728
▁সচৰাচৰ	-10.8728
▁ਪਰਮਾਣੂ	-10.8728
▁ਵਿਦਿਆਰਥੀ	-10.8728
▁ਸਿਧਾਂਤ	-10.8728
▁કુદરત	-10.8728
▁સમુદ્ર	-10.8728
▁తూర్పు	-10.8728
▁ప్రకటన	-10.8728
▁ఫ్రెంచ	-10.8728
▁nucle	-10.8728
▁पुरस्कार	-10.8728
▁পর্যটক	-10.8728
▁মন্তব্য	-10.8728
▁সৈন্য	-10.8728
▁ਸੈਲਾਨੀ	-10.8728
▁ઓલિમ્પિક	-10.8728
▁ವಿನ್ಯಾಸ	-10.8728
▁परम्परा	-10.8728
▁ਸੜਕ	-10.8728
▁ભૌ	-10.8728
▁അന്താരാഷ്	-10.8728
▁পরিবহন	-10.8728
▁example	-10.8728
▁ਮੌਜੂਦ	-10.8728
▁ਜਿਆਦਾ	-10.8728
▁পরিকল্পনা	-10.8728
▁કિંમત	-10.8728
▁افریق	-10.8728
▁ઇતિહાસ	-10.8728
▁ਸਿੱਧ	-10.8728
▁سائنسدان	-10.8728
▁କରିପାରନ୍ତି	-10.8728
▁କରୁଛି	-10.8728
▁எரி	-10.8728
▁বিবাহ	-10.8728
▁ব্যাপক	-10.8728
▁dna	-10.8728
▁નિર્ણય	-10.8728
पवित्र	-10.8728
▁gdp	-10.8728
▁ৰখা	-10.8728
▁स्वतंत्र	-10.8728
▁વિશાળ	-10.8728
▁പെരുമാറ്റ	-10.8728
▁atlant	-10.8728
▁নকৰে	-10.8728
▁സ്വന്ത	-10.8728
▁எளிதாக	-10.8728
▁ଦେଖିବା	-10.8728
▁વિમાન	-10.8728
▁اٹل	-10.8728
▁safety	-10.8728
▁ଆଜି	-10.8728
▁विपर	-10.8728
▁ਸਟੇਸ਼ਨ	-10.8728
▁രണ്ടാമത്തെ	-10.8728
▁જવાબદાર	-10.8728
▁আহিছিল	-10.8728
▁डाउन	-10.8729
▁potential	-10.8729
▁آمد	-10.8729
▁مقبول	-10.8729
▁म्हणतात	-10.8729
▁यहाँ	-10.8729
▁વસ્તુઓ	-10.8729
▁గేమ్	-10.8729
▁അഞ്ച	-10.8729
▁तापनि	-10.8729
▁এগৰাকী	-10.8729
▁ਹੋਵੇਗੀ	-10.8729
▁கீழ	-10.8729
▁అందువల	-10.8729
▁ലഭിച്ചു	-10.873
टॉप	-10.873
▁मैच	-10.873
▁એરલાઇન્સ	-10.873
▁కొం	-10.873
▁organization	-10.873
▁won	-10.873
▁کیمپ	-10.873
द्याप	-10.873
▁بیان	-10.873
▁চহৰখন	-10.8731
▁पकड़	-10.8731
▁गर्थे	-10.8731
▁যেমন	-10.8731
▁لینس	-10.8731
▁സ്കേറ്റ	-10.8731
▁सक्रिय	-10.8731
▁এজেন্ট	-10.8731
▁সমান	-10.8732
▁ઘર	-10.8732
ਿਲਕ	-10.8733
▁ಹಿಮ	-10.8733
▁march	-10.8733
ಸೆ	-10.8733
▁ਠੰਡ	-10.8733
▁তত্ত্ব	-10.8734
▁होइन	-10.8734
▁west	-10.8736
▁ਪੁਰਾਣ	-10.8737
▁मेडि	-10.8737
▁আছিল৷	-10.8737
▁छिट	-10.8737
▁পাশ	-10.8737
▁પ્રકાર	-10.8737
▁होत्या	-10.8737
▁পছন্দ	-10.8737
ਸ਼ੀਲ	-10.8738
▁রোমান	-10.8738
▁বর্গ	-10.8739
▁ਮੁਸ਼ਕਲ	-10.8739
▁non	-10.8739
▁हिम	-10.8739
▁ਸਵੇਰ	-10.874
▁ਗੈਰ	-10.874
▁سرگرمی	-10.8741
▁مرکز	-10.8741
▁பொது	-10.8741
ାତ୍ମ	-10.8742
▁খোজ	-10.8742
▁পোহৰ	-10.8744
▁কৰোঁ	-10.8744
▁দেশগুলি	-10.8744
▁po	-10.8744
▁ਦੇਖਦ	-10.8745
▁ਸਮਾਂ	-10.8746
▁पाए	-10.8747
▁అదన	-10.8749
▁পৰ্বত	-10.8749
वारी	-10.8749
روف	-10.875
▁আলোক	-10.8751
▁खरे	-10.8751
▁విషయం	-10.8752
▁செய்து	-10.8753
▁இதன்	-10.8753
▁इच्छा	-10.8753
▁চাপ	-10.8754
▁માનવ	-10.8754
▁अन्तर्राष्ट्र	-10.8755
▁साम्राज्य	-10.8755
▁ಆಧುನಿಕ	-10.8757
▁விஞ்ஞான	-10.8757
▁చేస్తాయి	-10.8757
▁கொள்ளுங்கள்	-10.8757
▁population	-10.8758
▁ଲାଭ	-10.8758
بھی	-10.8759
▁ei	-10.8759
▁ఏద	-10.876
▁اسکو	-10.8761
ರ್ಸ್	-10.8761
▁இப்போத	-10.8761
▁দেশখন	-10.8761
ٹو	-10.8762
ਆ	-10.8762
▁நாடுகளில	-10.8766
▁games	-10.8767
ਬਰ	-10.8768
▁चीजहरू	-10.8773
▁निर्भर	-10.8773
ದರೆ	-10.8775
ਸਾਈਟ	-10.8775
▁अरब	-10.8776
▁سٹی	-10.8776
▁capital	-10.8776
▁ಸಾಂಪ್ರದಾಯಿಕ	-10.8776
టివ్	-10.8777
▁ಹೋದ	-10.8778
▁ਨਿਰਮਾ	-10.8778
ాల్లో	-10.8779
জনে	-10.8779
ਰਗ	-10.878
▁original	-10.878
▁prime	-10.878
▁നിരക്ക	-10.8782
▁کامیابی	-10.8782
▁ସେଗୁଡ଼ିକ	-10.8783
▁நியூ	-10.8784
▁ਤੁਰਕ	-10.8784
▁જેઓ	-10.8785
▁নিশা	-10.8787
▁locat	-10.8787
▁தொடர்பு	-10.8788
▁രാത്രിയി	-10.879
▁எதிர்பார்க்க	-10.8791
▁সিস্টেম	-10.8791
▁பின்ன	-10.8792
▁simpl	-10.8792
لک	-10.8793
▁ചുഴലിക്കാറ്റ	-10.8793
▁[	-10.8795
▁દર	-10.8796
रो	-10.8797
▁நல்ல	-10.8798
ક્સ	-10.8798
▁সম্	-10.88
ಾಗಿದ್ದ	-10.8801
ਾਤਰਾ	-10.8802
▁नोट	-10.8802
▁సి	-10.8807
▁ದಿನ	-10.8809
त्काल	-10.8809
▁વૈજ્ઞાનિકો	-10.8809
gan	-10.8814
▁চলা	-10.8816
▁کھا	-10.8817
▁ଦେବା	-10.8823
▁ବେଳେ	-10.8826
▁वाढ	-10.8831
ਦਾਰ	-10.8833
▁ಲೆನ್ಸ	-10.8834
▁ଜଳ	-10.8834
▁భాగ	-10.8836
▁സ്ഥല	-10.8837
▁వంతెన	-10.8839
కాని	-10.8839
▁ஓட்ட	-10.8843
▁সময়ে	-10.8845
غا	-10.8848
▁પવ	-10.8849
شمول	-10.8849
▁મુશ્કેલી	-10.8859
▁ଟ	-10.886
▁ചിലർ	-10.8864
▁ಬಾಲ್	-10.8865
▁നിർമ്മിക്ക	-10.8867
▁கலை	-10.8874
▁گزر	-10.8876
चित	-10.8878
▁வர	-10.8879
छन्	-10.888
▁ਟੈਕਸ	-10.8881
▁اسٹی	-10.8881
ಂ	-10.889
▁mark	-10.8891
▁त्यस्त	-10.8892
▁మానవుల	-10.8893
▁পিছ	-10.8897
▁তে	-10.8899
▁ਮਿ	-10.8903
▁ਮਤ	-10.8903
▁town	-10.8905
▁कोणते	-10.891
▁যত	-10.8913
लावा	-10.8914
നം	-10.8915
▁ਜਿਸਦ	-10.892
মুখী	-10.8921
▁અપ	-10.8926
▁ప్రాంతంలో	-10.8929
▁فر	-10.893
▁ਭਾਰਤ	-10.8932
▁लेक	-10.8933
▁আকাশ	-10.8934
బడి	-10.8934
▁ਏ	-10.8937
▁خصوصی	-10.8937
ుల	-10.8944
ಣ	-10.8946
▁ప్రాంత	-10.8947
▁ਯੋਜਨਾ	-10.8948
▁runn	-10.8948
▁ഉപയോഗിക്കുന്നത	-10.8951
▁அதற்க	-10.8951
▁ಅವಕಾಶ	-10.8952
▁செய்யும்	-10.8954
ਸਟ	-10.8956
su	-10.8956
کیل	-10.8958
برگ	-10.8959
▁കുട്ടികൾ	-10.8964
▁টেলিভিশন	-10.8975
ದ್ದಾರೆ	-10.8977
▁असल	-10.8977
مت	-10.8978
▁ಪ್ರಯಾಣ	-10.8978
सारख	-10.8979
بل	-10.8985
പ്പെടുന്നു	-10.8986
▁लिख	-10.8987
गरी	-10.8987
▁विष	-10.8988
▁విమాన	-10.8993
▁ਦਿ	-10.8994
▁ব্যক্তিগ	-10.8994
bal	-10.8997
४	-10.8999
▁શ	-10.8999
▁കൂടിയ	-10.9
ভূমি	-10.9001
▁ଗ୍ରହ	-10.9004
▁எண்ண	-10.9007
▁আহিব	-10.9011
▁legal	-10.9018
▁বিশ্ববিদ্যালয়	-10.902
▁അപകട	-10.9023
▁भागात	-10.9024
▁ماہ	-10.9025
ନ୍ସ	-10.9029
less	-10.903
▁लागे	-10.903
jr	-10.9035
ल्यान्ड	-10.9038
হলে	-10.9039
ହ	-10.9039
जवळ	-10.9039
قصد	-10.904
വരെ	-10.9041
माथि	-10.9044
▁মাহত	-10.9045
▁गरी	-10.9047
▁കാണ	-10.9047
निश्चित	-10.9048
▁ಸಂಸ್ಕೃತಿಯ	-10.9048
ಲಿಯನ್	-10.9049
▁ಇಲ್ಲ	-10.9049
▁+	-10.9049
વે	-10.9051
▁साधारण	-10.9051
▁অধীনে	-10.9056
ಗೂ	-10.9056
▁ಒಳಗೊಂಡ	-10.9056
▁ग्रह	-10.9062
▁అవ	-10.9062
▁கூற	-10.9063
▁پائی	-10.9064
▁অন্ত	-10.9068
▁మిలియన్	-10.9069
▁বিপক্ষ	-10.907
ಡೀ	-10.9083
▁பா	-10.9087
▁ઇ	-10.9088
▁विस्फोट	-10.9088
ঙে	-10.9088
ವಾಗಿವೆ	-10.9089
ণ্ড	-10.9091
▁ಬಲ	-10.9092
▁ഗ	-10.9093
▁દેખાવ	-10.9094
▁কার্য	-10.91
▁ر	-10.91
▁سن	-10.9104
▁वेगा	-10.9104
ৰণ	-10.9106
ਮਾਨ	-10.9114
ிறது	-10.9117
▁সো	-10.9118
▁বেগ	-10.9118
▁এলেকা	-10.9125
▁آئ	-10.9125
▁چی	-10.9128
▁அடிப்படையில	-10.9135
ਪੋਰਟ	-10.9138
ਖੇ	-10.9139
▁बेस	-10.9143
पक्षी	-10.9143
ٹس	-10.9149
ਾਇਨ	-10.9154
and	-10.9156
▁ஐந்த	-10.9157
▁कोणत	-10.916
▁భారత	-10.9161
▁રૂપ	-10.9162
▁தாக்க	-10.9162
▁समझन	-10.9163
▁திறன்	-10.9164
▁നടത്ത	-10.9166
▁ನದಿಯ	-10.9169
▁ମାସ	-10.917
ീവ്	-10.9171
ાન	-10.9173
▁സമ	-10.9176
ಗೊಳಿಸ	-10.9176
▁எண்ணிக்கை	-10.9177
▁ಸಿ	-10.9178
भ	-10.9178
▁தகவல்	-10.918
▁ஏற்ற	-10.9183
▁ഉണ്ടായ	-10.9184
▁বায়ু	-10.9186
▁महत्त्वाच	-10.9188
▁ર	-10.9189
▁ਵੇ	-10.9191
رش	-10.9191
ણી	-10.9194
▁রোগ	-10.9195
ward	-10.9197
▁سار	-10.9198
▁સ્થળ	-10.92
▁વિકસ	-10.9201
▁fif	-10.9203
▁જૂન	-10.9203
▁ਬੋਲ	-10.9208
जसो	-10.921
▁सस्त	-10.9211
ذا	-10.9211
▁ৰাতি	-10.9211
्यूट	-10.9212
స్తాయి	-10.9214
▁செல்	-10.9216
▁માર્ગ	-10.9217
▁ವಿ	-10.9219
▁படைகள	-10.9219
▁లాంటి	-10.9222
▁ઉ	-10.9224
▁प्रक्रिये	-10.9229
ਠ	-10.9231
▁ਦਰ	-10.9232
গ্রহ	-10.9232
▁अमेरिक	-10.9232
▁ଶୀ	-10.9241
▁প্ৰকৃত	-10.9242
▁ഭാഗങ്ങള	-10.9243
▁ठर	-10.9244
▁पहि	-10.9248
कृत	-10.9252
▁mov	-10.9254
▁পদ	-10.9255
▁நபர்	-10.9257
ಲಾಗುತ್ತದೆ	-10.9257
णा	-10.9261
▁ਜੁ	-10.9266
▁گ	-10.927
▁खेळाडू	-10.9274
▁கட்ட	-10.9276
خت	-10.9279
▁ஒளி	-10.9279
▁ರಾಜ್ಯ	-10.928
▁यात्र	-10.9283
▁ವ್ಯಕ್ತಿಗಳ	-10.9285
▁दरम्यान	-10.9286
▁ایر	-10.9296
▁আটক	-10.9297
▁নম্বৰ	-10.9299
দিকে	-10.9302
▁मिस्ट	-10.9303
▁സൗ	-10.9304
▁રાજ્ય	-10.9305
र्थ	-10.9306
▁વ	-10.9307
▁ਵਿਗਿਆਨੀ	-10.9308
▁નિ	-10.9309
▁ಪರ	-10.9313
▁बनात	-10.9314
▁گز	-10.9318
▁નદી	-10.9319
▁olympic	-10.932
▁flight	-10.9321
▁point	-10.9322
ثی	-10.9324
▁पृथ्वी	-10.9328
▁ટાપુ	-10.933
▁অবস্থা	-10.9333
માણ	-10.9336
ଧିକ	-10.9339
▁ധാര	-10.9341
▁cou	-10.9341
▁ਫੌਜ	-10.9341
ందున	-10.9342
▁విద్య	-10.9345
▁ಏಕ	-10.9346
▁بول	-10.9346
▁ಭೂ	-10.9347
बे	-10.9348
▁एकत्र	-10.9349
▁കൈ	-10.935
▁निर्धार	-10.9351
বর্তী	-10.9352
िचित	-10.9352
▁मैदान	-10.9353
▁চুক্তি	-10.9353
ୈଳ	-10.9353
▁সংবাদ	-10.9353
▁પ્રવેશ	-10.9353
▁जीवाश्म	-10.9353
ਧੁਨਿਕ	-10.9353
▁approach	-10.9353
▁economy	-10.9353
▁energy	-10.9353
▁individual	-10.9353
▁previous	-10.9353
▁sá	-10.9353
▁turkey	-10.9353
▁زلزل	-10.9353
▁طاقت	-10.9353
▁پذیر	-10.9353
▁گرفتار	-10.9353
▁औं	-10.9353
▁चिकित्सा	-10.9353
▁मधुमेह	-10.9353
▁शिखर	-10.9353
▁संविधान	-10.9353
▁উদাহরণ	-10.9353
▁উপলব্ধ	-10.9353
▁খবর	-10.9353
▁ਅਨੁਭਵ	-10.9353
▁ਕੁਦਰਤ	-10.9353
▁ਨਤੀਜ	-10.9353
▁ઓસ્ટ્રેલિયા	-10.9353
▁મહિના	-10.9353
▁શ્રેષ્ઠ	-10.9353
▁சோதனை	-10.9353
▁నమోద	-10.9353
▁యూరోపియన్	-10.9353
▁శాస్త్రవేత్త	-10.9353
▁ದೋಣಿ	-10.9353
▁ಪರ್ವತ	-10.9353
▁ആഫ്രിക്ക	-10.9353
▁പിന്നീട	-10.9353
▁परंपरा	-10.9353
▁ત્રણ	-10.9353
▁ફ્લાઇટ	-10.9353
▁business	-10.9353
▁عموما	-10.9353
▁নেতৃত্ব	-10.9353
▁ਡਿੱਗ	-10.9353
▁സ്പാനിഷ്	-10.9353
▁हिउँ	-10.9353
▁ପାଣି	-10.9353
▁matter	-10.9353
▁প্রস্তাব	-10.9353
▁সংকেত	-10.9353
▁அடுத்த	-10.9353
▁চূড়ান্ত	-10.9353
▁প্ৰজাতি	-10.9353
▁જરૂરિયાત	-10.9353
▁خراب	-10.9353
▁સિસ્ટમ	-10.9353
▁प्रतिक्रिया	-10.9353
ಿದ್ದಾನೆ	-10.9353
▁انھ	-10.9353
▁മാത്രമേ	-10.9353
▁گروپ	-10.9353
▁କେତେ	-10.9353
▁समिति	-10.9353
বিহীন	-10.9353
▁সুৰক্ষা	-10.9353
▁ట్రాన్స్	-10.9353
▁ಇಬ್ಬರ	-10.9353
▁নীচে	-10.9353
বজাত	-10.9353
▁అందిస్తుంది	-10.9353
▁కాబ	-10.9353
▁इराक	-10.9353
▁இசை	-10.9353
▁ವಿದ್ಯ	-10.9353
▁कठिन	-10.9353
▁स्पेनिश	-10.9353
व्र	-10.9353
▁পাখি	-10.9353
▁উল্লেখযোগ্য	-10.9353
▁transportation	-10.9353
▁अस्था	-10.9353
▁ವಸತಿ	-10.9353
▁இடையே	-10.9353
▁অপেক্ষা	-10.9353
▁ਹਜ਼ਾਰ	-10.9353
▁ఏళ్ల	-10.9353
▁জনপ্	-10.9353
▁ধারণা	-10.9354
▁সম্ভাৱনা	-10.9354
▁ਸਿੱਖਿਆ	-10.9354
ಪ್ರಥಮ	-10.9354
▁ଆଶା	-10.9354
▁અપેક્ષા	-10.9354
▁समुदाय	-10.9354
▁দুর্ঘটনা	-10.9354
▁یونان	-10.9354
▁ਪਾਇਆ	-10.9354
▁کردیا	-10.9354
▁आंतरराष्ट्रीय	-10.9354
▁प्रतिस्पर्धा	-10.9354
▁இருக்கிறது	-10.9354
▁जाईल	-10.9354
▁موت	-10.9354
▁میزبان	-10.9354
ୁକ୍ତ	-10.9354
▁इटाली	-10.9354
▁చెప్పారు	-10.9355
ଶିଷ୍ଟ	-10.9355
▁आवास	-10.9355
▁outside	-10.9355
▁కాకుండా	-10.9355
▁গঠিত	-10.9355
▁भीड़	-10.9355
▁అదే	-10.9355
▁army	-10.9355
கனவ	-10.9355
▁ವಿಮಾನಯಾನ	-10.9355
▁वादळ	-10.9355
▁सामग्री	-10.9355
ാളം	-10.9355
▁ଆବଶ୍ୟକତା	-10.9356
▁लगाया	-10.9356
▁زہر	-10.9356
▁ആവശ്യമാണ്	-10.9356
▁கொண்டிருந்தது	-10.9356
▁महान	-10.9356
▁नंबर	-10.9357
▁لحا	-10.9357
▁સમસ્યાઓ	-10.9357
▁फूल	-10.9357
▁ବିମାନ	-10.9357
▁یونین	-10.9358
▁آیا	-10.9358
▁ਇਟ	-10.9358
▁mor	-10.9359
▁ఫోటో	-10.9359
▁ye	-10.9359
▁ટ્રા	-10.9359
▁প্ৰাণী	-10.936
▁छवि	-10.936
▁തിരഞ്ഞെടുപ്പ	-10.936
▁இட	-10.9361
▁விலை	-10.9361
▁drink	-10.9362
▁ரீதியாக	-10.9362
▁lot	-10.9362
▁moon	-10.9362
▁প্ৰাচী	-10.9362
▁பாதுகாப்பு	-10.9362
▁घेतला	-10.9362
▁बुझ्न	-10.9363
▁કરશે	-10.9363
▁حج	-10.9363
▁আছে৷	-10.9364
▁भिडियो	-10.9364
▁ਵਿਚਾਰ	-10.9364
▁భద్రత	-10.9364
▁requirements	-10.9364
▁انتخاب	-10.9364
▁બ્રિટિશ	-10.9364
▁roll	-10.9365
▁চালানো	-10.9365
▁कथित	-10.9365
▁পাৰিব	-10.9365
▁কার্ড	-10.9365
▁প্রাক	-10.9366
▁तुलने	-10.9366
▁স্বীকৃতি	-10.9366
▁ਬਣਾਏ	-10.9366
▁शकता	-10.9367
▁वैज्ञानिकहरू	-10.9369
▁art	-10.9369
▁പതിവ	-10.9369
▁മേ	-10.937
▁কৰক	-10.937
▁मामल	-10.9371
মান্য	-10.9372
▁ਬਜ	-10.9373
रफ़्	-10.9373
▁అరెస్ట	-10.9374
▁সরা	-10.9374
▁grand	-10.9374
▁பகுதியில	-10.9375
▁प्रवक्ता	-10.9375
▁हमला	-10.9375
▁पृथ्वीमा	-10.9376
▁अन्तर्	-10.9376
▁റിപ്പബ്ലിക്ക	-10.9378
▁जिन	-10.9378
▁ਵਿਰ	-10.9379
▁युरोपिय	-10.938
वनी	-10.938
▁قو	-10.938
▁देणार	-10.9381
▁ਵਿਕਸ	-10.9382
▁खोल	-10.9384
▁keep	-10.9384
▁খারাপ	-10.9384
▁পৃথক	-10.9384
▁ഗതാഗത	-10.9384
▁পৰিকল্পনা	-10.9384
▁જેટલ	-10.9385
▁కొన	-10.9385
gest	-10.9386
▁માને	-10.9387
▁ಸೇವೆ	-10.9388
ట్టి	-10.939
ंच्या	-10.939
ત્વ	-10.9391
▁ਅਜ	-10.9391
▁ક્રમ	-10.9393
▁જેવ	-10.9393
▁অধিকাৰ	-10.9394
ाना	-10.9395
▁flow	-10.9395
▁যেগুলো	-10.9398
▁سک	-10.9398
▁تیل	-10.9399
▁ജന	-10.94
▁ఉపయోగించ	-10.9401
▁পৰ	-10.9404
▁വീഡിയോ	-10.9405
▁پروگرام	-10.9407
▁rule	-10.9408
▁ভোট	-10.941
ঞ্চ	-10.941
ments	-10.9411
ரி	-10.9411
▁ડે	-10.9412
▁प्रदेशात	-10.9412
▁छोटी	-10.9413
▁سنس	-10.9418
▁মই	-10.9418
▁পৰিৱৰ্তন	-10.9419
▁ਸਮਾਪਤ	-10.9419
▁వారం	-10.9419
▁test	-10.9419
▁মন্দির	-10.9419
▁પ્રવાસી	-10.942
▁पेट	-10.9424
▁বিপদ	-10.9424
▁گرد	-10.9424
▁புவியிய	-10.9427
यम	-10.9428
्	-10.9428
▁ଠିକ	-10.9428
▁ਖਤਰ	-10.9429
ಯನ್	-10.943
▁કેસ	-10.943
േക്കാം	-10.9432
ਰਲ	-10.9433
ಗಳಿಗ	-10.9435
▁قدرت	-10.9436
▁தற்போத	-10.9436
▁جون	-10.9436
▁ఏడ	-10.9437
▁ప్రపంచంలో	-10.9439
▁విమానం	-10.944
▁ശ	-10.9441
▁स्की	-10.9446
▁ಐದ	-10.9446
▁ନେଇ	-10.9452
▁ਸੰਪ	-10.9453
▁ഹ	-10.9453
▁স্থ	-10.9454
▁ওচৰত	-10.9456
▁لین	-10.9456
▁ਮਨ	-10.9458
▁ശതമാന	-10.946
▁دہ	-10.946
போதில	-10.9462
▁हों	-10.9464
▁কেন	-10.9465
ப்பதற்கு	-10.947
ங்களில	-10.9471
▁কেপ	-10.9473
▁युना	-10.9474
ਗੀ	-10.9477
ੱਟ	-10.9477
ટી	-10.9477
▁قیمت	-10.9478
તમ	-10.948
▁വിവര	-10.9482
ಜಾ	-10.9483
ster	-10.9484
▁cap	-10.9487
ତମ	-10.9487
▁ਸਟ	-10.9488
اط	-10.9489
িঅ	-10.9496
কীয়	-10.9496
▁بس	-10.9498
ಟಿಕ್	-10.9498
▁மீத	-10.9499
▁எதுவும	-10.9501
▁वाटत	-10.9502
▁सुन	-10.9505
શો	-10.9508
▁कॉल	-10.9509
dom	-10.9515
▁ಕ್ರಮ	-10.9528
▁रेड	-10.9532
ిన్	-10.9533
▁सावधान	-10.9534
▁ਟੈ	-10.9535
োৱা	-10.9538
▁fast	-10.9539
▁ٹیو	-10.9542
▁એર	-10.9542
ഗ	-10.9545
▁பதிவு	-10.9546
▁باز	-10.9546
▁জে	-10.9547
▁വിജയ	-10.9552
▁ద్వీపాల	-10.9556
ಿಕೆಯ	-10.956
▁रख	-10.956
▁மத	-10.9567
▁ترق	-10.9568
पी	-10.9569
ique	-10.9569
▁कायदेशीर	-10.957
▁സംഘ	-10.9572
बा	-10.9576
पात	-10.9577
▁રહેલા	-10.9582
▁வழி	-10.9587
বাৰে	-10.9588
▁অবস্থান	-10.9589
ਜੀ	-10.9594
▁पाया	-10.9596
প্ৰাপ্ত	-10.9597
▁વધ	-10.9598
्ने	-10.9599
गम	-10.96
▁indian	-10.96
েল	-10.9602
▁ਫੈਲ	-10.9602
ଜନ	-10.9605
दृष्ट	-10.9605
▁ಪ್ರವಾಸಿ	-10.9607
▁பற்றிய	-10.961
ेका	-10.9612
▁സംസാരിക്കുന്ന	-10.9614
ન્ટ	-10.9617
▁ଦ	-10.9618
▁ಬರ್	-10.9619
▁അഭിപ്രായ	-10.962
र्स	-10.9625
▁चक्र	-10.9628
اب	-10.9628
▁કર	-10.9631
▁পড়েছিল	-10.9633
▁নির্	-10.9633
▁কিনা	-10.9634
▁नका	-10.9635
▁বন্ধু	-10.9642
▁sign	-10.9643
▁came	-10.9649
ഗോ	-10.9649
കെ	-10.9651
▁ସମ୍ପ	-10.9652
▁ଉ	-10.9654
▁રે	-10.9654
▁ਗਿ	-10.9654
▁ਤਾਰ	-10.9654
ँदै	-10.9657
▁पासून	-10.9665
▁فور	-10.9666
▁caus	-10.967
▁સામ	-10.9671
▁সত্ত্ব	-10.9673
କ୍ରମ	-10.9674
হোক	-10.9682
▁বন্য	-10.9684
▁ਸਮਝਣ	-10.9685
ସ୍ତ	-10.9686
డో	-10.9689
▁રોમન	-10.9692
▁ସର୍ବ	-10.9694
সেরা	-10.9695
ਮਾਲ	-10.9696
▁ਹਾਈ	-10.9698
रही	-10.9699
ৰ্ড	-10.9706
▁ಕಾರ್ಯಕ್ರಮಗಳ	-10.9707
ll	-10.9709
came	-10.9711
করণ	-10.9712
सम्बन्ध	-10.9713
राज्य	-10.9714
ભૂત	-10.9718
▁cont	-10.9719
ನಾ	-10.972
▁گیس	-10.9723
off	-10.9726
▁ফ্রান্স	-10.9728
ଠା	-10.973
शिवा	-10.9732
▁আপ	-10.9733
▁ad	-10.9733
▁जगा	-10.9736
यान	-10.9741
▁तपास	-10.9743
▁વર્ષો	-10.975
▁ஆண்டுகள	-10.9751
বৰ	-10.9752
شی	-10.9755
▁ഇല്ല	-10.9756
▁establish	-10.9756
▁आराम	-10.9757
▁साइट	-10.9758
▁சொல்ல	-10.9759
▁বাছ	-10.9759
▁امریک	-10.976
▁நேரத்தில	-10.9761
▁लेन्स	-10.9765
▁જાણીત	-10.9765
▁तळ	-10.9768
▁ਦਰਜ	-10.9769
வது	-10.977
কো	-10.9775
▁ಉಪ	-10.9779
▁மருத்துவ	-10.9782
▁مت	-10.9785
ਕਰਨ	-10.9788
▁பயணி	-10.9788
▁দেয়া	-10.9791
ಿರಲಿಲ್ಲ	-10.9796
ುತ್ತಿರುವ	-10.9797
▁आकाश	-10.9797
▁झा	-10.98
▁બનાવે	-10.98
▁নির্বাচন	-10.9801
େଟ୍	-10.9804
ندی	-10.9808
ne	-10.9808
▁ಒಬ್ಬ	-10.9811
▁india	-10.9811
▁تہ	-10.9813
▁हि	-10.9813
ning	-10.9816
ਕੋ	-10.9818
▁ನೇರ	-10.9821
▁সকাল	-10.9822
▁முறை	-10.9823
ದ್ದ	-10.9828
फ	-10.983
್ಯ	-10.9835
▁ഔദ്യോഗിക	-10.9836
▁ठहर	-10.9837
ंमध्ये	-10.9838
▁ନାମ	-10.9843
▁কাৰ	-10.9844
▁ಸಂಬಂಧ	-10.9845
▁હોત	-10.9847
ష్	-10.9848
പ്പോഴും	-10.985
ଣା	-10.985
चर	-10.9851
▁শ্ব	-10.9851
▁गरिन	-10.9852
ूल	-10.9855
▁men	-10.9858
▁दिसू	-10.9864
ഡ	-10.9867
વાળ	-10.9871
▁పాయింట్ల	-10.9872
▁ବ୍ୟ	-10.9872
▁അംഗ	-10.9873
ാണെങ്കി	-10.9874
▁ശ്രമ	-10.9876
▁লোকসকল	-10.9879
▁ತಂಡದ	-10.9881
▁এসে	-10.9881
▁success	-10.9885
भर	-10.9885
▁چھ	-10.9886
▁அழக	-10.9889
▁നിലയ	-10.9889
याचा	-10.9891
ોને	-10.9892
▁गो	-10.9894
ైన్	-10.9896
انی	-10.9898
ள	-10.9899
▁ಸಾಧ್ಯವ	-10.9902
▁ചരിത്ര	-10.9902
ରିକ	-10.9903
ించడం	-10.9903
ੱਬ	-10.9904
रत	-10.9905
▁तीस	-10.9906
ਤਾਰ	-10.9907
ંડ	-10.9911
ੰਭ	-10.9912
▁mone	-10.9913
തിൽ	-10.9914
▁جائ	-10.9919
▁ਸਕੇ	-10.9927
▁ಇವು	-10.9928
▁ಸ್ಕೀ	-10.9933
ಷ್ಟೇ	-10.9934
▁سیاح	-10.9936
চন	-10.9943
▁don	-10.9946
▁நாடு	-10.9949
ાત્મ	-10.9949
▁ফ্ল	-10.9949
▁இருந்தன	-10.995
▁காட்ட	-10.9951
ਸਾ	-10.9951
▁शिकार	-10.9953
▁രാജ്യ	-10.9954
▁ଅବ	-10.9954
़ान	-10.9957
▁ವ್ಯಕ್ತಿಯ	-10.9958
వు	-10.9962
▁दिला	-10.9964
▁भू	-10.9965
▁চা	-10.9965
▁చెంద	-10.9967
▁அமைப்ப	-10.9971
▁अहवाल	-10.9971
▁ದ	-10.9972
▁ಮರು	-10.9973
ೀಸ್	-10.9974
▁ਹੱਥ	-10.9974
▁జర్మన	-10.9974
▁நிறுவனம	-10.9974
▁প্রবেশ	-10.9975
▁اُ	-10.9975
▁ట్రావ	-10.9976
રિક	-10.9977
activ	-10.9977
▁ವೆಬ್	-10.9977
ినప్ప	-10.9978
▁ಚಿತ್ರ	-10.9978
▁ಹತ್ತಿರ	-10.9979
निंग	-10.9979
ାଇ	-10.998
▁வார	-10.9983
▁san	-10.9983
▁छुट	-10.9983
ld	-10.9986
▁ડિ	-10.9987
▁நகரம	-10.9988
▁தவிர	-10.9989
▁ಭಾಷೆ	-10.999
▁ಅಧ್ಯಯನ	-10.9991
▁சு	-10.9992
▁ਮੀ	-10.9993
▁ഡി	-10.9997
▁interest	-10.9998
▁സംസ്	-10.9998
▁कै	-11
اؤن	-11.0001
झ	-11.0002
▁indicat	-11.0002
▁वातावरण	-11.0003
▁જણાવ	-11.0003
▁ਜ਼ਰੂਰ	-11.0006
▁درج	-11.0009
▁જાહેરાત	-11.001
ଚ୍ଚ	-11.001
▁ऊपर	-11.0013
▁inter	-11.0013
बो	-11.0015
टिंग	-11.0016
▁ਵੈ	-11.0017
▁शीर्ष	-11.0017
▁প্ৰতিবেদন	-11.0018
▁వచ్చిన	-11.0018
oft	-11.0018
▁civil	-11.0019
▁હતુ	-11.0019
▁కేంద్రం	-11.0019
▁possib	-11.0019
इरहेक	-11.0019
▁ପ୍ରତ୍ୟ	-11.002
▁ବିଶେଷ	-11.002
▁ಸಂದರ್ಭ	-11.002
নিরাপত্তা	-11.002
▁brazil	-11.002
▁course	-11.002
▁hiking	-11.002
▁تحقیق	-11.002
▁پاکستان	-11.002
▁अस्तित्व	-11.002
▁अस्पताल	-11.002
▁कब्जा	-11.002
▁पिरामिड	-11.002
▁स्पर्धे	-11.002
▁পরিমাণ	-11.002
▁পর্যায়	-11.002
▁বিশ্বযুদ্ধ	-11.002
▁ਕੱਢ	-11.002
▁ਤਸਵੀਰ	-11.002
▁ਪਾਕਿਸਤਾਨ	-11.002
▁ਬਿਮਾਰੀ	-11.002
▁ਵਿਕਲਪ	-11.002
▁અમેરિકા	-11.002
▁કિલોમીટર	-11.002
▁યુનિવર્સિટી	-11.002
▁ଅତିରିକ୍ତ	-11.002
▁ନିର୍ଦ୍ଦ	-11.002
▁ପ୍ରଦର୍ଶନ	-11.002
▁అరుద	-11.002
▁ఉత్పత్తి	-11.002
▁కంపెనీ	-11.002
▁న్యూజిలాండ్	-11.002
▁భూకంప	-11.002
▁విభిన్న	-11.002
▁సమావేశం	-11.002
▁ನಿಯಂತ್ರಣ	-11.002
▁ಸ್ಪ್ಯಾ	-11.002
▁ആധുനിക	-11.002
▁ദൂര	-11.002
▁ബ്രിട്ടീഷ	-11.002
▁ഭൂകമ്പ	-11.002
▁വാഗ്ദാന	-11.002
▁royal	-11.002
▁دستاویز	-11.002
▁नुकसान	-11.002
▁रिकॉर्ड	-11.002
▁অবৈধ	-11.002
▁জনসংখ্যা	-11.002
▁পরিস্থিতি	-11.002
▁প্রাথমিক	-11.002
▁ਆਰਥਿਕ	-11.002
▁ਵਿਕਾਸ	-11.002
▁ਸੰਕੇਤ	-11.002
▁ભૂકંપ	-11.002
▁શરીર	-11.002
▁ಪುರಾತ	-11.002
▁সম্ভাবনা	-11.002
▁ଖାଦ୍ୟ	-11.002
▁மேற்பட்ட	-11.002
▁സംബന്ധിച്ച	-11.002
▁earlier	-11.002
▁glo	-11.002
▁मौजूद	-11.002
▁वर्तमान	-11.002
▁ಪ್ರಯಾಣಿಕರ	-11.002
▁acma	-11.002
▁تباہ	-11.002
▁पाँच	-11.002
▁बाँकी	-11.002
▁ब्लेड	-11.002
▁ਬਿਹਤਰ	-11.002
▁లోపల	-11.002
▁italian	-11.002
▁দায়িত্ব	-11.002
▁storm	-11.002
▁अनुकूल	-11.002
▁आनंद	-11.002
▁ઉપરાંત	-11.002
▁کشتی	-11.002
▁palm	-11.002
▁নিযুত	-11.002
▁عوام	-11.002
▁വീണ്ട	-11.002
▁വിവിധ	-11.002
▁france	-11.002
▁strong	-11.002
▁सम्पत्ति	-11.002
▁এসেছিল	-11.002
▁তবু	-11.002
▁येऊ	-11.002
▁ପଢିବା	-11.002
▁club	-11.002
▁ਰੱਖੋ	-11.002
▁থিয়	-11.002
▁తెలిపారు	-11.002
▁ebay	-11.002
▁final	-11.002
▁সংরক্ষণ	-11.002
▁ବିପଦ	-11.002
▁ସମୁଦ୍ର	-11.002
▁தெரிவித்தார்	-11.002
▁ہفت	-11.002
▁ছেড়ে	-11.002
▁weather	-11.002
▁हिंद	-11.002
▁produce	-11.002
▁ਵਾਧ	-11.002
▁काळजी	-11.002
▁तपासणी	-11.002
▁स्पेन	-11.002
▁ఉంద	-11.002
▁जाएगा	-11.002
▁ಇಂಗ್ಲ	-11.002
▁আনুষ্ঠানিক	-11.002
▁ହେଉଥିବା	-11.002
▁তালিকা	-11.002
▁ಬಿಸಿ	-11.002
▁नियन्त्रण	-11.002
▁মটৰ	-11.002
▁advance	-11.002
▁முழு	-11.002
▁network	-11.002
▁केन्या	-11.002
▁تھوڑ	-11.002
▁مارچ	-11.002
▁आदेश	-11.002
▁हज़ार	-11.002
▁नेतृत्व	-11.002
▁আৱিষ্কাৰ	-11.002
▁species	-11.002
▁पाणी	-11.002
▁આયોજન	-11.002
▁फ्रेंच	-11.002
▁ಯಾವಾಗ	-11.002
▁ઝેર	-11.002
▁minister	-11.002
▁अगदी	-11.0021
▁বৈশিষ্ট্য	-11.0021
പാട്	-11.0021
▁feet	-11.0021
▁संगठन	-11.0021
▁शान्ति	-11.0021
▁বেঁ	-11.0021
▁heav	-11.0021
▁ऑफ़	-11.0021
▁অব	-11.0021
▁উপভোগ	-11.0021
▁তোলা	-11.0021
▁پود	-11.0021
▁ਨਿਕਲ	-11.0021
▁সমাধান	-11.0021
▁significant	-11.0021
▁standard	-11.0021
▁ଶିକ୍ଷା	-11.0021
▁தேர்வு	-11.0021
▁అవకాశం	-11.0021
▁অস্থ	-11.0022
▁ਟੈਂਕ	-11.0022
▁चांगल्या	-11.0022
▁खंड	-11.0022
পত্তি	-11.0022
▁मोटर	-11.0022
▁ఏక	-11.0022
▁व्यवस्थापन	-11.0022
▁size	-11.0022
▁തങ്ങളുടെ	-11.0022
▁સપાટી	-11.0023
▁ਜੰਗਲੀ	-11.0023
▁আক্রান্ত	-11.0023
▁বলেছেন	-11.0023
▁पहाड़	-11.0023
▁সস্তা	-11.0024
▁कंप	-11.0024
▁fair	-11.0024
▁sent	-11.0024
▁जहाज़	-11.0024
▁changed	-11.0025
▁କରିବେ	-11.0025
फोकल	-11.0025
▁agent	-11.0025
▁अग्र	-11.0027
▁সর	-11.0027
▁भिन्नता	-11.0027
▁முக்கியமான	-11.0027
▁micros	-11.0027
▁extreme	-11.0028
▁does	-11.0028
▁illegal	-11.0028
▁અત્યાર	-11.0029
▁सामान	-11.0029
▁সি	-11.0029
▁ସବୁ	-11.0029
▁संतुल	-11.0029
▁કાઢી	-11.0029
▁ਚੰਦਰਮ	-11.003
▁ಪ್ರ	-11.003
▁join	-11.0031
so	-11.0031
▁ପ୍ରା	-11.0032
▁launch	-11.0032
▁ਸਥਾਪ	-11.0032
▁complete	-11.0032
▁सुबह	-11.0032
▁मीडिया	-11.0032
▁ଜାତି	-11.0032
சி	-11.0032
▁jer	-11.0033
▁ଶ	-11.0033
പര	-11.0033
▁কৰিছিল৷	-11.0033
▁affected	-11.0034
ক্রান্ত	-11.0034
▁وزن	-11.0034
▁traditional	-11.0034
▁लागत	-11.0034
▁fam	-11.0036
▁చేయవచ్చు	-11.0036
ସଲ	-11.0036
▁cat	-11.0036
▁ତୁଳନା	-11.0036
▁ইটালী	-11.0037
▁بیماری	-11.0037
▁ആരംഭിച്ച	-11.0038
▁बजार	-11.0038
▁कैंप	-11.004
▁रूस	-11.0041
गो	-11.0042
എസ്	-11.0043
▁પ્રવાહ	-11.0043
▁हिल	-11.0044
▁আমেরিকা	-11.0045
▁आठवड्या	-11.0045
▁engl	-11.0046
▁ചെയ്യും	-11.0047
▁आवाज	-11.0047
▁সকলোৱে	-11.005
▁ti	-11.005
▁રાજા	-11.005
▁లేని	-11.0051
▁یاد	-11.0051
▁गेला	-11.0051
▁దళాల	-11.0053
▁নির্মাণ	-11.0053
▁رومن	-11.0053
▁प्रतिबंध	-11.0053
▁सुनामी	-11.0054
▁ସଂସ୍କୃତି	-11.0054
▁روایت	-11.0054
ಗಾಗಿ	-11.0055
▁ప్రభావం	-11.0055
▁సముద్రం	-11.0056
▁फिट	-11.0056
▁ಮುಂಚ	-11.0056
▁bank	-11.0056
▁હાલ	-11.0057
▁hard	-11.0057
▁ਚਿੱਤਰ	-11.0058
ख	-11.0059
▁സൂര്യ	-11.0062
▁দশ	-11.0062
▁കപ്പ	-11.0063
▁மொ	-11.0063
▁हल	-11.0064
▁উপস্থাপন	-11.0066
▁सि	-11.0066
▁ज्याच	-11.0067
مات	-11.0068
▁বৰফৰ	-11.0069
ادہ	-11.007
▁मुलांन	-11.0071
బుక్	-11.0071
ants	-11.0072
పోర్ట్	-11.0072
▁ଯିବା	-11.0072
▁മിനിറ്റ	-11.0072
▁ships	-11.0073
▁நவீன	-11.0075
▁ജനപ്രിയ	-11.0076
▁change	-11.0076
ਰਡ	-11.0077
▁ಆಫ್	-11.0077
▁সু	-11.0077
▁குளிர்கால	-11.0077
▁సంవత్సరం	-11.0077
▁வே	-11.0077
▁यस्त	-11.0077
▁ਨਿਊਜ਼	-11.0078
▁মাত্রা	-11.0079
▁देखा	-11.0079
وازن	-11.008
▁اج	-11.0085
▁ವೇಗ	-11.0088
▁বিগ	-11.0089
▁पड़	-11.009
▁اڈ	-11.0091
▁যাত্রা	-11.0092
▁ચાર	-11.0093
▁বৈজ্ঞানিক	-11.0097
▁ಕಿ	-11.0097
झे	-11.0098
्याच्या	-11.0099
▁போ	-11.0101
▁کنٹر	-11.0101
ನೆ	-11.0101
▁formal	-11.0101
▁ତି	-11.0102
▁video	-11.0104
▁एन	-11.0104
▁infect	-11.0105
▁பேர	-11.0106
▁hold	-11.0108
▁ذر	-11.0111
▁ഭാഗം	-11.0111
▁ساز	-11.0111
ாகத்	-11.0111
▁ଇଣ୍ଟରନେଟ	-11.0112
بولی	-11.0113
▁ਜ਼	-11.0113
▁ହାତ	-11.0113
▁கொ	-11.0115
▁flu	-11.0116
ીને	-11.0116
▁ಎದುರಿಸ	-11.0117
▁ముఖ్యం	-11.0118
▁வரும்	-11.012
▁ನಂತರದ	-11.012
▁market	-11.0122
▁ಅನುಸರಿಸ	-11.0129
ंधन	-11.0136
▁ಭಾಗವಹಿಸ	-11.0139
▁પ્રક્રિયા	-11.014
▁പഠന	-11.014
▁அறிவித்த	-11.014
▁തവണ	-11.0141
▁break	-11.0142
▁ਖੂ	-11.0142
▁व्य	-11.0143
ਖਾਸ	-11.0145
▁అత	-11.0145
▁माप	-11.0147
▁நீர்	-11.0147
म्	-11.0149
ਟਰ	-11.015
▁తెలిసిన	-11.0154
ஞ்ச	-11.0154
ts	-11.0155
▁சாதாரண	-11.0157
▁ಸಂಖ್ಯೆ	-11.016
▁കാണാ	-11.016
▁ತಂಡ	-11.0161
▁मी	-11.0161
لڈ	-11.0162
▁મોટાભાગન	-11.0167
బడింది	-11.0167
▁സഞ്ചരിക്ക	-11.0167
▁ನಿಲ್ದಾಣ	-11.0168
▁ఎంపిక	-11.0168
▁ग्रीन	-11.0176
ోమ	-11.0178
wn	-11.018
▁रो	-11.0181
ୀର	-11.0185
▁મન	-11.0187
▁घटक	-11.0188
▁வட	-11.0188
▁ವ್ಯವಸ್ಥೆಯ	-11.019
▁ഇപ്പോഴ	-11.0193
કલ	-11.0193
কালীন	-11.0195
କାର	-11.0196
▁द्वितीय	-11.0208
▁कायद	-11.0209
▁हिस्से	-11.021
ভি	-11.021
▁খেত	-11.0214
ৰাৰ	-11.0216
▁நாட்கள	-11.0221
▁स्ट	-11.0222
ापेक्षा	-11.0232
▁பெயர்	-11.0237
▁ସ୍ୱ	-11.0238
য়ার	-11.0241
▁ਪਰਤ	-11.0246
ಯಿಂದ	-11.0251
మ	-11.0255
▁அதிகாரி	-11.0256
▁ଚ	-11.0257
বেল	-11.0257
▁ਜਲਦ	-11.0257
ৰেল	-11.0258
▁উদ্দেশ্যে	-11.0259
ല്‍	-11.0262
▁ٹھی	-11.0262
ப்ப	-11.0264
দেশ	-11.0269
▁communit	-11.0275
▁ପର	-11.0276
▁ಟ	-11.0277
nami	-11.0282
ഹ	-11.0283
পন	-11.0286
▁ವಿದ್ಯಾರ್ಥಿಗಳ	-11.0286
▁অনুস	-11.0288
▁ઝ	-11.0292
▁कार्यक्रमहरू	-11.0293
ரோ	-11.0296
▁ଅନ୍ତର୍	-11.0302
▁ಬಳಸ	-11.0303
یاب	-11.0305
▁കാർ	-11.0306
▁ઉપલ	-11.0308
▁ನದಿ	-11.031
▁കോ	-11.0313
ക്കുന്നതിനുള്ള	-11.0314
केट	-11.0315
▁فٹ	-11.0318
▁वटा	-11.0321
▁ડો	-11.0326
▁مقد	-11.0327
▁அரச	-11.0327
ையில்	-11.0328
ത്തിലേക്ക	-11.0328
▁नगर्न	-11.0329
son	-11.033
▁நடத்த	-11.0333
ਰਾਜ	-11.0335
▁ദിവസ	-11.0335
▁بنیاد	-11.0339
▁આવેલા	-11.034
ab	-11.0342
▁১	-11.0343
▁দেশটি	-11.0345
সংখ্য	-11.0346
▁ఉండ	-11.0347
ನಿಲ	-11.0349
िएका	-11.0349
மீ	-11.0349
▁राह	-11.035
▁শু	-11.0352
ப்பட்டது	-11.0353
▁ಇಲ್ಲಿ	-11.0353
▁ਚੋਣ	-11.0357
▁ایڈ	-11.0358
▁ಪದ	-11.036
हरूसँग	-11.036
▁ఎన్న	-11.0366
ਵਿਕ	-11.0368
▁ਮੰਗ	-11.0368
िओ	-11.0369
ଲେ	-11.0369
ாளர்கள	-11.037
▁ब्लॉ	-11.037
▁ചെ	-11.0375
েঞ্জ	-11.0378
কৌ	-11.0378
▁تلاش	-11.038
▁പണ	-11.0382
ಮೀಟರ್	-11.0383
▁ମା	-11.0384
ாது	-11.0384
તેમ	-11.0389
read	-11.0393
ঝ	-11.0396
மீட்டர்	-11.0396
ভেল	-11.0399
କାଳ	-11.0402
ುತ್ತಿದ್ದರು	-11.0402
ுகள்	-11.0402
▁ହେବାର	-11.0404
▁ଘ	-11.0404
ناک	-11.0406
ted	-11.0407
ଛନ୍ତି	-11.041
িকা	-11.0412
▁ಸ್ಟೇಟ್ಸ್	-11.0414
▁ਇੰਟਰ	-11.0416
গৰাকী	-11.0417
ଗ୍ରହ	-11.0421
▁ଉଚ୍ଚ	-11.0421
રાષ્ટ્રીય	-11.0422
वटा	-11.0422
▁ನ್ಯೂ	-11.0425
▁വിദേശ	-11.0429
्नी	-11.0429
সময়	-11.0431
▁పదాల	-11.0438
▁কর	-11.0439
gress	-11.0443
▁ஏனென	-11.0444
▁ব্য	-11.0446
▁trans	-11.0447
व्ह	-11.0448
▁ஜூன	-11.0449
▁സൈന്യ	-11.0451
વાનો	-11.0452
दि	-11.0453
ാണെന്ന്	-11.0457
▁যুক্তি	-11.0461
▁முறைய	-11.0462
▁পার	-11.0463
▁घोष	-11.0465
hen	-11.0467
▁ಕುಟುಂಬ	-11.047
▁ಅಂಶಗಳ	-11.0472
▁ଦଳ	-11.0477
▁वाट	-11.0478
▁ਮੇਰ	-11.0481
ੇਅਰ	-11.0483
▁डॉ	-11.0486
వే	-11.0488
▁بو	-11.0489
▁ಶಕ್ತಿಯ	-11.049
▁ਜਲ	-11.0493
यसका	-11.0494
ہر	-11.0496
▁வரி	-11.05
▁ବନ୍ଦ	-11.05
▁कण	-11.0503
▁सैन्या	-11.0504
فٹ	-11.0506
ାଲ୍	-11.0508
▁కాల	-11.0509
▁चाहत	-11.0509
▁ಸ್ಟ	-11.0513
▁ਸੂ	-11.0514
ਰਾਂਸ	-11.0516
વિત	-11.0516
▁వేగ	-11.0519
▁ഒളിമ്പിക്	-11.0521
▁വച്ച	-11.0522
▁نظری	-11.0522
▁బు	-11.0523
മായിരുന്നു	-11.0529
▁prior	-11.0532
ସନ୍	-11.0532
▁ہمی	-11.0533
▁পাত	-11.0537
ೇಷ	-11.0538
ியா	-11.0539
▁फार	-11.0543
▁ਸਰ	-11.0544
▁involv	-11.0544
▁ভি	-11.055
▁سیکھن	-11.0557
▁लेख	-11.056
▁పడవ	-11.0562
▁শো	-11.0564
▁சரியா	-11.057
▁ৰে	-11.057
▁हवामान	-11.0571
▁बो	-11.0573
▁ثقافتی	-11.0576
▁চাব	-11.0579
▁comp	-11.0586
▁seven	-11.0586
ಸಾ	-11.0592
▁ક્ષેત્ર	-11.0593
▁సా	-11.0594
▁തുടങ്ങി	-11.0595
▁sen	-11.0597
▁टिप्पणी	-11.0598
▁കൂടി	-11.0601
ാന	-11.0602
تقل	-11.0602
▁બધ	-11.0604
▁ਮੁਲ	-11.0606
वि	-11.0607
ಂಡ್	-11.0614
▁പാർക്ക	-11.0614
सरी	-11.0617
▁ਸਕ	-11.0618
ஸ	-11.0618
দিষ্ট	-11.0619
▁পক্ষে	-11.0619
▁ਨਿਯ	-11.0623
▁জয়	-11.0623
▁ਬੈ	-11.0624
▁కల	-11.0624
▁বাক্য	-11.0633
▁প্রতিবাদ	-11.0638
▁ଥ	-11.064
বোৰক	-11.0641
رار	-11.0641
▁কা	-11.0644
ाउने	-11.0645
ൻസ്	-11.0649
ুন	-11.065
ज्ञ	-11.0661
صدی	-11.0665
▁उंच	-11.0666
র্জা	-11.067
یلے	-11.067
▁اپ	-11.0673
▁ಕ್ಯಾ	-11.0676
ਕਲ	-11.0677
▁ରହି	-11.068
▁மூன்ற	-11.0681
▁गरज	-11.0681
▁किनार	-11.0682
त्मक	-11.0683
▁રસ	-11.0683
▁বিশেষত	-11.0683
തിനായി	-11.0684
oil	-11.0685
▁பி	-11.0685
▁చేర	-11.0686
▁ਟ	-11.0688
▁স্কি	-11.0688
ಾಯಿತು	-11.069
ટકા	-11.069
▁sur	-11.0697
▁বাকী	-11.0697
▁विदेश	-11.0699
▁lake	-11.0699
▁শীৰ্ষ	-11.0701
▁mountain	-11.0701
▁ಬೆಳ	-11.0702
▁ತಿಂಗಳ	-11.0703
▁bar	-11.0704
▁இடங்களுக்கு	-11.0705
▁आधी	-11.0706
▁hav	-11.0706
▁लाख	-11.0706
▁ఐ	-11.0707
▁इन्टरनेट	-11.0708
▁অর্থনীতি	-11.0709
▁உதவிய	-11.071
▁स्टार	-11.071
▁ಹೊ	-11.0713
ോടെ	-11.0715
▁കുറവ	-11.0716
ଲା	-11.0719
▁return	-11.0719
▁పంప	-11.072
▁affect	-11.072
▁ಗ್ರಹ	-11.0721
లాండ్	-11.0722
ತ್ವ	-11.0723
▁بھ	-11.0723
▁माफ	-11.0723
▁স্পষ্ট	-11.0724
ళ	-11.0725
▁consist	-11.0725
▁குறைவான	-11.0726
▁पि	-11.0726
▁परमाणु	-11.0727
ನಿಷ್	-11.0728
▁ଆମ	-11.0728
▁सेन्ट	-11.0729
▁एयरलाइन	-11.0729
▁ମାଇଲ	-11.073
ately	-11.0731
▁ਗਤੀ	-11.0731
▁প্ৰত্যেক	-11.0731
▁বাধ্য	-11.0732
▁ଅଲ	-11.0732
▁సంబంధించి	-11.0732
▁চাৰি	-11.0732
సారి	-11.0732
▁അറിയപ്പെടുന്ന	-11.0733
▁வெளியே	-11.0733
▁foreign	-11.0733
ಿಕೊಳ್ಳಲ	-11.0733
পূৰ্ণ	-11.0734
▁મહત્વ	-11.0734
▁പിന്തുണ	-11.0734
▁ಫ್ರಾನ್ಸ	-11.0734
▁దారి	-11.0734
▁प्रहरी	-11.0734
▁round	-11.0734
▁अस्ट्रेलिया	-11.0734
▁चाचणी	-11.0734
▁हिसाब	-11.0734
▁સંભાવના	-11.0734
▁ଅନୁସନ୍ଧାନ	-11.0734
▁சர்வதேச	-11.0734
▁புகழ்	-11.0734
▁ఆందోళన	-11.0734
▁భౌగోళిక	-11.0734
▁ഞാ	-11.0734
▁august	-11.0734
▁bottom	-11.0734
▁distinct	-11.0734
▁middle	-11.0734
▁navy	-11.0734
▁photograph	-11.0734
▁scene	-11.0734
▁sleep	-11.0734
▁together	-11.0734
▁محسوس	-11.0734
▁अमीर	-11.0734
▁ऑलिम्पिक	-11.0734
▁कमजोर	-11.0734
▁ज्वालामुखी	-11.0734
▁दशलक्ष	-11.0734
▁न्युजिल्यान्ड	-11.0734
▁भूकम्प	-11.0734
▁रॉबर्ट	-11.0734
▁सर्वोत्तम	-11.0734
▁सोमवार	-11.0734
▁আবহাওয়া	-11.0734
▁ইণ্টাৰনেট	-11.0734
▁ইতিমধ্যে	-11.0734
▁উন্নয়ন	-11.0734
▁গবেষণা	-11.0734
▁পৰ্যটন	-11.0734
▁সমুদ্র	-11.0734
▁ਖਿੜਕੀ	-11.0734
▁ਪਦਾਰਥ	-11.0734
▁પાકિસ્તાન	-11.0734
▁પ્રાચીન	-11.0734
▁મિલિયન	-11.0734
▁રાષ્ટ્રપતિ	-11.0734
▁ଅବସ୍ଥିତ	-11.0734
▁ଯଥେଷ୍ଟ	-11.0734
▁జనాభా	-11.0734
▁వేసవి	-11.0734
▁సెప్టెంబర	-11.0734
▁ಅತ್ಯುತ್ತಮ	-11.0734
▁ನೈಸರ್ಗಿಕ	-11.0734
▁ಪಾಕಿಸ್ತಾನ	-11.0734
▁ಶ್ರೀಮಂತ	-11.0734
▁ಸೈನ್ಯ	-11.0734
मेव	-11.0734
▁ہندوستان	-11.0734
▁दुबै	-11.0734
▁स्कीइंग	-11.0734
▁ਇਮਾਰਤ	-11.0734
▁રહો	-11.0734
▁સ્પેનિશ	-11.0734
▁குறைவாக	-11.0734
▁പൊതുവെ	-11.0734
▁enjoy	-11.0734
▁भ्रष्टाचार	-11.0734
▁యూనియన్	-11.0734
▁earthquake	-11.0734
▁टेलीविज	-11.0734
▁ਆਵਾਜ	-11.0734
▁થઇ	-11.0734
▁సంప్రదాయ	-11.0734
▁ویڈیو	-11.0734
▁নিউজিল্যান্ড	-11.0734
▁ಇಂಟರ್	-11.0734
▁italy	-11.0734
▁परमिट	-11.0734
▁પ્રાપ્ત	-11.0734
▁କଥା	-11.0734
▁అంచు	-11.0734
▁ٹکٹ	-11.0734
▁ఆరోపణ	-11.0734
▁secur	-11.0734
▁ਕੈਂਪ	-11.0734
▁میدان	-11.0734
▁ਫੰਡ	-11.0734
▁வருகை	-11.0734
▁નિયંત્રણ	-11.0734
▁వీటి	-11.0734
▁extra	-11.0734
▁ایجنٹ	-11.0734
▁अन्तिम	-11.0734
▁युनियन	-11.0734
▁ഫോട്ടോ	-11.0734
▁writ	-11.0734
▁ಹೊಂದಿರುತ್ತವೆ	-11.0734
▁ਕੀਮਤ	-11.0734
▁میچ	-11.0734
▁বাহন	-11.0734
▁सुंदर	-11.0734
▁మాట్లాడుతూ	-11.0734
▁എത്ര	-11.0734
▁తీసి	-11.0734
▁আহিছে	-11.0734
▁family	-11.0734
▁வங்கி	-11.0734
▁జరిగింది	-11.0734
▁him	-11.0734
▁સંપૂર્ણ	-11.0734
▁സിറ്റി	-11.0734
▁ਕਾਪੀ	-11.0734
▁ହୋଇଥିଲେ	-11.0734
▁ঘটে	-11.0734
▁గుర్తించ	-11.0735
▁ఉంటారు	-11.0735
▁পুলিশ	-11.0735
शिया	-11.0735
▁among	-11.0735
▁ସେତେ	-11.0735
▁ਹਫ਼ਤ	-11.0735
▁lenses	-11.0735
▁موصول	-11.0735
▁असणार	-11.0735
▁શકતા	-11.0735
▁అర్ధం	-11.0735
▁سیدھ	-11.0735
▁കുട്ടികളെ	-11.0735
▁अगस्त	-11.0735
▁சதுர	-11.0735
▁finish	-11.0735
▁نکال	-11.0735
▁मौत	-11.0735
ਸ਼ਾਲ	-11.0735
▁ठंड	-11.0735
▁ಇರುತ್ತದೆ	-11.0736
▁रखें	-11.0736
▁ପତ୍ର	-11.0736
▁canada	-11.0736
▁ସେଠା	-11.0736
▁శాతం	-11.0736
▁مظاہر	-11.0736
▁lost	-11.0736
▁বিচৰা	-11.0736
▁கேப்	-11.0736
▁അവയെ	-11.0736
▁সন্নি	-11.0737
▁چکر	-11.0737
▁చేస్తారు	-11.0737
▁સંપર્ક	-11.0737
▁ٹیلی	-11.0737
ന്റ്	-11.0737
▁ఆఫ్రికా	-11.0737
▁ભય	-11.0738
▁म्हणाला	-11.0738
▁નેશન	-11.0738
▁federa	-11.0738
▁போட்டி	-11.0738
ੰਬਰ	-11.0738
▁ব্যাপারে	-11.0738
▁দক্ষতা	-11.0738
▁ਹਾਰ	-11.0738
▁پچھ	-11.0739
▁தாக்குதல	-11.0739
▁ਸੱਟ	-11.0739
▁ওপর	-11.0739
▁ആക്റ്റ	-11.074
রেল	-11.074
▁நீர	-11.074
ক্ৰান্ত	-11.074
▁বেশী	-11.0741
▁मध्यम	-11.0741
▁भीती	-11.0741
▁કરનાર	-11.0741
▁ہوکر	-11.0742
▁உள்ளனர்	-11.0743
اخت	-11.0743
اشیا	-11.0743
▁எண்	-11.0744
▁எண்ணெய	-11.0744
▁होणार	-11.0744
▁व्यवस्थ	-11.0745
▁सरल	-11.0745
ಾರ್ಕ್	-11.0746
▁judge	-11.0746
ડી	-11.0746
▁പരിധി	-11.0746
▁వాతావరణం	-11.0747
▁students	-11.0747
▁ಚಂದ್ರನ	-11.0747
▁ഫ്രഞ്ച	-11.0747
▁grant	-11.0747
▁معیار	-11.0747
▁வழக்கமான	-11.0748
▁فرو	-11.0748
ডাল	-11.0748
▁taken	-11.0749
▁ప్రవర్తన	-11.0749
gen	-11.075
▁third	-11.0751
ন্তে	-11.0751
▁कठी	-11.0751
▁అన	-11.0751
▁windows	-11.0752
भीर	-11.0752
▁নেতা	-11.0752
খিনি	-11.0753
▁জার্মানি	-11.0753
ଜ୍	-11.0753
▁चोरी	-11.0754
▁എന്നത്	-11.0754
▁নিৰ্বাচন	-11.0754
▁ಧ	-11.0754
▁येणार	-11.0754
ful	-11.0755
▁سرکار	-11.0756
▁ಕಿಂಗ್	-11.0756
▁ਸਕੂਲ	-11.0756
▁வீட்டு	-11.0756
▁രാജ്യം	-11.0758
റൽ	-11.0759
▁ago	-11.0759
▁ਹਮਲ	-11.076
▁సైట్	-11.0761
▁ପୋଲିସ	-11.0761
▁cells	-11.0761
▁આપણી	-11.0761
▁मारा	-11.0762
▁ಮಾಡಿದೆ	-11.0762
▁इच्छ	-11.0762
▁छोटा	-11.0763
▁ਰੌ	-11.0763
▁बाय	-11.0763
▁குற்ற	-11.0765
▁સફળતા	-11.0765
یس	-11.0767
▁মহ	-11.0767
▁ਸਿੱਖਣ	-11.0768
▁যোগা	-11.0769
▁ଶେଷ	-11.077
ಪಾಸ್	-11.077
▁ખરાબ	-11.077
▁ఆమె	-11.077
▁લોકપ્રિય	-11.077
▁view	-11.077
▁સમર્થ	-11.077
▁ભોજન	-11.077
▁पछाडि	-11.077
▁విచారణ	-11.077
ங்கி	-11.077
▁பெரும்	-11.0771
▁స్థానంలో	-11.0771
▁तिन	-11.0772
▁traveller	-11.0772
▁பிரெஞ்சு	-11.0773
▁ভিডিও	-11.0773
▁largest	-11.0773
▁সমাপ্ত	-11.0773
▁સેન્ટ	-11.0774
िला	-11.0775
▁પશ્ચિમ	-11.0775
▁പ്രകാശ	-11.0777
▁ক্যা	-11.0777
▁रखा	-11.0778
▁خارج	-11.0778
ந்திர	-11.0778
▁চিলি	-11.0778
ਗਾ	-11.0779
ଛି	-11.0779
▁সীমা	-11.0781
▁எதிர	-11.0781
▁संभाव्य	-11.0783
▁રો	-11.0783
▁ভা	-11.0784
▁ابھ	-11.0784
▁విజయం	-11.0785
▁coast	-11.079
▁ಪ್ರಮಾಣ	-11.079
ਮੈਨ	-11.079
▁देखे	-11.0792
▁ఇవ్వ	-11.0792
▁present	-11.0793
▁দখল	-11.0793
▁రాజధాని	-11.0793
ੂਰ	-11.0795
▁ഇന	-11.0795
▁gas	-11.0798
▁ಫೋನ್	-11.0798
▁లాగా	-11.0799
▁ಪೊಲೀಸರ	-11.0799
इन	-11.08
▁leader	-11.0806
▁ਲੈਂਸ	-11.0808
▁জাৰ্মানী	-11.0808
▁case	-11.0811
▁win	-11.0812
ّ	-11.0812
ध	-11.0813
দা	-11.0814
గ	-11.0814
▁केबल	-11.0815
ಲಿ	-11.0816
తి	-11.0816
▁নিয়ন্ত্রণ	-11.0818
▁మి	-11.0819
▁जैव	-11.0821
▁ਸੰਭ	-11.0822
▁practice	-11.0824
▁रीड	-11.0824
▁तुलनामा	-11.0824
▁વધારાન	-11.0825
▁লাইট	-11.0826
دھ	-11.0828
▁शान	-11.0828
▁ਥਾਂ	-11.0829
▁ಆಫ್ರಿಕಾ	-11.0829
ലാണ്	-11.0831
وری	-11.0832
▁रेस	-11.0834
▁படி	-11.0835
ଟେ	-11.0838
▁জানানো	-11.0839
▁ওজন	-11.0841
▁stre	-11.0841
▁തിരഞ്ഞെടുക്ക	-11.0842
▁ઓફ	-11.0848
▁तिच्या	-11.085
گ	-11.085
▁वाहतू	-11.0853
സ്റ്റർ	-11.0855
ile	-11.0856
لہ	-11.0863
▁ప్యా	-11.0864
▁നേടി	-11.0866
▁மேற்கு	-11.0867
ికి	-11.0872
غور	-11.0875
▁थिएन	-11.0876
कस	-11.0877
▁देशा	-11.088
▁தி	-11.088
િટી	-11.0881
▁রাষ্ট্র	-11.0884
▁ಕೊನೆಯ	-11.0884
▁जु	-11.0886
▁પાર	-11.0887
▁mi	-11.0891
▁मिली	-11.0893
ഗ്	-11.0894
▁ನವ	-11.0895
▁ਐ	-11.0896
▁ઝૂ	-11.0896
ப்பு	-11.0897
▁उभ	-11.0901
▁رہیں	-11.0903
डर	-11.0905
▁చేసుకోవడ	-11.0906
जन	-11.0906
▁player	-11.0912
▁ব্যাংক	-11.0912
▁जाणार	-11.0914
▁కోట	-11.0917
▁ஓ	-11.0918
▁ட்ர	-11.0919
▁பகுதியாக	-11.0921
▁پور	-11.0921
▁ڈالر	-11.0922
▁ଥାଏ	-11.0922
▁பயன்படுத்தப்பட	-11.0924
▁ದಾಳಿ	-11.0925
▁ବେ	-11.0925
▁ఉంచ	-11.0929
നോ	-11.0929
▁చూప	-11.0929
کی	-11.0932
▁فو	-11.0932
▁છેલ્લા	-11.0932
ेकड	-11.0936
ਰਨ	-11.0937
▁ಪ್ರವೇಶಿಸ	-11.0937
▁રોક	-11.0937
way	-11.0937
▁ಪ್ರಸ್ತುತ	-11.0938
मेंट	-11.0947
▁جنہ	-11.0949
▁منٹ	-11.0951
▁ଜାହାଜ	-11.0953
▁അടിസ്ഥാനമാക്കിയ	-11.0958
▁జూన	-11.0959
▁स्वरूप	-11.0962
▁ਸਮ	-11.0962
▁നേട	-11.0962
▁ಒಬ್ಬರ	-11.0963
▁دعوی	-11.0967
ায়	-11.097
▁জি	-11.0971
▁పిల్లలు	-11.0973
▁പോകുന്ന	-11.0974
▁ਫੇ	-11.0975
ਗਿਆਨ	-11.0977
▁संदर्भ	-11.0979
ೆಪ್ಟ	-11.0979
लिन	-11.098
▁போலீ	-11.098
▁स्वस्	-11.0982
स्थ	-11.0982
ન્ન	-11.0985
▁চার	-11.0986
▁ದೇವಾಲಯ	-11.0987
▁ଘଣ୍ଟା	-11.0987
▁ଫଳ	-11.0989
▁મુક્ત	-11.0991
▁my	-11.0992
▁ആദ്യത്ത	-11.0997
▁ಪರಿಗಣಿಸ	-11.0999
▁સ્તર	-11.1
▁compar	-11.1
▁ಕೋ	-11.1
▁దేశాలలో	-11.1001
▁முடிவு	-11.1002
শিষ্ট	-11.1003
▁அடிப்படை	-11.1004
▁இதன	-11.1005
▁বর্তমানে	-11.1005
▁ತಿಳಿದ	-11.1006
ுள்ளனர்	-11.1009
তঃ	-11.101
ڈر	-11.1014
బడతాయి	-11.1017
▁આવર	-11.1019
▁شاہ	-11.1019
ുള്ളതാണ്	-11.1021
பால்	-11.1022
▁दर्ज	-11.1028
▁മനുഷ്യര	-11.1034
▁भित्र	-11.1036
▁दिवस	-11.1036
▁ٹرائ	-11.1038
▁தண்ணீர	-11.1041
▁ஜூ	-11.1042
ైల్	-11.1043
ీరు	-11.1044
حد	-11.1045
▁फैल	-11.1046
▁আচরণ	-11.1049
ਲਾਵਾ	-11.105
್ಯೂಜಿ	-11.1052
▁స్ప	-11.1053
▁ಇದೆ	-11.1053
ంతో	-11.1055
▁આર	-11.1057
▁آب	-11.1057
ଗ୍ର	-11.1057
▁सार	-11.1058
▁خلی	-11.1059
▁ઘણ	-11.1063
اپ	-11.1066
▁ಬಿ	-11.107
▁warm	-11.107
▁ಕ್ರಿ	-11.1072
▁নে	-11.1075
▁सके	-11.1082
▁ଦିଗ	-11.1088
લે	-11.1095
ृत	-11.1096
▁പോ	-11.1103
▁પગ	-11.1103
ফ	-11.1105
▁উৎপাদন	-11.1107
▁r	-11.111
▁ಒಳಗ	-11.1115
▁परे	-11.1115
▁అవసరాల	-11.1115
ಿಸುತ್ತದೆ	-11.1116
ப்படி	-11.1117
▁कराव	-11.112
▁announc	-11.1126
ائن	-11.1128
ଶାଳ	-11.113
ચિત	-11.113
▁ব্ৰিট	-11.1136
తా	-11.1139
▁व्ह	-11.1139
▁மி	-11.1141
شہ	-11.1143
▁মাজ	-11.1143
▁સંભ	-11.1146
वाद	-11.1147
▁பார்க்க	-11.1149
▁সন্ধান	-11.1157
▁ق	-11.1158
ام	-11.116
▁मॅ	-11.1161
▁ਸਿਖ	-11.1162
્	-11.1163
ీయ	-11.1164
▁उच	-11.1165
পত্ৰ	-11.1167
▁மித	-11.1169
கிறார்கள்	-11.1169
▁ಕಡೆ	-11.117
ખ્યા	-11.117
▁ప్రవేశ	-11.1173
▁ਦਿਲ	-11.1174
▁रेल	-11.1174
ୱେ	-11.1174
▁ਇਲਾ	-11.1178
କ୍ଷମ	-11.1179
முறை	-11.1179
ਇਆ	-11.1184
سام	-11.1185
▁cross	-11.1187
▁ਦਿੰਦੀ	-11.1187
▁बिल	-11.1189
भित्र	-11.119
म्प	-11.1191
টে	-11.1192
▁au	-11.1192
مکان	-11.1194
प्रकार	-11.1195
पटक	-11.1195
year	-11.1197
பெரிய	-11.1198
ರಾಷ್ಟ್ರೀ	-11.1199
▁மே	-11.12
ପ୍	-11.12
▁ಹೆ	-11.1202
ପରି	-11.1202
▁இடத்தை	-11.1205
ೆಗೆ	-11.1207
ପାଇ	-11.1207
▁దేశంలో	-11.1209
▁cha	-11.1214
▁માર	-11.122
▁পান	-11.122
by	-11.1221
ದ್ದರೂ	-11.1222
▁ಕಾರಣದಿಂದ	-11.1223
সরি	-11.1225
▁face	-11.1226
▁தே	-11.1229
▁क्षेत्रफ	-11.123
▁ಗಿಂತ	-11.123
দান	-11.123
ಪ	-11.1234
▁ਬੈਠ	-11.1236
▁ਪੁ	-11.124
త్	-11.124
▁ਅਲ	-11.124
یو	-11.1241
▁ದೂರ	-11.1241
ব্যস্	-11.1242
▁आया	-11.1243
▁பட்ட	-11.1246
ੀਨ	-11.1246
▁తుఫాను	-11.1247
ਲਾ	-11.1248
ிலோ	-11.1248
ઓના	-11.1248
▁நிறுத்த	-11.1252
▁चू	-11.1254
▁ಹೆಚ್ಚ	-11.1256
▁പത്ത	-11.1257
ളം	-11.1258
ورسٹ	-11.126
தில்	-11.1261
ಲಿನ	-11.1261
▁ઘ	-11.1263
▁इथ	-11.1264
▁ಬಳಸುವ	-11.1265
സോ	-11.1266
टर	-11.1268
▁پڑا	-11.1269
▁शिक्षण	-11.127
▁വ്യക്തി	-11.127
om	-11.1272
ગોલ	-11.1275
ਾਫ਼	-11.1278
மா	-11.1278
ரல்	-11.1279
▁மோசமா	-11.1279
रे	-11.1283
▁ست	-11.1284
ਤਕ	-11.1288
নীয়া	-11.1293
्री	-11.1294
vid	-11.1294
▁வந்தது	-11.1298
▁मुलां	-11.1299
ுங்கள்	-11.13
▁நி	-11.13
छ	-11.1302
ese	-11.1305
▁প্ৰতিষ্ঠান	-11.1305
▁el	-11.1307
▁ৰাস্তা	-11.1307
ജി	-11.1307
▁পুর	-11.131
▁ସ୍କ	-11.1321
▁ಭ	-11.1323
▁ತಿಳಿಸಿ	-11.1323
▁बँक	-11.1325
▁स्केट	-11.1325
▁പൂർണ്ണമായ	-11.1326
▁ગય	-11.1329
▁തരം	-11.1329
▁receive	-11.1329
▁संरचना	-11.133
▁ഡ	-11.133
ுவதற்க	-11.1331
चित्र	-11.1332
ക്കുമ്പോൾ	-11.1337
▁શા	-11.1337
▁എത്തിയ	-11.1342
▁പോലീസ	-11.1344
▁खो	-11.1344
▁स्व	-11.1346
സി	-11.1347
▁ਸਤ	-11.135
▁പ്രദേശത്ത	-11.1353
▁ਰੋਜ਼	-11.1356
u	-11.1357
▁ఫె	-11.1357
▁बच	-11.1358
તું	-11.1362
्‍या	-11.1362
▁ਰਹਿ	-11.1362
▁নো	-11.1363
त्व	-11.1363
▁శా	-11.1367
▁ഘട്ട	-11.1368
▁যেটি	-11.1369
साद	-11.1372
▁બાબત	-11.1376
▁વાહન	-11.1377
▁જઈ	-11.1378
▁حم	-11.1381
▁સી	-11.1384
▁ক্লাব	-11.1384
্ট	-11.1386
▁सेट	-11.1388
▁সেন্ট	-11.139
▁வடிவ	-11.1391
▁இதை	-11.1392
▁പ്രദേശങ്ങള	-11.1393
▁छोड़	-11.1393
▁आर	-11.1394
ught	-11.1396
ভূত	-11.1403
▁आश	-11.1404
യായ	-11.1404
جام	-11.1407
▁കര	-11.1414
രുത്	-11.1415
ವಾಯಿತು	-11.1415
খি	-11.1416
ਸ਼	-11.1419
▁ਵੱਖਰੀ	-11.1422
വുമാണ്	-11.1425
టా	-11.1426
▁সকল	-11.1426
▁ਐਲ	-11.1431
▁শেখা	-11.1431
▁فن	-11.1431
তি	-11.1433
ण्या	-11.1434
▁ਨਿਊ	-11.1436
ೀ	-11.1437
▁साधन	-11.144
▁సముద్ర	-11.144
▁ലഭിച്ച	-11.1441
▁சொந்த	-11.1442
انچ	-11.1443
▁প্ৰস্তুত	-11.1443
▁بڑھ	-11.1443
▁এছ	-11.1444
▁ಎಂದರ	-11.1445
▁এয়া	-11.1446
▁অভ্যাস	-11.1447
▁pen	-11.1448
▁دیں	-11.1451
ున్న	-11.1452
▁bla	-11.1453
▁এমনক	-11.1453
▁ਯੂ	-11.1454
াস	-11.1456
▁എത്തി	-11.1457
ಲೀ	-11.1458
▁తీవ్ర	-11.146
▁उठा	-11.1462
াক্ত	-11.1464
▁वर्षी	-11.1464
विषयी	-11.1466
ுவத	-11.1466
▁घोड	-11.147
ത്വ	-11.1471
رص	-11.1471
▁போர	-11.1472
▁airline	-11.1472
▁plant	-11.1473
லும்	-11.1473
▁সুস্থ	-11.1475
ತೆಯ	-11.1476
्विक	-11.1476
▁ಓ	-11.1477
▁কিলোমিটা	-11.1477
▁एयर	-11.1482
▁शूट	-11.1482
▁கோ	-11.1482
▁ప్రదర్శన	-11.1483
▁ಭಾಷೆಗಳ	-11.1484
▁பூங்கா	-11.1484
ినట్లు	-11.1485
▁regard	-11.1486
▁કહે	-11.1487
▁அழைக்க	-11.1487
▁abo	-11.1489
ئل	-11.149
▁تاک	-11.1491
▁काळ	-11.1492
▁ಪ್ರಕ್ರಿಯೆಯ	-11.1492
▁وار	-11.1492
▁उत्कृष्ट	-11.1492
▁कह	-11.1493
▁کلو	-11.1494
▁अणु	-11.1497
▁উপাদান	-11.1498
rican	-11.1499
▁पहाड	-11.1499
▁नजिक	-11.15
ಗೊಂಡ	-11.15
▁असफल	-11.15
ोषण	-11.1501
▁मृत	-11.1502
▁હિ	-11.1502
▁ধুমুহা	-11.1502
▁मंगळ	-11.1502
୍ରାସ	-11.1502
াত্মক	-11.1502
▁hur	-11.1503
▁କରାଯାଉ	-11.1503
cultural	-11.1503
দ্যুত	-11.1503
▁ବ୍ୟବହ	-11.1503
ত্যাগ	-11.1503
ମୁଖ	-11.1503
್ಬಿ	-11.1503
ਜੂਦ	-11.1503
▁life	-11.1503
ಗಾಮಿ	-11.1503
▁behavior	-11.1503
▁difficult	-11.1503
▁dvd	-11.1503
▁fallujah	-11.1503
▁independence	-11.1503
▁phase	-11.1503
▁radio	-11.1503
▁suggest	-11.1503
▁بادشاہ	-11.1503
▁دلچسپ	-11.1503
▁अभियोग	-11.1503
▁जल्द	-11.1503
▁दिमाग	-11.1503
▁निर्णायक	-11.1503
▁न्यायाधीश	-11.1503
▁पाहिजे	-11.1503
▁पॉइंट	-11.1503
▁बेल्जियम	-11.1503
▁विद्युत	-11.1503
▁सम्झौता	-11.1503
▁सर्वेक्षण	-11.1503
▁स्पॅनिश	-11.1503
▁কারাগার	-11.1503
▁কাহিনী	-11.1503
▁ফ্ৰান্স	-11.1503
▁রেকর্ড	-11.1503
▁ਉਤਪਾਦ	-11.1503
▁ਕੰਪਿਊਟਰ	-11.1503
▁ਗਰੁੱਪ	-11.1503
▁ਘਟਨਾ	-11.1503
▁ਤੂਫਾਨ	-11.1503
▁ਦਸਤਾਵੇਜ਼	-11.1503
▁ફેરફાર	-11.1503
▁ଅଛନ୍ତି	-11.1503
▁ஆதரவ	-11.1503
▁గణనీయ	-11.1503
▁గొప్ప	-11.1503
▁జరుగుతాయి	-11.1503
▁ప్రాథమిక	-11.1503
▁ಮೂಲಭೂತ	-11.1503
▁ವ್ಯವಹಾರ	-11.1503
▁വിദ്യാഭ്യാസ	-11.1503
▁സംവിധാന	-11.1503
▁industry	-11.1503
▁obtain	-11.1503
▁अत्यधिक	-11.1503
▁जनवरी	-11.1503
▁निषेध	-11.1503
▁सड़क	-11.1503
▁অন্তৰ্ভুক্ত	-11.1503
▁প্ৰাথমিক	-11.1503
▁ਰਿਕਾਰਡ	-11.1503
▁செங்குத்த	-11.1503
▁ఏర్పాట	-11.1503
▁పరీక్ష	-11.1503
▁స్థిర	-11.1503
▁ട്രേലിയ	-11.1503
▁airport	-11.1503
▁traffic	-11.1503
▁তাৰিখ	-11.1503
▁স্কিইং	-11.1503
▁ਪਰਿਵਾਰ	-11.1503
▁મૂલ્ય	-11.1503
▁ଖବର	-11.1503
▁జట్టు	-11.1503
▁జూలై	-11.1503
▁ఫ్రాన్స్	-11.1503
▁స్కీయింగ్	-11.1503
▁ವಿವಿಧ	-11.1503
▁தொலைக்காட்சி	-11.1503
▁వస్తువుల	-11.1503
▁ಅನುಮತಿ	-11.1503
▁पुनर्	-11.1503
▁ਫੁੱਟ	-11.1503
▁ଧର୍ମ	-11.1503
▁ஆரம்ப	-11.1503
▁బ్లే	-11.1503
ർച്ചയായു	-11.1503
▁valley	-11.1503
▁کتاب	-11.1503
▁পদক্ষেপ	-11.1503
▁કાળજી	-11.1503
▁સ્ટેટ્સ	-11.1503
▁సోవియ	-11.1503
▁इस्लाम	-11.1503
▁உட்பட	-11.1503
▁അംഗീകരിക്ക	-11.1503
▁appro	-11.1503
▁resident	-11.1503
▁তৈয়াৰ	-11.1503
▁সন্মান	-11.1503
▁বীমা	-11.1503
▁ਗੈਸ	-11.1503
▁ચેપ	-11.1503
▁आबाद	-11.1503
▁বৈধ	-11.1503
▁ಅಮೇರಿಕಾದ	-11.1503
▁પડશે	-11.1503
▁બરફ	-11.1503
▁କରାଯାଇଥାଏ	-11.1503
▁ഒരിക്ക	-11.1503
▁اخراج	-11.1503
▁तापमान	-11.1503
▁ઇન્ટરનેટ	-11.1503
▁greenland	-11.1503
▁आइलैंड	-11.1503
▁ಬೀರುತ್ತದೆ	-11.1503
▁ایٹم	-11.1503
▁child	-11.1503
▁डलर	-11.1503
▁मिमी	-11.1503
▁তোলে	-11.1503
ೀಕರಣ	-11.1503
▁जेम्स	-11.1503
▁অত্যন্ত	-11.1503
▁সেনাবাহিনী	-11.1503
▁kill	-11.1503
▁ਪਿੱਛ	-11.1503
▁సమీపంలో	-11.1503
▁سڑک	-11.1503
▁સંખ્યા	-11.1503
▁ਜੇਤੂ	-11.1503
▁ਅਨੁਮਾਨ	-11.1503
▁ਜ਼ਮੀਨ	-11.1503
न्तरिक	-11.1503
▁અણુઓ	-11.1503
▁বিশেষজ্ঞ	-11.1503
▁ପରିବାର	-11.1503
▁معامل	-11.1503
▁अनुवाद	-11.1504
▁येईल	-11.1504
▁అభ్యసన	-11.1504
▁ଫେରିବା	-11.1504
▁થશે	-11.1504
▁management	-11.1504
▁पत्रकार	-11.1504
▁હળવ	-11.1504
▁ଲେନ୍ସ	-11.1504
▁माओरी	-11.1504
▁تجارت	-11.1504
▁દરિયા	-11.1504
▁দীঘলীয়া	-11.1504
▁ਟੈਲੀਵ	-11.1504
▁ଖରା	-11.1504
▁बन्द	-11.1504
▁கிராண்ட	-11.1504
▁پیشکش	-11.1504
▁అధికారిక	-11.1504
▁কৰ্তন	-11.1504
▁सहमत	-11.1504
▁slight	-11.1504
▁शासन	-11.1504
▁ایچ	-11.1504
▁فائر	-11.1504
▁വിളിക്കുന്നു	-11.1504
▁વાગ	-11.1504
▁જોઈ	-11.1504
▁নিকট	-11.1504
▁క్లబ్	-11.1504
▁நிர்வாக	-11.1504
▁উপযুক্ত	-11.1504
সাধন	-11.1505
▁ଯେପରି	-11.1505
▁पनडुब्बीहरू	-11.1505
▁చేయబడింది	-11.1505
▁tomb	-11.1505
িলিয়ন	-11.1505
पर	-11.1505
▁മാർച്ച	-11.1505
▁അതുപോലെ	-11.1505
oya	-11.1505
▁اوقات	-11.1505
▁उच्चारण	-11.1505
▁vary	-11.1505
▁દબાણ	-11.1505
▁பனிச்	-11.1505
▁બાર	-11.1505
▁பெற்றார்	-11.1505
▁সমৰ্থন	-11.1505
▁তোমা	-11.1505
▁ಮಾಡಿತು	-11.1505
▁સત	-11.1505
▁ਮੰਗਲ	-11.1506
لینڈ	-11.1506
▁मिनेट	-11.1506
▁સુધાર	-11.1506
▁دہائی	-11.1506
▁ਸੇਵਾ	-11.1506
▁ഓസ്	-11.1506
▁அடிக்கடி	-11.1506
▁પાર્ક	-11.1506
▁गाडी	-11.1506
▁କରାଯାଇଥିବା	-11.1506
▁കടൽ	-11.1506
▁بنایا	-11.1506
▁వచ్చినప్ప	-11.1506
▁ಆಗಿದೆ	-11.1506
▁whole	-11.1507
▁ನೀಡುತ್ತದೆ	-11.1507
hc	-11.1507
▁ନିୟମ	-11.1507
▁ರಗ	-11.1508
▁بارش	-11.1508
ळी	-11.1508
▁کاپی	-11.1508
சறுக்கு	-11.1508
▁കണക്കാക്ക	-11.1508
▁गेली	-11.1509
▁લાગે	-11.1509
▁ज्यादा	-11.1509
▁যিমান	-11.151
ਵੀਅਤ	-11.151
▁معاشی	-11.151
▁दाब	-11.151
▁सजिलै	-11.151
▁former	-11.151
▁সতর্কতা	-11.151
▁religion	-11.1511
తాను	-11.1511
▁ਲਗਾਉਣ	-11.1511
▁बताए	-11.1512
لائٹ	-11.1512
▁minutes	-11.1512
▁tickets	-11.1512
▁વ્યવસ્થા	-11.1512
▁سائنس	-11.1512
▁പോകാ	-11.1513
▁किल्ला	-11.1513
▁ഐസ്	-11.1513
▁পাৰে৷	-11.1513
डोर	-11.1513
▁rest	-11.1513
▁ಗಮನಾರ್ಹ	-11.1513
▁لیں	-11.1513
▁درجہ	-11.1514
▁انگل	-11.1514
▁ارد	-11.1514
▁ਹਮਲਾ	-11.1515
▁ਰੋਮਨ	-11.1515
▁এতিয়ালৈ	-11.1515
▁ধনী	-11.1515
▁വാർത്ത	-11.1515
യൺ	-11.1515
▁ફોન	-11.1515
▁option	-11.1516
▁pay	-11.1516
▁walking	-11.1517
▁ತರ	-11.1517
▁नम्बर	-11.1517
▁conditions	-11.1517
▁সন্দেহ	-11.1517
▁ਵਿਵਹਾਰ	-11.1517
▁શક્તિ	-11.1518
▁ਧਰਮ	-11.1518
ನಾನು	-11.1518
▁ಪಂದ್ಯ	-11.1518
▁ସମ୍ଭବ	-11.1519
▁நேரங்கள	-11.1519
▁రె	-11.152
▁goals	-11.152
▁ধৰা	-11.152
▁సర్వీస్	-11.1521
▁صحت	-11.1521
▁உடல்	-11.1521
ધુન	-11.1521
ਇਤੀ	-11.1521
▁জানে	-11.1522
▁ਆਖਰ	-11.1522
▁പുസ്തക	-11.1522
▁খেলখন	-11.1523
▁اکت	-11.1523
▁ബുദ്ധിമുട്ട	-11.1523
▁ରହିବା	-11.1524
َ	-11.1524
▁बै	-11.1524
▁થોડી	-11.1524
▁অন্তত	-11.1525
▁ಮಾಡಿದರು	-11.1526
▁അറസ്റ്റ	-11.1526
ોએ	-11.1526
▁फैला	-11.1526
▁দুৰ্গ	-11.1527
▁नॅ	-11.1527
േക്കാ	-11.1527
▁forces	-11.1527
▁اد	-11.1528
▁o	-11.1529
aught	-11.1529
▁பரவலாக	-11.1529
▁hotels	-11.153
▁मानत	-11.1531
छे	-11.1531
न्	-11.1531
▁ଗତି	-11.1531
▁ਵਾਲਿਆਂ	-11.1531
▁সাল	-11.1531
▁ਚੀਜ	-11.1532
▁आर्थर	-11.1533
▁दर्जन	-11.1533
نٹ	-11.1534
▁விஷயங்கள	-11.1534
ితే	-11.1535
▁ta	-11.1535
▁துணை	-11.1536
▁سکے	-11.1536
▁स्वतन्त्र	-11.1537
▁ಅಭಿವೃದ್ಧಿ	-11.1537
▁ఏమిట	-11.1537
▁स्टड	-11.1538
▁ಭೂಮಿಯ	-11.1539
ଳନ	-11.1539
▁प्रसारण	-11.154
▁लाइट	-11.154
▁આવા	-11.1541
▁பயிற்சி	-11.1541
োমু	-11.1541
▁দর্শন	-11.1542
▁कायदे	-11.1542
▁temporar	-11.1542
▁frequent	-11.1542
▁ओयाप	-11.1542
▁గ్రౌండ్	-11.1542
▁జపాన్	-11.1542
▁বতাহ	-11.1542
▁బ్యాక్	-11.1542
▁ନିମ	-11.1544
▁നിയന്ത്രണ	-11.1546
ತಿ	-11.1547
▁band	-11.1548
▁پارک	-11.1548
▁நாடுகள்	-11.1549
▁સ્થિતિ	-11.1549
▁இடம்	-11.1549
▁leav	-11.155
ीहरू	-11.1551
▁लागले	-11.1552
చేయబడ్డాయి	-11.1552
▁தொற்று	-11.1553
ಮೀ	-11.1553
▁beginn	-11.1553
▁ଶତାବ୍ଦୀ	-11.1554
▁চাৰিওফাল	-11.1554
▁k	-11.1555
▁ਆਸਾਨ	-11.1556
▁শ্ৰেণী	-11.1556
p	-11.1558
زائر	-11.1558
्यापी	-11.1559
िष्ट	-11.1559
▁બળ	-11.156
▁سرد	-11.1562
गरम	-11.1562
▁پُر	-11.1562
▁থাকেন	-11.1563
▁দ্য	-11.1565
▁ملکی	-11.1566
▁ফুল	-11.1566
▁ਮੂਲ	-11.1568
ై	-11.1569
▁ଧରି	-11.1569
ਵਾਂਗ	-11.1571
▁প্রান্ত	-11.1573
▁രാജ്യങ്ങൾ	-11.1574
▁पैर	-11.1576
हीं	-11.1577
▁বল	-11.1578
▁بحری	-11.1578
▁reason	-11.1579
▁पाहण्या	-11.158
▁حرک	-11.158
▁देन	-11.1581
▁നോക്ക	-11.1582
▁ओळख	-11.1582
▁peace	-11.1583
▁நகரங்கள	-11.1583
▁നമുക്ക	-11.1583
▁बिच	-11.1585
ਹੱਦ	-11.1586
▁എന്ത	-11.1586
▁পরি	-11.1586
▁முடியாத	-11.1586
▁ଲୋକମାନ	-11.1587
▁ধরন	-11.1587
▁સહાય	-11.1588
▁ଗୁରୁତ	-11.1588
▁ਵਿੱਤ	-11.1588
ક્ષ	-11.1589
र्ट	-11.1589
▁कार्यकार	-11.1589
▁ঘন	-11.159
उन	-11.159
সাগৰৰ	-11.1592
▁রাত	-11.1592
چر	-11.1593
▁পুনরা	-11.1593
▁ഉദ്യോഗസ്ഥ	-11.1594
▁arriv	-11.1594
▁ಮರಳಿ	-11.1594
▁ਸੈਂਟ	-11.1597
▁ഉൾപ്പെടുന്ന	-11.1598
ਬਲ	-11.1598
▁സ്ഥാനത്ത	-11.1598
▁जानत	-11.1603
▁संचाल	-11.1605
ଦ୍ଧି	-11.1607
తాయి	-11.1608
▁ਬਣੇ	-11.1609
చి	-11.1614
▁ଗତ	-11.1614
▁राखे	-11.1615
नुहुन्छ	-11.1616
▁ਲਿਜਾ	-11.1616
▁શબ્દો	-11.1618
▁வெப்ப	-11.1618
ٹر	-11.1618
▁अ‍ॅ	-11.1618
ard	-11.1619
▁പറയുന്നത	-11.162
▁god	-11.162
▁జాన్	-11.162
▁ಮೇಲ್	-11.1621
ટિંગ	-11.1623
▁سیز	-11.1623
f	-11.1624
ಮೆ	-11.1625
▁స్కేట	-11.1629
કા	-11.1629
▁জীৱন	-11.163
▁पाहता	-11.1634
▁रंग	-11.1635
▁దశ	-11.1636
▁مز	-11.1638
ষ্ঠ	-11.164
▁ಇದ್ದ	-11.1641
▁এনেধৰণ	-11.1641
▁ਹਜ	-11.1641
▁بھیج	-11.1642
▁छोट	-11.1643
▁গ্র	-11.1643
▁space	-11.1643
▁sta	-11.1648
▁કિ	-11.165
▁অনা	-11.1651
▁સમા	-11.1651
▁ବ୍ୟବସ୍ଥ	-11.1652
▁पार्न	-11.1654
▁ਪੈਸ	-11.1657
ுவது	-11.1662
▁ग्या	-11.1663
▁లేదు	-11.1666
ରମ	-11.1666
▁படகு	-11.1666
স্থ	-11.1666
ುವಾಗ	-11.1666
▁ஓர	-11.1667
ுப்	-11.1669
▁canyon	-11.1669
▁ಮಾನವರ	-11.167
▁ਪੌਦ	-11.1673
ਟਿਕ	-11.1674
▁willing	-11.1675
▁ನಿ	-11.1675
▁ಕಾಣಿಸ	-11.1681
फेला	-11.1682
▁audi	-11.1684
▁ಟರ್ಕಿಯ	-11.1687
واد	-11.1688
▁പേർ	-11.1688
ಿಸಿದ	-11.1689
▁اعلی	-11.1695
فاظ	-11.1697
ಿಗಿಂತ	-11.1697
▁அளிக்க	-11.1698
▁પ્રકારના	-11.17
টেড	-11.17
▁यावर	-11.1701
യെക്കുറിച്ച	-11.1702
▁visitor	-11.1703
▁اُن	-11.1704
▁యా	-11.1705
ୋମା	-11.1707
▁ষ্ট	-11.1708
▁prevent	-11.1709
ઓએ	-11.1712
▁बच्चा	-11.1713
ಾಂಡ	-11.1714
▁बतात	-11.1718
ଟ୍	-11.1721
▁कुटुंब	-11.1722
യായി	-11.1722
▁ਜੋੜ	-11.1729
ੀਬ	-11.1733
েন্ট	-11.1733
▁കല	-11.1734
▁நிறுவனங்கள	-11.1738
ંત	-11.1739
زی	-11.174
▁सिर्	-11.1742
ിതമായ	-11.1742
ন্ত	-11.1742
▁ಯು	-11.1742
ాది	-11.1742
▁गणित	-11.1743
▁ਰਸ	-11.1744
▁நடத்தை	-11.1744
ಂಬ	-11.1754
▁اسکیٹ	-11.1756
કૃત	-11.1757
গ	-11.1758
▁ஆவணங்கள	-11.1758
ਂਦਾ	-11.1762
▁आम्ह	-11.1764
సార్ల	-11.1766
ونی	-11.1768
▁trade	-11.1769
ೇಜ್	-11.1769
▁बीस	-11.1774
टिक	-11.1774
▁mr	-11.1778
▁வருவத	-11.1778
தால	-11.1778
ଙ୍ଗ	-11.178
ूक	-11.1782
য়েল	-11.1783
▁देण	-11.1784
ವಾ	-11.1786
▁ಕೆ	-11.1791
▁ఇప్పటిక	-11.1792
▁डायनासोर	-11.1797
▁यु	-11.1801
બર	-11.1802
bo	-11.1803
▁ਵਿਚਲ	-11.1806
నప్పటికీ	-11.1808
▁গ্ৰীষ্মকাল	-11.1809
▁വേഗതയ	-11.1809
old	-11.1812
ൂ	-11.1814
ಗಳಿವೆ	-11.1816
▁یو	-11.1816
▁ٹور	-11.1817
▁ਪੂਰਬ	-11.1817
▁مار	-11.1817
▁రావ	-11.1818
▁मिळव	-11.1818
ਡੀਆ	-11.1819
ٹن	-11.182
ill	-11.1822
▁জিন	-11.1825
▁mu	-11.1826
▁অধীনত	-11.1826
ণ্য	-11.1829
ેલા	-11.1829
▁માટેના	-11.1829
▁पाना	-11.1831
▁लड़ा	-11.1832
ਅਰ	-11.1836
▁ಕ್ರೀಡಾಕೂಟ	-11.1837
ina	-11.1837
▁ছি	-11.1846
cal	-11.1846
▁شا	-11.1849
▁ಭಾರ	-11.1852
▁പര	-11.1853
▁పోటీ	-11.1853
▁house	-11.1855
ಯರ್	-11.1859
▁ਐਨ	-11.1859
ંકન	-11.1861
▁ಹಾನಿ	-11.1862
▁ఎత్తు	-11.1866
ుగ	-11.1867
▁రై	-11.187
▁ಸಾಧಿಸ	-11.1872
▁பாதிப்பு	-11.1873
▁মন	-11.1875
▁तेथ	-11.1876
▁ఓడ	-11.1879
జ	-11.1879
▁వె	-11.1883
ਫ	-11.1886
▁ತೈಲ	-11.1888
▁খ	-11.1891
▁خوف	-11.1894
▁યાદ	-11.1895
ਪੂਰ	-11.1896
▁fu	-11.1899
▁फै	-11.1899
पत्र	-11.1902
▁উৎ	-11.1904
ির	-11.1905
ವಿಲ್ಲದ	-11.1906
اج	-11.1906
ളിൽ	-11.1907
▁देशां	-11.1912
ുമെന്ന	-11.1912
ਜਨ	-11.1916
▁ফেলে	-11.1916
▁زی	-11.1926
▁lat	-11.1926
▁இடையில	-11.1931
▁ସଂ	-11.1936
▁गिर	-11.1937
ନର	-11.1939
▁பயணிக்க	-11.1939
▁ஹெ	-11.1941
టిక్	-11.1942
▁मुल	-11.1943
زہ	-11.1944
ages	-11.1944
ോള	-11.1944
▁প্রত্যেক	-11.1946
சார்	-11.1946
▁ਘ	-11.1948
വർക്ക്	-11.1951
ବେଶ	-11.1952
ੈੱਟ	-11.1953
▁ৰোমান	-11.1953
▁ତେ	-11.1955
▁দেখে	-11.1957
▁ছা	-11.1958
دین	-11.196
▁જર્મની	-11.1963
▁सिख	-11.1966
ਚਾਲ	-11.197
యర్	-11.197
▁ৰূপ	-11.1971
ধৰণে	-11.1972
▁شن	-11.1972
್ಸ್	-11.1973
िड	-11.1974
ਨਾਲ	-11.1975
▁ना	-11.1976
▁ماہر	-11.1977
ball	-11.1978
▁ਵਾ	-11.1978
ਥਾਈ	-11.1979
▁பொருள்	-11.198
▁مخ	-11.1982
▁উপস্থিতি	-11.1982
bu	-11.1983
ആം	-11.1988
▁सामी	-11.1989
ଆରି	-11.1993
ிக்	-11.1994
ರೂ	-11.1996
▁ఉపయోగించి	-11.1996
▁زیا	-11.1997
▁جرم	-11.1999
▁പറഞ്ഞ	-11.2001
▁ಪ್ರಯತ್ನ	-11.2003
ਬਾ	-11.2004
▁જુદ	-11.2005
▁ഫ്ലൈറ്റ	-11.2005
سلو	-11.2006
▁धम	-11.2007
▁సేవల	-11.2008
বাদী	-11.2011
ାଲ	-11.2012
تلف	-11.2014
▁தொடங்க	-11.202
ਰੇ	-11.2021
ಸ್ಟರ್	-11.2021
▁फैलिएक	-11.2023
▁निज	-11.2024
face	-11.2025
▁ਰਾਜਾ	-11.2026
২	-11.2026
३	-11.2027
னும்	-11.2029
બાદ	-11.2029
গ্ৰহণ	-11.203
▁આખ	-11.2033
னை	-11.2034
▁హు	-11.2035
ର୍କ	-11.2035
കൊണ്ട	-11.2038
▁நாட	-11.2039
ਸ਼ਨੀ	-11.2039
વટ	-11.204
▁পৃথিৱীত	-11.2043
▁તૈયાર	-11.2045
▁பதிவ	-11.2046
सो	-11.2047
▁ನೌಕೆಗಳ	-11.2051
▁ever	-11.2054
ೇಶ	-11.2055
▁ఆస్ట్రేలియా	-11.2055
▁કલા	-11.2058
▁निर्देश	-11.2059
▁পরিবার	-11.2059
itting	-11.2061
▁વરસાદ	-11.2062
▁ಸಹಿ	-11.2063
▁ശ്രദ്ധ	-11.2066
▁ಗ್ರ	-11.2067
▁জটিল	-11.2067
▁associat	-11.2067
▁ಪೋ	-11.2068
▁observ	-11.2068
▁ବର	-11.2069
ಿನಿಂದ	-11.207
▁గుర	-11.2071
▁பெண்கள	-11.2071
ീസ	-11.2072
▁stud	-11.2076
ৱা	-11.2078
▁lea	-11.208
▁ಜ್ಞಾನ	-11.2082
ਸਟਰ	-11.2082
▁વિશિષ્ટ	-11.2088
▁গ্ৰ	-11.209
▁पल	-11.2091
▁ਤੱ	-11.2097
ற்ற	-11.2097
ൻസ	-11.2097
▁ବାର	-11.2098
▁ഒഴിവാക്ക	-11.2101
ాన	-11.2105
▁റിപ്പോർട്ടു	-11.2106
▁କଲେ	-11.2108
▁ஆகியவற்ற	-11.2112
▁വസ്തുക്കള	-11.2117
▁ਪੇ	-11.2119
▁ಕೊ	-11.2123
▁ವ್ಯವಸ್ಥೆ	-11.2125
ਰਟ	-11.2126
▁बाजू	-11.2129
▁அங்கு	-11.213
রি	-11.2131
▁देखन	-11.2132
▁मला	-11.2137
▁सिद्धान्त	-11.2139
▁વાર્તા	-11.2141
▁ఏజెంట్	-11.2141
▁જગ્યા	-11.2142
▁বির	-11.2148
▁special	-11.2148
▁തല	-11.2149
▁மாணவர்கள	-11.2152
▁আন্ত	-11.2154
▁મોટાભાગ	-11.2154
▁chi	-11.2156
ಕಲ್	-11.2163
▁অপ	-11.2165
হিত	-11.2166
▁பெரு	-11.2167
▁ಜನ	-11.2167
തിനേക്കാ	-11.2174
▁வீரர்கள	-11.2176
▁prob	-11.2178
ਐਨ	-11.2185
▁ro	-11.2185
▁فلو	-11.2187
▁মাছ	-11.2188
▁ઇન્	-11.2189
੍ਰਹਿ	-11.2189
▁ജർമ്മൻ	-11.219
িড	-11.2191
தா	-11.2194
জেন	-11.2194
▁ഫോ	-11.2195
▁star	-11.2196
ుతున్న	-11.2197
ches	-11.2197
اسکے	-11.2198
▁نیو	-11.22
ಡಿ	-11.22
▁ಮುಕ್ತ	-11.2202
▁କୋ	-11.2204
ச	-11.2212
▁too	-11.2216
▁ગ્ર	-11.222
▁वस	-11.2221
ോട്ട്	-11.2223
▁ഹൈ	-11.2224
▁ಅಧಿಕಾರ	-11.2226
▁ਅੱਖ	-11.2228
▁بہتری	-11.2228
সি	-11.2229
▁আবাস	-11.223
▁এল	-11.2233
sion	-11.2238
▁مست	-11.2238
▁hit	-11.2239
▁புத	-11.224
रें	-11.224
▁घट	-11.224
▁શબ્દ	-11.2241
▁தொடங்கி	-11.2241
க்கள்	-11.2247
▁ब्रिट	-11.2248
▁பருவத்தி	-11.2248
নির্মিত	-11.2249
▁ग्री	-11.225
▁জাৰ্মান	-11.2251
▁நிகழ்ச்சி	-11.2252
▁আকার	-11.2255
▁ਕਿੰਗ	-11.2257
ಮ	-11.2257
▁विषय	-11.2257
▁કહેવ	-11.2257
▁ফি	-11.2257
▁ટ્ર	-11.2265
▁वस्तु	-11.2266
▁కంప్యూటర్	-11.2267
▁फ़्रांस	-11.2268
▁মন্দিৰ	-11.2268
▁ಆಟಗಾರ	-11.2269
▁ಪ್ರಮಾಣದ	-11.2271
▁ঘটনা	-11.2272
▁অৰ্থনৈতি	-11.2273
▁منع	-11.2273
fully	-11.2274
▁hel	-11.2274
▁வழக்கு	-11.2276
ks	-11.2278
पोर्ट	-11.2279
go	-11.228
▁spoke	-11.228
▁કો	-11.2281
ன்ஸ்	-11.2286
▁कुल	-11.2286
▁बर्फा	-11.2287
▁भन्न	-11.2287
▁جوڑ	-11.2288
▁ಬದಲಾವಣೆಯ	-11.2289
▁କରିବ	-11.2289
্তন	-11.2291
தற்கு	-11.2291
▁ಮಾತನಾಡುವ	-11.2295
▁गर्नेछ	-11.2297
ಾಗಿವೆ	-11.2297
▁সাম	-11.2298
▁creat	-11.2299
▁ಕಂಡುಹಿಡಿದ	-11.2299
ોળ	-11.23
দার	-11.23
▁काल	-11.2302
▁website	-11.2303
▁થ	-11.2304
▁election	-11.2304
ଲବ୍	-11.2304
ಷ್	-11.2305
માત્ર	-11.2307
क्रिय	-11.2308
▁బార్	-11.2309
▁কৰ	-11.231
▁सै	-11.2314
ਿਡ	-11.2315
▁ਦਾਅਵ	-11.2316
ೊಂದ	-11.2316
▁لمب	-11.2319
▁fer	-11.232
▁নিৰ্দেশ	-11.232
▁ભિન્ન	-11.232
▁हल्ल्या	-11.2321
▁happen	-11.2321
▁record	-11.2321
ಿಲೋ	-11.2322
▁meet	-11.2322
▁பாதிக்கப்பட்ட	-11.2322
▁স্বাধীন	-11.2322
▁مجموع	-11.2323
ైక	-11.2326
▁જાત	-11.2327
▁স্কুল	-11.2328
▁religio	-11.2328
وٹ	-11.2328
ਅਲ	-11.2329
▁ବୃ	-11.2329
▁నివాస	-11.2329
▁विद्यार्थी	-11.233
യ്	-11.233
▁टैक्स	-11.233
ધાન	-11.2332
▁ভাঁজ	-11.2332
▁પરંપરા	-11.2333
కల్	-11.2334
టారు	-11.2334
हिल्य	-11.2334
▁ਨਿੱ	-11.2334
▁বিবেচ	-11.2334
नैतिक	-11.2334
▁বলেছে	-11.2335
▁ഗ്രൂപ്പ	-11.2335
ংস্কৃতিক	-11.2335
▁মামলা	-11.2335
▁विशेषज्ञ	-11.2335
कारात्मक	-11.2335
▁ದಶಕ	-11.2335
▁தெரிய	-11.2336
▁ஸ்பானி	-11.2336
କୃତ	-11.2336
బుల్	-11.2336
▁ಬೆಂಬಲ	-11.2336
▁உள்	-11.2336
▁राजनीति	-11.2336
▁ಮುಖ	-11.2336
ಚೀನ	-11.2336
घाती	-11.2336
ில்லியன	-11.2336
▁ଅସ	-11.2336
भियत	-11.2336
▁କାମ	-11.2336
कटिबंध	-11.2336
▁reach	-11.2336
▁छिमेकी	-11.2336
▁शौचालय	-11.2336
▁सुरवात	-11.2336
▁ব্রাজিল	-11.2336
▁মস্তিষ্ক	-11.2336
▁ਛੇ	-11.2336
▁ଅଣ	-11.2336
▁କିଲୋମିଟର	-11.2336
▁రేడియో	-11.2336
▁ಜರ್ಮನ್	-11.2336
▁ದೈಹಿಕ	-11.2336
▁ಬಿಡುಗಡೆ	-11.2336
▁പാർട്ടി	-11.2336
ऐवजी	-11.2336
▁citizens	-11.2336
▁evidence	-11.2336
▁hospital	-11.2336
▁http	-11.2336
▁mph	-11.2336
▁pakistan	-11.2336
▁russia	-11.2336
▁ریکارڈ	-11.2336
▁صنعت	-11.2336
▁صورت	-11.2336
▁چاہیئے	-11.2336
▁ہجوم	-11.2336
▁अंदाज	-11.2336
▁अनुमोदन	-11.2336
▁अफ़्रीक	-11.2336
▁क्योटो	-11.2336
▁गणतन्त्र	-11.2336
▁चुनौती	-11.2336
▁परिवहन	-11.2336
▁फिर्ता	-11.2336
▁बर्ष	-11.2336
▁भूगर्भ	-11.2336
▁रिपब्लिक	-11.2336
▁विश्वयुद्ध	-11.2336
▁ইন্ধন	-11.2336
▁উপত্যকা	-11.2336
▁টেলিভিছন	-11.2336
▁দাবী	-11.2336
▁নভেম্বর	-11.2336
▁নম্বর	-11.2336
▁নৱেম্বৰ	-11.2336
▁পরিণত	-11.2336
▁প্রতিযোগিতা	-11.2336
▁প্ৰস্তাৱ	-11.2336
▁স্বাভাবিক	-11.2336
▁ਅਪਰਾਧ	-11.2336
▁ਖ਼ਾਸ	-11.2336
▁ਖਿਡਾਰੀ	-11.2336
▁ਜਪਾਨ	-11.2336
▁ਤਜਰਬ	-11.2336
▁ਨਜ਼ਦੀਕ	-11.2336
▁ਪੰਛੀ	-11.2336
▁ਭੀੜ	-11.2336
▁ਮਜ਼ਬੂਤ	-11.2336
▁ਸਥਿਰ	-11.2336
▁અભ્યાસ	-11.2336
▁એકબીજા	-11.2336
▁પરમાણુ	-11.2336
▁રાજધાની	-11.2336
▁લશ્કર	-11.2336
▁વસ્તી	-11.2336
▁સોવિય	-11.2336
▁ତୁର୍କୀ	-11.2336
▁ପରିବହନ	-11.2336
▁ଯୁକ୍ତରାଷ୍ଟ୍ର	-11.2336
▁ସୂର୍ଯ୍ୟ	-11.2336
▁అట్లాంట	-11.2336
▁చేశాడు	-11.2336
▁భౌతిక	-11.2336
▁స్వాధీనం	-11.2336
▁ಅಗ್ನಿ	-11.2336
▁ಆನ್	-11.2336
▁ಜುಲೈ	-11.2336
▁ಯೂನಿಯನ್	-11.2336
▁ಹೋಟೆಲ್	-11.2336
▁ജൂലൈ	-11.2336
▁പ്രതിരോധ	-11.2336
▁left	-11.2336
▁virtual	-11.2336
▁نتیج	-11.2336
▁अन्तरिक्ष	-11.2336
▁उपाय	-11.2336
▁डिज़ाइन	-11.2336
▁উদ্বেগ	-11.2336
▁মৌল	-11.2336
▁সুন্দৰ	-11.2336
▁ઉર્જા	-11.2336
▁ખોરાક	-11.2336
▁ફ્રેન્ચ	-11.2336
▁ପାରମ୍ପ	-11.2336
▁పరిస్థితి	-11.2336
▁లక్షణాల	-11.2336
▁બન્ને	-11.2337
▁କୁହାଯାଏ	-11.2337
মেইল	-11.2337
▁picture	-11.2337
▁धातु	-11.2337
▁ప్రముఖ	-11.2337
▁ಗೇಮ್	-11.2337
▁जङ्गल	-11.2337
▁मेडिसिन	-11.2337
▁অগ্নি	-11.2337
▁વાતાવરણ	-11.2337
▁વિઝા	-11.2337
▁মূল্যবান	-11.2337
▁ସମ୍ମୁଖ	-11.2337
▁വാഗ്	-11.2337
▁સપ્તાહ	-11.2337
▁focus	-11.2337
▁வேறுபட்ட	-11.2337
▁tube	-11.2337
▁টিকিট	-11.2337
▁মনোনয়ন	-11.2337
▁வென்ற	-11.2337
▁ক্ষয়	-11.2337
▁পদাৰ্থ	-11.2337
▁जटिल	-11.2337
▁प्रायद्वीप	-11.2337
▁ਘੋੜ	-11.2337
▁मंगल	-11.2337
▁નક્ક	-11.2337
▁మార్చి	-11.2337
▁bulb	-11.2337
▁कृषि	-11.2337
▁ઉત્પ	-11.2337
▁हेर्नुहोस्	-11.2337
▁ପର୍ଯ୍ୟଟନ	-11.2337
▁धरती	-11.2337
▁શાંતિ	-11.2337
▁താഴ്ന്ന	-11.2337
▁আজিকালি	-11.2337
▁ಕಾಣಬಹುದು	-11.2337
▁ಕಿಮೀ	-11.2337
വിയറ്റ്	-11.2337
▁હવામાન	-11.2337
▁tourism	-11.2337
▁খবৰ	-11.2337
▁ਸੰਸਥਾ	-11.2337
▁वेळा	-11.2337
▁ଆଉ	-11.2337
▁ആരോഗ്യ	-11.2337
▁پالیسی	-11.2337
▁باقاعد	-11.2337
▁প্ৰশিক্ষণ	-11.2337
▁સમયગાળા	-11.2337
▁फ्रान्सिस्को	-11.2337
▁आघात	-11.2337
▁رگ	-11.2337
▁കോട്ട	-11.2337
▁dangerous	-11.2337
▁گرانڈ	-11.2337
▁સસ્ત	-11.2337
▁అత్య	-11.2337
▁अलोन्सो	-11.2337
▁పన్ను	-11.2337
▁ସୁରକ୍ଷ	-11.2337
▁पर्याय	-11.2337
▁abc	-11.2337
▁സുരക്ഷാ	-11.2337
▁പോയിൻ്റുകൾ	-11.2337
▁সামনে	-11.2337
▁వచ్చారు	-11.2337
ుబాటు	-11.2337
▁beauty	-11.2337
▁প্ৰাকৃতিক	-11.2337
▁उघड	-11.2337
▁buy	-11.2337
ਿਹਤ	-11.2337
▁زائد	-11.2337
▁ৰক্ত	-11.2337
▁প্রচলিত	-11.2337
▁പറയുന്നു	-11.2337
▁कलाकार	-11.2337
▁బ్రెజిల	-11.2337
▁طرز	-11.2338
▁ਡਾਲਰ	-11.2338
▁ਸਰੀਰ	-11.2338
▁সংৰক্ষণ	-11.2338
▁western	-11.2338
▁રહેશે	-11.2338
▁यति	-11.2338
▁ബൾബ	-11.2338
▁ഉണ്ടായിരിക്കണം	-11.2338
▁बिग	-11.2338
▁civilization	-11.2338
▁قطب	-11.2338
▁মঞ্চ	-11.2338
ಗೋಳ	-11.2338
▁अंदर	-11.2338
▁બિન	-11.2338
▁കാരണമായി	-11.2338
▁മുഴുവ	-11.2338
▁भनिने	-11.2338
▁उपस्थिति	-11.2338
▁یوروپ	-11.2338
▁copy	-11.2338
▁രാവ	-11.2338
▁દાખલ	-11.2339
▁பிரபலமான	-11.2339
▁ডুব	-11.2339
▁ਲੱਖ	-11.2339
▁safe	-11.2339
▁தொடங்கியது	-11.2339
▁skate	-11.2339
▁carry	-11.2339
▁never	-11.2339
▁আধাৰিত	-11.2339
▁कसैल	-11.2339
▁રાત્ર	-11.2339
▁combined	-11.2339
▁তুলনামূলক	-11.2339
▁ಮಾಡಲಾಯಿತು	-11.2339
▁મળ્યા	-11.2339
▁ఉండాలి	-11.2339
▁फेज	-11.2339
▁स्वीडन	-11.2339
▁ਲੜਾਈ	-11.2339
বদ্ধ	-11.2339
▁संभावना	-11.2339
▁નાગરિકો	-11.234
▁पढ्न	-11.234
▁ખાતરી	-11.234
▁ਸਵੀ	-11.234
▁ঘুরে	-11.234
▁ആറ്റ	-11.234
▁பொறுத்து	-11.234
▁ഒരുപക്ഷ	-11.234
▁fold	-11.234
▁वन्यजीव	-11.234
▁வேகத்த	-11.234
pago	-11.234
▁बैंड	-11.234
▁یع	-11.2341
▁লেখা	-11.2341
▁செய்யப்படும்	-11.2341
▁ایئر	-11.2341
శారు	-11.2341
▁अटक	-11.2341
▁अज्ञ	-11.2341
▁ప్రసిద్ధ	-11.2341
▁সম্পর্কিত	-11.2341
▁নজর	-11.2341
▁ଚିନ୍ତା	-11.2341
▁અકસ્માત	-11.2341
▁పొడవు	-11.2341
▁जनता	-11.2341
meti	-11.2341
▁होईल	-11.2342
েলাইট	-11.2342
▁براہ	-11.2342
▁شم	-11.2342
▁கிடைக்கும்	-11.2342
▁स्ट्र	-11.2342
▁बाटो	-11.2343
▁పరిశోధన	-11.2343
▁पर्दछ	-11.2343
▁স্বাক্ষর	-11.2343
▁కొద్ది	-11.2344
▁ভিন	-11.2344
▁মৃত	-11.2344
▁fact	-11.2344
▁विभाजन	-11.2344
▁पुढील	-11.2344
▁আকাৰ	-11.2345
▁வழங்கும்	-11.2345
▁प्रेस	-11.2345
▁ಸಾಕು	-11.2346
▁construction	-11.2346
▁ସୋ	-11.2347
▁સૂચવ	-11.2347
▁eva	-11.2348
▁ਮਾਨ	-11.2348
▁इं	-11.2349
डियन	-11.2349
▁పార్క్	-11.2349
▁अखेर	-11.2349
▁મેળવી	-11.2349
▁অন	-11.235
▁কৰে৷	-11.2351
▁వ్యతిరేక	-11.2352
▁സ്വാതന്ത്ര്യ	-11.2352
▁धक्का	-11.2352
▁আৰক্ষী	-11.2352
▁ചാർജ	-11.2352
▁ವಿಹಾರ	-11.2352
▁फ़ोटो	-11.2352
▁हिंस	-11.2352
▁সূত্ৰ	-11.2352
▁सूची	-11.2352
▁ଆକ	-11.2353
▁থাকিলে	-11.2353
▁ਕਿਸ਼ਤੀ	-11.2353
ਪੀ	-11.2353
▁गइरहेक	-11.2354
వరి	-11.2354
▁ಇಟಲಿಯ	-11.2354
▁કેપ	-11.2354
▁જણાવ્યા	-11.2354
▁વળ	-11.2355
▁গুৰুত্ব	-11.2356
▁ਆਲੇ	-11.2357
▁ஏற்றுக்கொள்ள	-11.2357
▁निर्वाचन	-11.2357
▁کھڑ	-11.2357
▁ફ્લ	-11.2357
▁routes	-11.2357
msel	-11.2358
அழைக்கப்படுகிறது	-11.236
▁ஒன்றாக	-11.236
▁সোমবার	-11.236
▁मूस	-11.2361
ୁଛି	-11.2362
ிங்	-11.2362
▁award	-11.2363
▁মনোভা	-11.2363
▁દેશના	-11.2363
▁உரை	-11.2363
▁walk	-11.2364
▁अंग	-11.2364
▁کن	-11.2364
िरहेक	-11.2365
▁चांगले	-11.2365
्तिमा	-11.2366
▁विश्वव	-11.2366
▁crowd	-11.2366
▁దృష్టి	-11.2367
▁ബാങ്ക	-11.2367
▁تھیں	-11.2367
▁നേരിട്ട	-11.2368
▁രാജാവ	-11.2369
▁easter	-11.2369
▁जहाजहरू	-11.2369
▁মুদ্ৰ	-11.237
▁ದಿನಗಳ	-11.237
സ്ഥാനം	-11.2371
▁airlines	-11.2371
▁జీవన	-11.2373
وان	-11.2374
▁পৰিচালন	-11.2374
▁लेन्सको	-11.2375
▁गती	-11.2375
▁مدت	-11.2375
▁প্ৰথমবাৰ	-11.2376
▁ਮੰਤਰ	-11.2376
▁ಇತರೆ	-11.2377
▁بچا	-11.2377
▁ക്ഷേത്ര	-11.2378
▁ഏറെ	-11.2378
▁অল	-11.2378
▁attend	-11.2379
▁تفتیش	-11.2379
▁ગુરુ	-11.2379
▁length	-11.2379
▁উদাহৰণ	-11.2379
▁ఇటలీ	-11.2379
▁હાજર	-11.2379
▁ଡଙ୍ଗା	-11.2379
▁stop	-11.2379
▁হাজাৰ	-11.2379
▁ગતિ	-11.2379
▁access	-11.238
▁born	-11.238
▁গ্ৰী	-11.2382
▁સમજી	-11.2382
▁हल्क	-11.2383
▁அர	-11.2383
▁नेहमीच	-11.2383
▁సృష్టించ	-11.2384
▁ફરજ	-11.2385
▁খোৱা	-11.2386
પચાર	-11.2386
▁தொழில்	-11.2387
▁اونچ	-11.2388
▁સ્કી	-11.2388
▁देवता	-11.2388
▁செயல்பட	-11.2389
▁पो	-11.2389
▁சிறிது	-11.239
▁चुकी	-11.2391
▁താമസിക്കുന്ന	-11.2391
▁কানাডা	-11.2392
▁meaning	-11.2392
▁ദാന	-11.2392
വാൻ	-11.2393
▁ಜೋ	-11.2394
▁পালন	-11.2395
▁closed	-11.2396
▁উপৰি	-11.2396
▁जातील	-11.2397
▁ವಲ	-11.2399
▁ఆహారం	-11.2399
▁ഒരേ	-11.2399
सर	-11.24
▁ನಡೆದು	-11.24
▁বিশ্ববিদ্যালয়ৰ	-11.2401
▁சுற்றியுள்ள	-11.2404
▁ni	-11.2404
▁ଅବସ୍ଥା	-11.2407
▁ଦୃଶ୍ୟ	-11.2407
ন্স	-11.2408
▁મૂકવા	-11.2411
▁ਟੀ	-11.2412
ुद्धा	-11.2413
▁ପ୍ରସ୍ତୁତ	-11.2414
▁ਪੈਰ	-11.2414
ર્ડ	-11.2417
▁ఇప్ప	-11.2417
▁వేల	-11.2417
غ	-11.2417
സൺ	-11.242
▁ਝ	-11.2421
▁இல்லாமல	-11.2421
▁પહેલ	-11.2421
▁আকারে	-11.2424
▁cycl	-11.2425
▁ഇൻ	-11.2425
▁ફે	-11.2426
▁sold	-11.2426
त्म	-11.2427
▁میڈی	-11.2429
▁सिर	-11.2429
▁பு	-11.2432
୍ୱପ	-11.2433
▁ਫ਼ੋਨ	-11.2435
▁হন	-11.2436
▁স্কট	-11.2437
▁মিটার	-11.2437
▁वांशिक	-11.2437
▁କେନ୍ଦ୍ର	-11.2438
▁महत्वाच	-11.2439
▁কেনে	-11.244
▁তাক	-11.2443
الو	-11.2445
ਮਤ	-11.2445
બલ	-11.2446
▁રેસ	-11.2446
लागेल	-11.2448
▁கவனம	-11.2448
▁print	-11.245
▁ನಡೆಯಲ	-11.245
▁रक्त	-11.245
▁റോമ	-11.2451
▁मांग	-11.2453
▁ભાગી	-11.2457
▁جیل	-11.2458
▁ਨਿਸ਼ਾਨ	-11.2458
▁ਸੈੱਲ	-11.2458
▁ਜਾਣਾ	-11.2459
▁ਹੇ	-11.2459
▁होतात	-11.2461
▁ਭੁ	-11.2461
▁ਪਾਲਣ	-11.2461
▁ਚੱਲ	-11.2464
ৰীয়া	-11.2464
▁ಹರಿ	-11.2465
ney	-11.2466
▁ರಾತ್ರಿಯ	-11.2468
▁अघिल्ल	-11.2469
ੂਨੀ	-11.2469
▁ਆਈ	-11.247
▁ప్రక్రియ	-11.247
▁cell	-11.2471
ాలి	-11.2475
کول	-11.2476
टिन	-11.2477
ਫ਼ਰੀ	-11.2481
▁নিচে	-11.2482
ियां	-11.2484
▁ସମୟର	-11.2485
▁پو	-11.2486
ಲ್ಯಾಂಡ್	-11.2489
కులు	-11.2491
▁સત્તા	-11.2491
▁எங்கள	-11.2494
વેલ	-11.2494
▁സൃഷ്ടിക്ക	-11.2496
▁ਮਾਲ	-11.2496
வேண்டும்	-11.25
▁অধ্যয়ন	-11.2505
▁കുടുംബ	-11.2506
▁କାର୍ଯ୍ୟକ୍ରମ	-11.2507
ിപ്പിച്ചു	-11.2507
रोलर	-11.2508
▁വ്യത്യസ്തമായ	-11.2509
राष्ट्रीय	-11.2509
কান	-11.251
▁bear	-11.2511
▁అను	-11.2513
▁আসে	-11.2515
േണ്ടതുണ്ട്	-11.2516
."	-11.2516
ेशा	-11.2516
ાના	-11.2517
ామీ	-11.2517
▁चिनि	-11.2517
▁গিয়ে	-11.2519
ಿದ್ದ	-11.2519
▁संयोज	-11.252
▁sides	-11.252
ೈ	-11.2521
▁যেন	-11.2522
সন	-11.2523
▁పిల్ల	-11.2524
▁ದಿ	-11.2524
ال	-11.2528
▁వీడియో	-11.2529
▁জাতি	-11.253
ूट	-11.2531
▁ఫై	-11.2531
▁احت	-11.2533
টোত	-11.2535
ਸਤ	-11.2536
▁નહોત	-11.2539
▁روس	-11.2539
▁ബാധിക്ക	-11.254
▁فق	-11.2542
▁घंटा	-11.2543
▁അനു	-11.2544
▁ಬಲ್	-11.2544
▁கார	-11.2544
▁வயத	-11.2547
▁வகைய	-11.2552
▁অন্তর্	-11.2553
▁ପୃଥିବୀ	-11.2553
▁ઈ	-11.2554
▁abilit	-11.2555
▁லோ	-11.2556
ిస్టర్	-11.2557
▁رکھیں	-11.2558
▁वाज	-11.256
ਬਰਗ	-11.256
▁నష్ట	-11.256
▁فرد	-11.256
▁रोक्न	-11.256
▁கதை	-11.2561
رز	-11.2565
نحص	-11.2568
▁उल्का	-11.2569
ಿದ್ದವು	-11.2569
▁ज्ञा	-11.2576
here	-11.2576
▁نیوی	-11.258
ിരുന്ന	-11.2582
यां	-11.2583
▁surviv	-11.2585
▁ವಿಧಾನ	-11.2585
▁पद्धती	-11.2585
ਖਾ	-11.2586
▁ਗੁ	-11.2588
റിൽ	-11.2588
▁ಎನ್ನುವುದ	-11.2589
ുകൊണ്ട	-11.259
▁দু	-11.2594
▁کارڈ	-11.2594
▁ಸಂಗ್ರಹಿಸ	-11.2596
▁ಮಾಹಿತಿ	-11.2597
▁సంబంధాల	-11.2598
▁বিজ্ঞান	-11.2599
ిని	-11.26
▁ಕು	-11.26
▁देव	-11.2601
▁lu	-11.2604
▁ସାମ	-11.2605
লো	-11.2608
്ച	-11.2608
▁समस्याहरू	-11.2612
াৰৰ	-11.2613
▁ಪಶ್ಚಿಮ	-11.2614
▁ગાય	-11.2616
▁അദ്ദേഹത്തിന്	-11.2617
▁விளக்க	-11.2617
▁భార	-11.2617
மை	-11.2617
▁दिस	-11.2617
தல்	-11.2619
que	-11.262
▁સ્થળો	-11.262
▁तेज	-11.262
▁ಉದ್ಯಮ	-11.2623
▁അടി	-11.2627
ാക്കി	-11.2629
▁ટ્રેન	-11.2632
ಕೆಟ್	-11.2636
▁নহ	-11.2637
▁रक	-11.2639
म्ब	-11.2646
▁বাতাস	-11.2647
వైపు	-11.2647
ച	-11.2647
▁ಹಿಂದ	-11.2648
▁కష్టం	-11.2649
▁દર્શાવ	-11.2649
▁ವಿಜ್ಞಾನಿ	-11.2654
▁తీర	-11.2654
ਰੰਤ	-11.2655
▁شد	-11.2657
▁नस	-11.2658
டி	-11.2661
▁ਮਿਲੀ	-11.2667
▁குடி	-11.2667
▁प्री	-11.2668
ാർഡ്	-11.2668
ోలు	-11.2671
▁मै	-11.2671
▁வீட்டில	-11.2675
▁ملی	-11.2678
▁ਵਿਆ	-11.2679
▁கப்பல்கள	-11.2682
ُ	-11.2683
▁लुन	-11.2685
رسائی	-11.2685
▁એના	-11.2685
▁ప్రయాణించ	-11.2688
▁பரவ	-11.2688
▁अफ	-11.2692
▁ಜೀವನ	-11.2693
▁চালক	-11.2697
اند	-11.2697
ਇੰਗ	-11.2701
▁বিচাৰি	-11.2701
▁શિકાર	-11.2705
সহ	-11.271
▁হত	-11.271
▁basic	-11.2712
▁உற்பத்தி	-11.2715
▁করি	-11.2718
▁গৰাকী	-11.272
ਮੇਲ	-11.2723
ाव	-11.2724
▁ಗೌರವ	-11.2725
वन	-11.2726
▁ਬਣਨ	-11.2726
▁ಫೋ	-11.2727
▁செய்வது	-11.2727
▁सोल	-11.2729
▁गुण	-11.2732
ಫ	-11.2732
▁கண்ட	-11.2733
▁संरक्षण	-11.274
્ધ	-11.2742
▁பால	-11.2745
▁লা	-11.2746
▁పిల్లల	-11.2754
once	-11.2754
कारा	-11.2755
▁ஜ	-11.2755
वाब	-11.2756
▁گھوڑ	-11.2758
▁સેટ	-11.2758
طن	-11.2762
▁ಬೇಸಿಗೆ	-11.2762
ज़न	-11.2762
▁ଲୋକଙ୍କ	-11.2762
শি	-11.2763
▁धेरैजस	-11.2767
▁আস	-11.2768
ਡੋਰ	-11.277
ക്കാര	-11.2772
दिन	-11.2772
▁বছরে	-11.2773
▁ಉದ್ದೇಶ	-11.2775
▁ଜାର	-11.2775
▁રાજ	-11.2776
ేస్	-11.2781
▁उम्	-11.2783
▁पोलिस	-11.2783
जात	-11.2784
▁media	-11.2785
োর	-11.2786
க்கணக்க	-11.2786
▁खा	-11.2787
▁ভৰি	-11.2789
వారి	-11.279
ছেন	-11.2792
ାଇବା	-11.2794
▁જૂ	-11.2796
களின	-11.2797
రం	-11.2798
ின்றன	-11.2801
▁tri	-11.2801
ിനേക്കാ	-11.2802
െന്നും	-11.2802
▁কলা	-11.2803
▁ആവശ്യ	-11.2804
▁ഫയ	-11.2804
▁যাবেন	-11.2805
واج	-11.2806
▁ಬರುವ	-11.2806
▁బల	-11.2809
▁గాయాల	-11.281
▁సహాయపడ	-11.2811
▁ನಡೆಸಲ	-11.2815
▁സാധ്യത	-11.2818
ਸੇ	-11.2819
▁రోమన్	-11.2821
▁پل	-11.2822
স্ব	-11.2825
▁जग	-11.2825
▁அணி	-11.2828
ोडी	-11.283
▁પાડ	-11.2831
▁କାର	-11.2831
▁trop	-11.2831
▁কাল	-11.2833
▁hous	-11.2834
▁சுதந்திர	-11.2835
▁വർഷങ്ങൾക്ക	-11.2839
ಿಯೋ	-11.2841
ିଟ୍	-11.2841
யாகும்	-11.2841
▁সম্পর্ক	-11.2842
▁ಚಿತ್ರಗಳ	-11.2844
ില്ലാത്ത	-11.2845
dr	-11.2845
বিদ	-11.2845
શું	-11.2847
▁প্রতিবেদন	-11.2848
థ	-11.2849
▁തകർക്ക	-11.2849
▁ಗಳಲ್ಲಿ	-11.2852
▁விரைவாக	-11.2854
▁மாற்ற	-11.2857
▁ಜೇ	-11.2858
പി	-11.2861
▁گن	-11.2861
▁उत्सर्जन	-11.2863
ేలా	-11.2864
▁ഭീഷണി	-11.2864
ਾੜੀ	-11.2865
്യം	-11.2865
▁കഴിവ	-11.2865
িটি	-11.2868
▁డ	-11.2873
ਡਨ	-11.2874
ರನ್ನ	-11.2875
హ	-11.2875
▁ଗ୍ରୀ	-11.2877
్ని	-11.2879
▁डी	-11.2882
▁ଧ	-11.2883
বিধ	-11.2885
▁తిన	-11.2886
▁चौथ	-11.2888
▁گھنٹ	-11.2889
▁ਪਤ	-11.2891
▁போராட்ட	-11.2892
▁હા	-11.2895
▁హై	-11.2896
▁ਸੁਧਾਰ	-11.2897
നീളം	-11.2897
▁घेण्या	-11.2898
▁नाग	-11.2899
▁मना	-11.2901
▁அளவ	-11.2902
▁পাতল	-11.2903
▁जाण्याच	-11.2904
▁सापड	-11.2906
▁am	-11.2907
▁ആർ	-11.2909
▁ಆರೋಪ	-11.2909
ழைய	-11.2911
▁গ্রহণ	-11.2912
ੱਲ	-11.2912
▁ಪಿ	-11.2913
▁நடக்கும்	-11.2916
▁دیت	-11.2917
▁தொலைவில	-11.2918
ਿਟ	-11.2919
▁हित	-11.2919
প্রাপ্ত	-11.2919
▁ಚಕ್ರ	-11.2919
ଖ	-11.292
strict	-11.292
▁মু	-11.292
ଥ	-11.2922
घड	-11.2923
▁ഗ്രീ	-11.2925
▁लड़	-11.2925
▁ਜਿਸਨ	-11.293
బీ	-11.293
ਯੂ	-11.2931
▁ମେ	-11.2932
▁अड	-11.2933
कायदेशीर	-11.2934
ଫା	-11.2934
mr	-11.2934
ർക്ക്	-11.2936
ಶಿ	-11.2937
स्वीकार	-11.2938
ନାହିଁ	-11.2938
ವಿಕ	-11.294
▁உறுதிப்படுத்த	-11.2941
निर्माण	-11.2942
not	-11.2942
గత	-11.2943
ಬರ್	-11.2944
▁ഉപയോഗിക്കുന്നു	-11.2944
▁సార్	-11.2944
ਟਨ	-11.2944
ીએ	-11.2947
▁ওয়েবসাইট	-11.2949
▁ખર્ચ	-11.2949
ગ્રી	-11.295
ଶନ୍	-11.295
ক্তা	-11.2951
▁ವೃತ್ತಿ	-11.2952
দৰে	-11.2953
▁পে	-11.2956
ਦੇਸ਼	-11.2957
ેટ	-11.2961
ro	-11.2964
અને	-11.2965
▁കളി	-11.2966
രം	-11.2967
▁வயது	-11.2969
ਕਸ	-11.2969
▁স্	-11.2969
वेळ	-11.2969
யுள்ள	-11.297
৮	-11.297
▁एयरलाइन्स	-11.2971
▁ഉണ്ട	-11.2981
▁পাহাড়	-11.2983
▁امی	-11.2983
▁দিক	-11.2984
▁ಹವಾಮಾನ	-11.2986
▁അറിവ	-11.2986
▁se	-11.2988
▁મૅ	-11.2989
▁పా	-11.299
್ಯಂತ	-11.299
▁இணை	-11.2992
▁पुर	-11.2993
▁மைய	-11.2994
ಿಷ್	-11.2995
ുകയ	-11.2997
रियो	-11.2999
مانی	-11.2999
▁రోజుల	-11.3001
हे	-11.3001
▁પા	-11.3011
خمی	-11.3011
▁अवस्थ	-11.3012
▁اُنہ	-11.3017
ङ्ग	-11.3021
ick	-11.3021
ਗਰੀ	-11.3022
ବର୍ତ୍ତ	-11.3023
▁దాట	-11.3025
▁இரண்டா	-11.3026
▁அரசாங்க	-11.3027
▁source	-11.3027
nom	-11.3029
▁അയാ	-11.3029
▁বহুল	-11.3031
▁ಟರ್ಕಿ	-11.3032
▁ಇತಿಹಾಸ	-11.3036
ছাড়া	-11.3036
▁பனி	-11.3037
਼	-11.304
ରୀ	-11.304
تھو	-11.3041
▁குழுவ	-11.3042
ਕਾਂ	-11.3048
▁دھ	-11.305
বাহী	-11.3052
▁ಅಲ್ಲ	-11.3052
େଲ୍	-11.3054
विड	-11.3054
సున	-11.3057
▁शि	-11.3059
▁கண்	-11.3061
▁बोर्ड	-11.3061
▁എന്നിവയ	-11.3061
▁पात	-11.3062
കാല	-11.3062
▁ఆలయ	-11.3063
ઓમાં	-11.3064
▁କମ୍ପାନୀ	-11.3072
ark	-11.3073
▁ಪ್ರಪಂಚದ	-11.3074
জা	-11.3074
▁ತೆಗೆದುಕೊಳ್ಳ	-11.3075
ச்ச	-11.3075
ताब	-11.3077
▁ਸਮਾ	-11.3077
▁न्यू	-11.3078
सले	-11.3078
▁করছিল	-11.3079
▁ঠ	-11.3079
বেন	-11.3081
ுவதை	-11.3083
্ত	-11.3084
▁بحر	-11.3085
ಣೆ	-11.3085
▁സ്റ്റേറ്റ്സ	-11.3088
▁সামগ্ৰী	-11.3089
ିକ୍	-11.3089
▁বিপ	-11.3091
ুল	-11.3092
▁আগত	-11.3092
▁ബുക്ക	-11.3094
▁ਗੋ	-11.3099
▁முதன்	-11.31
▁எவ்வ	-11.3101
▁درست	-11.3101
▁മണിക്കൂ	-11.3102
ేట్	-11.3103
▁அணு	-11.3104
▁বিচাৰ	-11.3107
▁বিদ্যালয়	-11.3108
▁लगे	-11.311
ర్స్	-11.3112
టాప్	-11.3114
ैन	-11.3117
▁ga	-11.312
େକ	-11.312
नामी	-11.3121
▁చిత్ర	-11.3122
▁ਖਿੱਚ	-11.3122
▁قدر	-11.3125
▁वस्तू	-11.3127
লেণ্ড	-11.3128
▁ದಾಳಿಯ	-11.3129
স্টার	-11.3132
▁list	-11.3132
▁മുറി	-11.3134
دان	-11.3134
▁ਥੋੜ੍ਹ	-11.3135
दर	-11.3135
জুৰি	-11.3138
▁ஆகிய	-11.3138
▁കാ	-11.3139
▁دس	-11.3139
ਸ਼ਤ	-11.314
▁తర	-11.3141
▁ല	-11.3141
▁அரசாங்கம	-11.3142
▁कथा	-11.3143
▁புரிந்து	-11.3145
▁अफ्रिक	-11.3147
▁వెంట	-11.3147
▁کمی	-11.3148
▁ചെയ്യുന്നത	-11.3149
▁ষ্টে	-11.3151
▁డ్రైవ	-11.3151
▁സെ	-11.3153
▁जू	-11.3157
ಯಾಗಿದೆ	-11.3157
ੇਨ	-11.3157
▁আহি	-11.3158
ലൈറ്റ	-11.3158
ുകയായിരുന്നു	-11.3159
ದ್ದಾಗ	-11.3159
▁ଅପ	-11.3161
▁সূৰ্য	-11.3161
ರಿಂದ	-11.3163
▁পাছ	-11.3164
▁ଜନ	-11.3167
्टिक	-11.3168
حق	-11.3168
▁ಎರಡನೆಯ	-11.3172
▁આવક	-11.3174
దా	-11.3174
▁चीज	-11.3174
▁चाह	-11.3177
োতে	-11.318
▁ಕಾರ	-11.318
मुख्य	-11.318
▁बचा	-11.3181
ার্ড	-11.3182
ദ്ധ്യ	-11.3183
▁ਮੈਡੀ	-11.3184
as	-11.3185
▁বয়সী	-11.3186
▁ଶିକ୍ଷ	-11.3188
जा	-11.3189
▁ఎంత	-11.3193
र्‍या	-11.3193
▁চাৰিও	-11.3193
ਧਾਨ	-11.3194
▁ਨੈ	-11.3195
ਰਾ	-11.3196
তাৰ	-11.3198
▁घु	-11.3198
్లాస్	-11.3199
▁गुना	-11.3199
▁کس	-11.32
▁கோயில்	-11.32
▁క్ర	-11.3205
▁इमारत	-11.3209
▁ರೀತಿ	-11.3209
▁failure	-11.3209
▁bridge	-11.3211
▁एम	-11.3211
▁നിർദ്ദേശ	-11.3212
▁சோ	-11.3212
▁bird	-11.3212
▁result	-11.3213
ஃப்	-11.3213
▁hotel	-11.3214
▁member	-11.3215
ডিঅ	-11.3217
▁दिने	-11.3219
▁medic	-11.3219
▁प्रसार	-11.3219
▁உடை	-11.322
▁late	-11.322
▁மார்	-11.322
▁ಜೊತೆ	-11.3221
ਵਾਨ	-11.3222
ರ್ಥ	-11.3223
▁ଦେଶର	-11.3223
▁ચા	-11.3223
▁पाठ	-11.3224
▁எழுத்து	-11.3224
▁चिहान	-11.3227
▁શાસન	-11.3227
▁ಅಂಚ	-11.3227
াহিত	-11.3227
▁শিল	-11.3228
▁পরিবর্ত	-11.3229
▁ਮਹਿ	-11.3229
▁شہری	-11.3229
▁ઑ	-11.3232
gle	-11.3233
▁تجرب	-11.3233
▁ਰਾਹ	-11.3234
▁ધર્મ	-11.3235
▁ડ્ર	-11.3236
▁scienti	-11.3236
▁natural	-11.3237
▁del	-11.3237
ୌ	-11.3239
▁ਕਲਾ	-11.3239
ப்ட	-11.324
ਸਪਸ਼ਟ	-11.324
▁ज़रूर	-11.324
ੰਦਰ	-11.3241
ೈಕ	-11.3241
▁डिज	-11.3242
▁हार्व	-11.3242
▁मित्र	-11.3242
ૂળ	-11.3242
▁हॉटेल	-11.3242
▁डॉलर	-11.3242
nia	-11.3243
▁ಆತ	-11.3244
િશ્	-11.3244
▁दश	-11.3244
দৃশ	-11.3244
ൃ	-11.3244
▁পারবে	-11.3244
▁సిద్ధాంత	-11.3244
▁मैं	-11.3244
▁વાસ્તવિક	-11.3245
▁پانچ	-11.3245
▁तत्व	-11.3245
▁तथा	-11.3245
ுள்ளது	-11.3245
pted	-11.3245
▁ദൈ	-11.3245
ಜ್ಞಾನಿ	-11.3245
▁ਕਹਿ	-11.3245
▁हॉल	-11.3245
▁ਬ੍ਰਿਟ	-11.3245
▁પર્વત	-11.3246
▁పెంప	-11.3246
ପଏଣ୍ଟ	-11.3246
▁immediate	-11.3246
▁suspect	-11.3246
▁ऐन	-11.3246
▁गन्तव्य	-11.3246
▁ढंग	-11.3246
▁मुश्किल	-11.3246
▁संलग्न	-11.3246
▁ঐতিহাসিক	-11.3246
▁শীর্ষ	-11.3246
▁ৰাজধানী	-11.3246
▁ન્યાય	-11.3246
▁મંજૂરી	-11.3246
▁વિસ્ફોટ	-11.3246
▁ସୁବିଧା	-11.3246
▁உதாரண	-11.3246
▁మనుషుల	-11.3246
▁ಅಭಿಪ್ರಾಯ	-11.3246
▁അസ്വസ്ഥത	-11.3246
▁ബ്ലാക്ക്	-11.3246
▁ശവകുടീര	-11.3246
বৰষুণ	-11.3246
ভেনজানো	-11.3246
▁achieve	-11.3246
▁afcfta	-11.3246
▁npws	-11.3246
▁period	-11.3246
▁unesco	-11.3246
▁wildlife	-11.3246
▁غالب	-11.3246
▁منطق	-11.3246
▁کمپیوٹر	-11.3246
▁त्रिकोण	-11.3246
▁दायरा	-11.3246
▁प्रतिनिधी	-11.3246
▁प्रधानमन्त्री	-11.3246
▁बोबेक	-11.3246
▁ब्राज़	-11.3246
▁रेकर्ड	-11.3246
▁सङ्गठन	-11.3246
▁কম্পিউটাৰ	-11.3246
▁কৃষি	-11.3246
▁জরুরি	-11.3246
▁জৰুৰী	-11.3246
▁তুরস্ক	-11.3246
▁তুষার	-11.3246
▁ধ্বংসাবশেষ	-11.3246
▁প্ৰমাণ	-11.3246
▁পৰস্পৰ	-11.3246
▁শিক্ষার্থী	-11.3246
▁শ্রেণি	-11.3246
▁ਏਜੰਟ	-11.3246
▁ਤਕਨੀਕ	-11.3246
▁ਨਿਯੰਤਰ	-11.3246
▁ਪਸ਼ੂ	-11.3246
▁ਪੱਥਰ	-11.3246
▁ਸਹੂਲਤ	-11.3246
▁ਸ਼੍ਰੇਣੀ	-11.3246
▁ਹਮੇਸ਼ਾ	-11.3246
▁અંદાજ	-11.3246
▁આનંદ	-11.3246
▁કાર્યવાહી	-11.3246
▁પ્રણાલી	-11.3246
▁બુધવાર	-11.3246
▁મેનેજમેન્ટ	-11.3246
▁સંશોધન	-11.3246
▁ଜଣାଶୁଣା	-11.3246
▁ଜିନିଷ	-11.3246
▁ନୂଆ	-11.3246
▁ପଶୁ	-11.3246
▁ଯଥା	-11.3246
▁ଶବ୍ଦ	-11.3246
▁అమెరికా	-11.3246
▁ఆగస్టు	-11.3246
▁తేడా	-11.3246
▁వరల్డ్	-11.3246
▁ಒಪ್ಪಂದ	-11.3246
▁ತಾತ್ಕಾಲಿಕ	-11.3246
▁ದರ್ಜೆ	-11.3246
▁ಬುಧವಾರ	-11.3246
▁അധികൃതർ	-11.3246
▁കുത്തനെയുള്ള	-11.3246
▁നിർദ്ദിഷ്	-11.3246
▁accident	-11.3246
▁kilomet	-11.3246
▁sustain	-11.3246
▁yahoo	-11.3246
▁کھلاڑی	-11.3246
▁मङ्गल	-11.3246
▁সুৰক্ষিত	-11.3246
▁ਆਜ਼ਾਦ	-11.3246
▁ਵਪਾਰ	-11.3246
▁ઇચ્છ	-11.3246
▁ದಾಖಲಾಗಿ	-11.3246
▁ಲಕ್ಷ	-11.3246
▁steep	-11.3246
▁कंजर	-11.3246
▁जुलै	-11.3246
▁ਪਛਾਣ	-11.3246
▁જટિલ	-11.3246
▁ଆବିଷ୍କାର	-11.3246
▁ବୃହତ	-11.3246
▁రక్త	-11.3246
▁എയർലൈൻ	-11.3246
▁വെബ്സൈറ്റ	-11.3246
▁खिलाड़	-11.3246
▁चिन्ता	-11.3246
▁प्रकृति	-11.3246
▁প্রমাণ	-11.3246
▁અવસ્થા	-11.3246
▁પરીક્ષા	-11.3246
▁முழுமையாக	-11.3246
▁കിലോമീറ്ററ	-11.3246
ଭିଏତ	-11.3246
▁manage	-11.3246
▁risk	-11.3246
▁serious	-11.3246
▁क्राउन	-11.3246
▁খুন্দ	-11.3246
▁பாறைகள	-11.3246
▁ടർക്കി	-11.3246
▁ନିୟୁତ	-11.3246
▁monday	-11.3246
▁स्पर्धा	-11.3246
▁ন্যায়	-11.3246
▁મિનિટ	-11.3246
▁পেয়েছিল	-11.3246
george	-11.3246
▁financ	-11.3246
▁आसपास	-11.3246
▁నిధుల	-11.3246
▁సహజ	-11.3246
▁private	-11.3246
▁কিতাপ	-11.3246
▁उद्देश्य	-11.3246
▁ভ্রমন	-11.3246
▁ਸੁੰਦਰ	-11.3246
▁తేలిక	-11.3246
▁অৰ্জন	-11.3246
▁عمارت	-11.3246
▁तकनीक	-11.3246
fic	-11.3246
▁metrop	-11.3246
▁सक्नुहुन्छ	-11.3246
▁કાયદો	-11.3246
▁બજાર	-11.3246
▁பார்வையாளர்கள	-11.3246
▁మరొక	-11.3246
لاطین	-11.3246
▁বৰ্তমান	-11.3246
▁ଆର୍ଥ	-11.3246
▁ବିଶ୍ୱାସ	-11.3246
▁ٹکرا	-11.3246
▁দৈনন্দ	-11.3246
ವಿಯತ್	-11.3246
▁परेशान	-11.3246
▁আগস্ট	-11.3246
▁उपग्रह	-11.3246
▁নিজস্ব	-11.3246
▁edge	-11.3246
▁ਹਾਦਸ	-11.3246
▁తెలిపింది	-11.3246
▁صلاحیت	-11.3246
▁पड़ोस	-11.3246
▁డిజ	-11.3246
▁మెదడు	-11.3246
▁આપ્યો	-11.3246
ோடு	-11.3246
▁अपार्टमेंट	-11.3246
▁प्रतिरोध	-11.3246
▁recent	-11.3246
▁अभियान	-11.3246
▁പഴയ	-11.3246
▁पर्दैन	-11.3246
▁बिज	-11.3246
▁ಹೊರತಾಗಿ	-11.3246
▁కనుగొన్నారు	-11.3246
▁جمع	-11.3246
▁গরম	-11.3246
▁ଆଧାର	-11.3246
▁పిలుస్తారు	-11.3246
▁हुनुहुन्छ	-11.3246
▁commerc	-11.3246
▁ಮೀರಿ	-11.3246
▁प्रिक्स	-11.3246
▁ख़ास	-11.3246
ਸੂਸ	-11.3246
▁طیار	-11.3246
▁ਜੁੜ	-11.3246
▁پارٹی	-11.3246
▁पेय	-11.3246
േന	-11.3246
▁ਵੀਡੀਓ	-11.3246
▁rare	-11.3246
લાઇન	-11.3246
▁ਗੇਮ	-11.3246
▁purpose	-11.3246
▁ಹಿ	-11.3246
▁शार्क	-11.3246
▁ioc	-11.3247
▁আটলান্টা	-11.3247
▁ख़तर	-11.3247
▁সীমানা	-11.3247
▁આવશે	-11.3247
▁ایشیا	-11.3247
▁গৈছে	-11.3247
▁throw	-11.3247
▁बिलियन	-11.3247
▁ఒక్క	-11.3247
▁സാധിക്കും	-11.3247
▁बीज	-11.3247
ಟನ್	-11.3247
▁অনলাইন	-11.3247
▁ਟਿਕਟ	-11.3247
▁నీరు	-11.3247
▁ਜਾਣਗੇ	-11.3247
▁typical	-11.3247
▁situation	-11.3247
▁ਅਣੂ	-11.3247
▁pole	-11.3247
▁लम्बाई	-11.3247
▁حصّ	-11.3247
▁ৰজা	-11.3247
▁ਕਰੇਗਾ	-11.3247
▁ରାଜା	-11.3247
▁સુન	-11.3247
াধীন	-11.3247
▁सन्मान	-11.3247
▁ക്രൂ	-11.3247
▁उड़ान	-11.3247
▁वकील	-11.3247
▁सडक	-11.3247
▁തുടക്കത്തിൽ	-11.3247
▁ਗਾਇਕ	-11.3247
▁தொடர்பான	-11.3247
▁larger	-11.3247
▁quickly	-11.3247
▁বিধি	-11.3248
کش	-11.3248
▁دوست	-11.3248
▁आगमन	-11.3248
▁tour	-11.3248
▁থাকবেন	-11.3248
▁आयकर	-11.3248
▁फायर	-11.3248
▁block	-11.3248
▁ખુબ	-11.3248
▁લાંબ	-11.3248
▁ਅਗਲ	-11.3248
ਸੰਵਿਧਾਨ	-11.3248
▁পৰিছিল	-11.3248
▁পাবেন	-11.3249
▁ডলাৰ	-11.3249
▁chair	-11.3249
▁পড়তে	-11.3249
▁uw	-11.3249
▁मिटर	-11.3249
▁പുന	-11.3249
▁lack	-11.3249
▁चन्द्रमा	-11.3249
▁ఉదాహరణకు	-11.3249
▁ਕਰਦਿਆ	-11.3249
▁દાયકા	-11.3249
▁নকৰা	-11.3249
▁ആളുകളെ	-11.3249
▁মুকল	-11.3249
▁अटलांटा	-11.3249
▁মাঝে	-11.3249
▁அழைத்து	-11.3249
▁स्वयंसेवक	-11.325
খিল	-11.325
tb	-11.325
▁ପରିଣ	-11.325
▁عبور	-11.325
▁skills	-11.325
▁വന്യജീവി	-11.325
▁ಐಸ್	-11.3251
▁ಮಾಡಬಹುದು	-11.3251
▁फूट	-11.3251
▁fight	-11.3251
▁currently	-11.3251
▁आदिवासी	-11.3251
▁hot	-11.3251
▁cheap	-11.3251
▁جواب	-11.3251
ಂಥ	-11.3251
▁సమాచారం	-11.3252
▁কেইবা	-11.3252
▁ঠাইখন	-11.3252
▁పరిమాణం	-11.3252
▁പ്രവേശന	-11.3252
▁सम्भावना	-11.3253
▁खुश	-11.3253
▁वस्तुहरू	-11.3253
▁ಜನರಲ್	-11.3253
▁মহাকাশ	-11.3253
▁rain	-11.3253
▁ਦਰਸਾਉਂਦ	-11.3253
▁અનુક	-11.3254
▁ਵੋਟ	-11.3254
▁ਪ੍ਰਮਾਣ	-11.3254
صارف	-11.3254
▁చట్టం	-11.3254
▁ਸਵਾਰ	-11.3254
▁न्यूज़	-11.3254
▁പരസ്	-11.3254
▁توجہ	-11.3254
▁اشار	-11.3255
▁ଫ୍ଲ	-11.3255
▁charge	-11.3255
▁न्यून	-11.3255
ത്തിനും	-11.3255
▁করছেন	-11.3255
▁సంతక	-11.3255
ଯାନ	-11.3255
▁స్పా	-11.3255
▁ਸੰਚਾਲ	-11.3255
▁ગયો	-11.3255
▁வேகம்	-11.3256
▁શાળા	-11.3256
▁झू	-11.3256
lus	-11.3256
ଙ୍କା	-11.3256
▁പകർപ്പ	-11.3256
▁ప్రదేశం	-11.3256
▁চৰকাৰী	-11.3257
▁বাকি	-11.3257
▁உங்களுக்கு	-11.3257
ਧਾਨੀ	-11.3257
▁கூடிய	-11.3258
వలసి	-11.3258
▁குறிப்பிடத்தக்க	-11.3258
▁जाए	-11.3258
▁দেহ	-11.3259
▁ಪ್ರಕ್ರಿಯೆ	-11.3259
▁جاسکتا	-11.3259
ंद	-11.3259
▁je	-11.326
भावना	-11.326
▁ਡਾਕਟਰ	-11.326
▁સુરક્ષા	-11.326
▁ઇન્ટર	-11.326
▁थोडा	-11.326
▁নব	-11.326
▁ஆகஸ்ட	-11.326
▁સ્વ	-11.3261
പ്രവർത്തിക്കുന്ന	-11.3261
▁ಏರ್	-11.3262
ावरण	-11.3262
▁স্কুলে	-11.3263
▁ਬੈਂਕ	-11.3263
▁ସାଗର	-11.3263
▁ଜାପାନ	-11.3263
▁field	-11.3263
▁ପ୍ରାପ୍ତ	-11.3263
▁নির্দেশ	-11.3263
▁నివేదించ	-11.3263
▁যাত্রী	-11.3263
▁గ్రీన్	-11.3263
▁ವಾಯು	-11.3264
ാറുണ്ട്	-11.3265
▁ڈبل	-11.3265
▁వార్త	-11.3265
▁तय	-11.3266
▁ಫ್ಲ	-11.3266
▁شادی	-11.3266
▁मिळाले	-11.3266
▁કહી	-11.3266
▁ముప్ప	-11.3267
▁दिन्छन्	-11.3267
▁shop	-11.3267
▁ಪರೀಕ್ಷೆ	-11.3267
▁पुगे	-11.3268
▁રાખો	-11.3268
▁सांगाय	-11.3268
▁ಸೈನಿಕರ	-11.3269
▁ٹوٹ	-11.3269
▁आल्या	-11.3269
▁stated	-11.3271
▁કાઢવા	-11.3271
▁ముందుగా	-11.3272
▁விளைவ	-11.3273
▁महल	-11.3273
▁मोज	-11.3274
▁তাল	-11.3275
വരെയുള്ള	-11.3276
▁প্রবাহ	-11.3276
▁এগুলো	-11.3278
▁কাছা	-11.3279
શાળ	-11.3279
রিক	-11.3279
િશ	-11.328
▁grow	-11.328
▁হঠা	-11.328
▁లీక	-11.3281
▁વિદ્યાર્થીઓ	-11.3281
கா	-11.3281
▁fill	-11.3281
▁stars	-11.3282
ਣਗੇ	-11.3282
▁அங்க	-11.3282
mbit	-11.3283
▁કાળ	-11.3283
▁جاپانی	-11.3284
▁விழுந்த	-11.3284
▁houses	-11.3284
▁असून	-11.3284
▁কেম্প	-11.3285
▁निर्देशन	-11.3285
▁झ्याल	-11.3285
▁उत्तराधिकारी	-11.3287
▁जित	-11.3287
▁लेखन	-11.3287
▁બસ	-11.3287
▁طو	-11.3287
▁رن	-11.3289
▁प्रबंध	-11.329
▁আর্থ	-11.3292
▁প্ৰকৃততে	-11.3292
▁फेलि	-11.3292
▁स्वातंत्र्य	-11.3292
▁বিকাশ	-11.3292
▁પ્રસિદ્ધ	-11.3292
▁କଲା	-11.3292
▁രാഷ്ട്ര	-11.3293
▁difference	-11.3293
▁பூகம்ப	-11.3294
▁সাত	-11.3294
▁গুহা	-11.3294
▁لگایا	-11.3294
ഞ്ഞ	-11.3295
▁حقیقت	-11.3295
▁సాధ్య	-11.3296
▁seek	-11.3296
▁ନିର୍ମା	-11.3298
▁ప్రత్యేకమైన	-11.3298
▁বনা	-11.3299
▁नज़र	-11.3299
▁പ്രകടന	-11.33
▁ରଖିବା	-11.3302
▁अन्न	-11.3303
▁நிகழ்ச்சிய	-11.3304
▁பெற்று	-11.3304
▁ಕಾರಿನ	-11.3304
▁آل	-11.3305
ावा	-11.3307
▁ಕಾರ್ಯಕ್ರಮ	-11.3307
▁بیرون	-11.3308
▁બચાવ	-11.3308
▁پار	-11.3308
▁સ્થાપ	-11.3309
▁கல்வி	-11.3309
▁गिनीज	-11.3309
went	-11.3311
▁ਪੱਛਮ	-11.3312
▁હેતુ	-11.3312
▁ஐரோப்பாவ	-11.3312
▁बन्न	-11.3312
▁पैसा	-11.3312
,""	-11.3312
ாவிய	-11.3313
▁حقیق	-11.3315
▁सौ	-11.3315
▁પરિવર્તન	-11.3315
▁পরীক্ষা	-11.3317
▁ਹਾ	-11.3318
▁வெளியிட்ட	-11.3318
▁claim	-11.3319
▁tak	-11.332
ത്തേക്ക	-11.332
▁মন্দিৰটো	-11.3321
▁तोक	-11.3321
▁જ્ઞાન	-11.3323
▁પસંદ	-11.3323
▁comfort	-11.3323
▁ਸਹਿਮਤ	-11.3323
▁కొండ	-11.3323
▁फोटॉन	-11.3323
▁members	-11.3325
▁ఎవర	-11.3325
▁શીખવા	-11.3328
ेर	-11.3331
▁بینڈ	-11.3332
▁روک	-11.3334
▁സഹ	-11.3335
రే	-11.3336
▁അവൾ	-11.3337
▁ತಲುಪ	-11.3338
▁ପାଇବା	-11.3338
▁দৰ্শন	-11.3338
▁নেট	-11.3339
▁మార్గాల	-11.334
▁ਚਾਹੀਦੀ	-11.3341
▁سرما	-11.3344
▁অধ্য	-11.3344
▁புயல்	-11.3345
▁पाने	-11.3346
ിലോ	-11.3346
▁మె	-11.3347
▁ਲਿਆਉਣ	-11.3348
জি	-11.335
▁sens	-11.3351
▁rise	-11.3352
ியுள்ளது	-11.3352
▁జాతి	-11.3354
વ	-11.3354
▁நாட்ட	-11.3354
▁hill	-11.3355
▁ಗೆದ್ದ	-11.3358
▁ஒ	-11.3358
▁কম্পিউটার	-11.3359
▁ইন্টারনেট	-11.336
▁അട	-11.336
▁எதிரான	-11.336
▁اق	-11.3365
▁mal	-11.3365
▁गर	-11.3366
▁ಜೀವಿಗಳ	-11.3367
▁କାର୍	-11.3373
▁હવા	-11.3373
▁মূৰ	-11.3373
▁গতিবেগ	-11.3373
▁துருக்கி	-11.3374
ಟ	-11.3376
িতে	-11.3376
ત્મ	-11.3377
▁টান	-11.3378
▁सुरुवाती	-11.338
▁চাকা	-11.3384
my	-11.3384
ੈਕਟ	-11.3385
▁ಲೈಟ	-11.3387
▁cars	-11.3388
▁അളവ	-11.3389
▁ಚಿ	-11.3391
▁स्थिती	-11.3391
വർ	-11.3392
माइन	-11.3392
ത്തി	-11.3393
▁તેણી	-11.3396
▁थाई	-11.3397
▁ಗುರುತ	-11.3397
▁بیڑ	-11.3399
گا	-11.3399
nu	-11.3401
ಹಿತ	-11.3401
▁শহরটি	-11.3402
زن	-11.3403
▁ಪೋರ್ಟ	-11.3404
▁मीटर	-11.3404
জয়ী	-11.3408
ੈਲ	-11.3408
టీ	-11.3409
నం	-11.3409
▁ಕಾರ್ಡ	-11.3409
confirmed	-11.3409
▁ಪ್ರಯಾಣಿಸ	-11.3409
▁ભાષાઓ	-11.3411
ர்ட்	-11.3412
पन	-11.3412
▁അടിസ്ഥാന	-11.3413
▁ध	-11.3413
ਿੱਤਰ	-11.3413
▁side	-11.3415
్యాండ్	-11.3416
୍ରିୟ	-11.3416
▁ஏற்படுத்த	-11.3416
स्टर	-11.3417
ളായി	-11.3418
ঙা	-11.3418
▁sing	-11.3418
▁চাল	-11.3419
▁খেলি	-11.342
ாலும	-11.342
▁ಬಗೆಗ	-11.3421
ള്ള	-11.3422
নী	-11.3422
▁અનુસ	-11.3428
నో	-11.3428
لم	-11.3429
ল্ড	-11.3429
▁আমেৰিকান	-11.343
▁రీ	-11.343
▁ஆற்ற	-11.3432
▁দেখানো	-11.3433
▁निवासी	-11.3434
▁लो	-11.3437
వుతుంది	-11.3437
▁స్థలం	-11.3438
▁లైన్	-11.3439
▁ಮೆ	-11.344
ியர்	-11.3441
ોનો	-11.3441
▁ஆற்றல	-11.3444
्यांच्या	-11.3444
▁ತಪ್ಪಿಸ	-11.3444
ଏ	-11.3444
പ്പെടുന്ന	-11.3445
▁নিয়োগ	-11.3447
▁ನೆಲದ	-11.3452
यर	-11.3453
▁ಬೋ	-11.3453
▁ఇచ్చే	-11.3455
▁چیک	-11.3457
▁لازم	-11.3461
▁साझ	-11.3462
▁दुसर	-11.3464
ਜ਼ਮ	-11.3464
▁cold	-11.3465
رانی	-11.3467
േണ്ട	-11.3467
▁کرو	-11.3467
રેશન	-11.3468
▁date	-11.3469
▁அவற்றை	-11.3471
▁ରୂପ	-11.3478
கி	-11.3478
▁ಸಮಾಧಿಯ	-11.348
টোক	-11.3481
ೌಂಡ್	-11.3482
▁യു	-11.3483
▁investigat	-11.3484
ৰক্ষা	-11.3485
క్స్	-11.3487
▁വിളിക്ക	-11.3489
নাৰ	-11.3491
▁ગણ	-11.3494
▁involve	-11.3495
▁زند	-11.3496
ুক	-11.3496
▁పని	-11.3498
ਰਫ਼	-11.35
▁চলেছে	-11.35
▁தடை	-11.3502
▁வாகன	-11.3502
▁ریڈی	-11.3502
▁رخ	-11.3503
▁कडा	-11.3506
▁சென்ற	-11.3507
▁ਦੋਵ	-11.3508
▁सिक	-11.3508
হল	-11.3509
▁ಸರಳ	-11.3511
▁చట్ట	-11.3513
ंब	-11.3513
নিয়ান	-11.3514
▁દિવસો	-11.3516
▁১৬	-11.3516
▁ఫ్ర	-11.3518
▁ಅರ್ಥಮಾಡಿಕೊಳ್ಳ	-11.3518
▁cal	-11.3519
▁घेतले	-11.3521
▁શોધવા	-11.3522
▁குறி	-11.3523
পনি	-11.3524
▁பண	-11.3525
▁ధర	-11.3526
वर्ष	-11.3527
▁পায়ে	-11.3529
▁സാഹചര്യ	-11.3531
apor	-11.3531
તે	-11.3534
▁भीतर	-11.3534
ನರು	-11.3535
କ୍ଷ	-11.3535
▁لائ	-11.3536
▁ಏಜೆಂಟರ	-11.3537
ಕೆ	-11.3538
میں	-11.3538
▁అడుగు	-11.3541
৫০	-11.3541
ಸಲು	-11.3543
▁নির্গ	-11.3544
▁ٹرین	-11.3546
ീയ	-11.3549
ারে	-11.3551
▁வருமான	-11.3553
▁నాటిక	-11.3554
▁usa	-11.3554
▁પ્રવાસન	-11.3559
ലിന്	-11.356
ગ્ર	-11.3571
્ય	-11.3572
▁ਪ੍ਰਬੰਧ	-11.3573
ার্ক	-11.3575
▁स्वतःच	-11.3575
णार	-11.3575
▁ଖ	-11.3576
▁कोशिका	-11.3577
ae	-11.3578
▁ফালে	-11.3579
સર	-11.3581
ॉक	-11.3583
েড	-11.3583
ುತ್ತಿದ್ದ	-11.3584
▁ಶಕ್ತಿ	-11.3585
▁தீ	-11.3585
ಿಕೊಂಡ	-11.3587
▁உயர	-11.3589
▁பொருள	-11.3593
لائی	-11.3593
నికి	-11.3594
▁ତା	-11.3596
▁सान	-11.3596
▁உங்களை	-11.3596
▁સ્વીકાર	-11.3597
▁ఆమోదించ	-11.3598
▁छुट्ट	-11.3599
▁बॅ	-11.3599
▁ਪਾਰਕ	-11.3602
सू	-11.3608
▁ph	-11.361
ವಾಗಿದ್ದ	-11.361
▁కో	-11.3611
തരം	-11.3614
ॉ	-11.3617
▁ആശ്രയിച്ച	-11.3621
નાર	-11.3621
z	-11.3622
ുകളിലേക്ക	-11.3623
ನ್ನ	-11.3624
এম	-11.3625
▁குழு	-11.3625
▁आत	-11.3627
ڈی	-11.3632
কাৰী	-11.3632
▁রাতে	-11.3633
ोर्ड	-11.3634
▁প্ৰাপ্ত	-11.3635
ंख	-11.3635
▁ਲੱਗਦ	-11.3635
ಕಾರಿ	-11.3637
▁सित	-11.3637
▁ഇറ്റലിയ	-11.3639
▁কিন	-11.3641
▁వా	-11.3641
కా	-11.3643
▁read	-11.3645
▁તેટલ	-11.3645
اتی	-11.3646
▁বলেন	-11.3647
▁કરશ	-11.3648
ਾਹੀ	-11.3648
▁ದೇಶಗಳಲ್ಲಿ	-11.3651
▁പ്രവർത്തന	-11.3651
it	-11.3651
▁ਕੋਸਟ	-11.3651
నట్ల	-11.3654
▁দুৰ্ঘটনা	-11.3654
ದೊಂದ	-11.3655
▁మే	-11.366
िट	-11.3663
▁शक	-11.3663
▁ध्रुव	-11.3664
▁ಪ್ರಾರಂಭಿಸ	-11.3665
▁అవుతుంద	-11.3665
दर्	-11.3667
▁ಡಿಸ್	-11.3667
▁ವಾಲ್	-11.3668
▁விட்டு	-11.3669
▁હે	-11.367
▁ਆਇ	-11.3671
▁வரலாற்ற	-11.3672
നിര	-11.3672
एल	-11.3672
▁യൂണിയന	-11.3673
ল্যান্ড	-11.3673
କାରୀ	-11.3675
▁جہ	-11.3676
స్తారు	-11.3676
ಲೋ	-11.3677
▁அனைவர	-11.3679
▁ಸಂಸ್ಥೆ	-11.368
কালত	-11.3682
▁അവകാശ	-11.3684
▁வாங்க	-11.3684
▁રન	-11.3687
লত	-11.3693
▁गटा	-11.3693
▁শিকার	-11.3695
▁പ്രശസ്ത	-11.3697
▁ਸੈ	-11.3699
▁ಅನ್ನ	-11.3699
র্ড	-11.3702
ജന	-11.3709
ਂਜਰ	-11.3712
▁شہ	-11.3714
क्षा	-11.3714
▁ହେଲ	-11.3717
ாறு	-11.3719
ॉन	-11.372
▁అవసర	-11.3721
തിനെ	-11.3721
▁ਪੋ	-11.3722
ধিক	-11.3724
▁ব্রি	-11.3726
ଭ୍ୟ	-11.3728
ਟਿਵ	-11.3728
▁ಕಾಲು	-11.3729
▁ಸಾಮರ್ಥ್ಯ	-11.3735
▁दुसरी	-11.3736
▁स्थानहरू	-11.3736
▁బో	-11.3736
▁ಗುಂಪುಗಳ	-11.3737
ധിക	-11.3738
▁നൂറ്റാണ്ടി	-11.374
▁பூமி	-11.3741
▁cru	-11.3748
ئن	-11.3749
▁ಸ್ವ	-11.3752
രായ	-11.3758
▁टूट	-11.3759
▁அமைதிய	-11.3759
▁అప్పటి	-11.376
ીના	-11.376
▁দেশসমূহ	-11.3763
▁ఆరోగ్య	-11.3765
సన్	-11.3767
ویر	-11.3767
ല്ലെങ്കിൽ	-11.3774
വിൽ	-11.3776
▁flo	-11.3776
ಗಾ	-11.3778
मन	-11.3781
▁ਬੋਲੀ	-11.3782
▁برازیل	-11.3783
கில்	-11.3785
▁అసల	-11.3787
▁ಬಿದ್ದ	-11.3791
నిష్	-11.3792
ফালে	-11.3793
ಲಿನ್	-11.3794
▁होस्टल	-11.3797
▁ਚੀ	-11.3799
▁ਵਾਕ	-11.3799
ಎಸ್	-11.3802
▁সংখ্যাৰ	-11.3802
ങ്ങളിലേക്ക	-11.3805
▁ഒന്നാ	-11.3805
▁వ్య	-11.3807
▁ডান	-11.3808
ारे	-11.3808
ரின்	-11.3809
▁புள்ளிகள	-11.3809
▁কফি	-11.381
▁যাত্ৰী	-11.3811
▁શહેરો	-11.3812
▁પડત	-11.3812
▁সাহিত্য	-11.3813
▁ਵੈਨ	-11.3814
▁তর	-11.3814
▁দৈ	-11.3815
ಚ್	-11.3816
▁মাৰ	-11.3816
ঘ	-11.3817
ట్స్	-11.3818
শ্ৰেণীৰ	-11.3819
ಿಸುತ್ತಾರೆ	-11.3823
ائے	-11.3823
ેત	-11.3824
▁bed	-11.3824
▁মাল	-11.3825
▁সেইসমূহ	-11.383
▁فرین	-11.383
ارت	-11.3831
▁நிகழ்	-11.3833
سن	-11.3834
▁बेट	-11.3834
▁డె	-11.3839
ಯುಕ್ತ	-11.384
▁ଭ	-11.3842
▁লগা	-11.3842
▁कहन	-11.3845
▁வா	-11.3845
ટો	-11.3846
▁ଖୁ	-11.3848
▁वापरल	-11.385
ul	-11.3852
▁देण्याच	-11.3853
ীত	-11.3855
लँड	-11.3859
କରଣ	-11.3862
▁হে	-11.3864
त्या	-11.3867
▁तात	-11.3868
▁ಲ	-11.3872
ೆಲ್	-11.3875
▁पाउन	-11.3877
▁अवशेष	-11.3879
▁हजारो	-11.3879
men	-11.388
াল	-11.388
িশ	-11.388
▁കണ്ട	-11.3881
▁મૂક	-11.3881
▁செல்வ	-11.3883
ക്രമ	-11.3884
▁ಅಪಘಾತದ	-11.3886
▁घेतल्या	-11.3887
▁प्रवेशद्वार	-11.3888
▁ಚಟುವಟಿಕೆ	-11.3893
▁ਰਵਾ	-11.3893
ହେ	-11.3893
▁ਵੀਜ਼	-11.3896
▁आयोज	-11.3898
వేళ	-11.3898
କ୍ତ	-11.3898
ভাগত	-11.3899
▁స్ట	-11.39
ఇ	-11.3901
▁पाण्याच	-11.3903
age	-11.3904
▁સ્ટે	-11.3908
▁ಕಾ	-11.3908
▁ਡੀ	-11.3908
ਨਿਸ਼	-11.3909
▁ഇവിടെ	-11.3912
ण्ड	-11.3915
ക്കുള്ള	-11.3915
▁நோக்க	-11.3915
ുന്നതിനും	-11.3918
▁ਵਰ	-11.3918
ਸ਼ਿ	-11.3919
east	-11.3919
পূর্ব	-11.392
ক্ৰিয়া	-11.3922
lad	-11.3924
ପୂର୍ବ	-11.3928
దారుల	-11.3928
பொருள்	-11.3929
▁ho	-11.393
स्वरूप	-11.3931
▁મી	-11.3932
▁ডিগ্	-11.3933
▁ನಗರದಲ್ಲಿ	-11.3934
▁तैर	-11.3934
த்திய	-11.3934
qui	-11.3935
ire	-11.3937
▁शैली	-11.3937
▁താ	-11.3938
▁ಸೋ	-11.3939
अल	-11.394
ಸುಮಾರು	-11.394
km	-11.3942
থেকে	-11.3944
get	-11.3944
▁કરાવ	-11.3945
▁બોલ	-11.3948
▁మరణ	-11.395
मार्ग	-11.395
▁ইতালি	-11.3953
స	-11.3955
▁சந்தேக	-11.3955
▁भाषाहरू	-11.3956
ുവെന്ന	-11.3956
మ్మ	-11.3957
▁മറ്റു	-11.3957
▁ఓట	-11.3962
સ્તરે	-11.3965
تش	-11.3966
▁మానవ	-11.3969
▁عم	-11.3973
▁রক	-11.3976
▁सकिन	-11.3976
▁انسانی	-11.3977
▁ಲಾ	-11.3978
ছি	-11.3979
பெற்ற	-11.3979
▁ਛੋਟਾ	-11.3979
▁കാലാവസ്ഥ	-11.398
లి	-11.398
▁చర్యల	-11.398
ிறார்கள்	-11.3981
▁ജോ	-11.3982
▁കമ്പനി	-11.3987
ವಿದೆ	-11.3987
▁ਸੋਚ	-11.3991
▁ডাক	-11.3993
நிலை	-11.3996
▁મો	-11.3997
▁ഉയര	-11.3999
علیٰ	-11.4
▁nor	-11.4002
طور	-11.4002
▁வெளிய	-11.4004
▁age	-11.4006
▁research	-11.4007
▁मिस	-11.4008
▁ഭാഗ	-11.4015
isis	-11.4019
డింగ్	-11.4019
▁बीमार	-11.4021
▁ಮುಚ್ಚ	-11.4023
▁کیپ	-11.4024
▁ਪੌ	-11.4027
జా	-11.4027
▁aud	-11.4029
▁ਜਿਹ	-11.4032
▁ज्यांन	-11.4032
▁ಸಂಖ್ಯೆಯ	-11.4035
▁தலைவர்	-11.4036
▁മു	-11.4038
ुहोस्	-11.4044
యాస్	-11.4047
ായത്	-11.4047
த்துடன	-11.4048
take	-11.4048
▁ఐరోపా	-11.4049
▁ব্যাক	-11.405
▁વાવાઝોડ	-11.4051
▁હુમલ	-11.4053
ത്തിലൂടെ	-11.4054
▁રહેલ	-11.4054
▁red	-11.4056
▁ਇਤਿਹਾਸਕ	-11.4056
▁ways	-11.4058
▁इन्	-11.406
ಫ್	-11.4061
▁বাহিৰে	-11.4062
▁कौशल	-11.4065
▁అలె	-11.4066
ُچھ	-11.4067
ৃষ্ট	-11.407
▁وائ	-11.407
ದಾದ	-11.407
▁वर्षां	-11.4071
▁ସି	-11.4073
▁...	-11.4074
ବେ	-11.4074
▁ಪಡೆಯ	-11.4074
▁વૈ	-11.4076
▁lou	-11.4077
ினை	-11.4077
▁দুর্গ	-11.4078
▁राखिएक	-11.4081
▁हजारौ	-11.4081
▁موس	-11.4082
దే	-11.4083
▁ಕೆಳಗ	-11.4084
▁ମୋ	-11.4085
▁వెళ్ల	-11.4086
রাং	-11.4088
▁ਸਕੀ	-11.4091
কৰণ	-11.4092
▁உச்ச	-11.4094
▁दरा	-11.4096
▁کوئ	-11.4097
اہد	-11.4099
▁ఫ	-11.4099
▁গর্ত	-11.41
८	-11.41
ੀਮ	-11.4104
ിലുള്ള	-11.4105
্	-11.4106
▁प्रजाती	-11.4107
स्को	-11.4107
▁অংশত	-11.4109
▁propert	-11.4112
▁સમૂહ	-11.4112
▁चुक	-11.4112
▁സസ്യ	-11.4113
▁ಸೌ	-11.4114
▁डुङ्गा	-11.4115
न्दा	-11.4115
ଥାପି	-11.4116
▁અમેરિકન	-11.4117
▁കുഴി	-11.4117
▁بیک	-11.4118
▁reli	-11.4119
▁अल	-11.4122
▁پرو	-11.4123
▁full	-11.4129
ৰুৱা	-11.413
شاہد	-11.413
પ્રદ	-11.413
▁ba	-11.4131
▁கப்பல	-11.4132
▁بح	-11.4132
ళ్ళు	-11.4133
▁இத்தாலிய	-11.4133
রে	-11.4134
لاح	-11.4134
ುದಾಗಿ	-11.4134
▁پیمان	-11.4135
मि	-11.4141
▁ওয়ে	-11.4143
▁নথি	-11.4144
▁ગમ	-11.4144
▁கருத	-11.4144
റ്റിക്	-11.4145
پوری	-11.4146
▁நிலையில	-11.4147
યુ	-11.4148
▁ਮਹਾ	-11.4148
▁മൂ	-11.415
▁എൻ	-11.4152
▁ਪੋਲ	-11.4155
▁मर	-11.4158
ன்ட்	-11.416
امن	-11.416
ినప్పటికీ	-11.4161
ಬಹುದಾಗಿದೆ	-11.4162
▁மலைகள	-11.4165
▁ಕಿರು	-11.4166
▁மாதத்தி	-11.4167
▁સંસ્કૃત	-11.4167
▁హె	-11.4167
▁भवन	-11.4167
ക്സ്	-11.4168
னிங்	-11.4168
▁വെ	-11.4169
▁ಟೆಲಿ	-11.4169
▁સુવિધા	-11.4171
▁આપ	-11.4172
▁वनस्पती	-11.4174
▁সংবিধান	-11.4176
ിടയിൽ	-11.4176
▁অপৰাধ	-11.4178
▁బట్ట	-11.4178
▁ઉદાહરણ	-11.418
▁పనిచేయడ	-11.4181
▁ବିଶ୍ୱ	-11.4183
▁বিস্ত	-11.4184
ப்படுத்த	-11.4184
▁বের	-11.4185
▁বিশ্বজু	-11.4187
▁गोष्ट	-11.4188
ायला	-11.4188
वलोकन	-11.419
▁ಜರ್ಮನಿ	-11.419
▁ફર	-11.4193
▁யு	-11.4193
▁सैन	-11.4194
▁ವ್ಯತ್ಯಾಸ	-11.4194
▁క్యాంప	-11.4194
ତେ	-11.4196
हित	-11.4199
ംബർ	-11.4202
▁ಆಸ್ಟ್ರೇಲಿಯಾದ	-11.4203
ిస్తున్నారు	-11.4204
▁पनडुब्ब	-11.4205
انین	-11.4206
▁translat	-11.4206
▁ଅଫ	-11.4207
▁ਹੌ	-11.4207
▁film	-11.4209
▁الج	-11.421
ുമായ	-11.421
▁relative	-11.4211
▁কর্ম	-11.4212
▁डाय	-11.4212
ਪਰਕ	-11.4214
▁road	-11.4214
▁क्व	-11.4214
▁ఆర	-11.4215
কাৰ	-11.4215
▁चांगल	-11.4217
▁गोर	-11.4218
▁कम्त	-11.4218
मय	-11.4219
▁گھ	-11.4219
▁ਪ੍ਰਤਿ	-11.422
জাত	-11.422
▁നിർമ്മിച്ച	-11.4222
ਿਕਸ	-11.4226
▁ਮੁਸ਼ਕ	-11.4227
▁టై	-11.4228
▁সীমাবদ্ধ	-11.4229
▁સુરક્ષ	-11.423
▁என்	-11.423
ਖ	-11.423
▁ఇంటి	-11.4232
▁ಆರ್ಥಿಕ	-11.4233
கைய	-11.4234
▁مرک	-11.4234
▁miss	-11.4235
▁જાતિ	-11.4235
्दछ	-11.4235
▁america	-11.4237
▁separate	-11.4237
▁आँधीबेहरी	-11.4237
▁அனுப்ப	-11.4238
▁જૂથ	-11.4238
▁ആശങ്ക	-11.4238
વજન	-11.4238
▁ఉండట	-11.4238
▁प्रतिनिधि	-11.4238
▁ਜੰਗ	-11.4238
▁ਰੋਕਣ	-11.4238
ত্বিক	-11.4239
▁પેટ	-11.424
▁metro	-11.424
▁ધર	-11.4241
▁విరుద్ధ	-11.4241
▁आयो	-11.4241
▁এইবোৰ	-11.4242
▁अधि	-11.4242
▁सफल	-11.4242
క్కడ	-11.4242
▁வாழ்க்கை	-11.4243
ંસ્કૃતિ	-11.4244
▁തുടക്ക	-11.4244
▁ইউ	-11.4244
▁நடவடிக்கை	-11.4244
▁સ્ક	-11.4244
▁வர்த்தக	-11.4244
শোধ	-11.4244
ڑے	-11.4245
▁ప్రదర్శించ	-11.4245
ಾರ್ಮಿಕ	-11.4245
یشت	-11.4245
▁కాల్	-11.4245
▁مہم	-11.4245
▁ਏਅਰ	-11.4245
▁वाक्य	-11.4245
▁ਠਹਿਰ	-11.4245
ார்கள்	-11.4245
▁மணி	-11.4245
▁বাস্তব	-11.4245
xim	-11.4246
▁ફ્રાન્સ	-11.4246
পইণ্ট	-11.4246
▁ഇറ്റാല	-11.4246
▁ഞങ്ങള	-11.4246
ങ്ങിക്കിടക്കുന്ന	-11.4246
▁destroy	-11.4246
▁tornado	-11.4246
▁ਯੂਰੋਪ	-11.4246
▁ફૂટ	-11.4246
▁କାହାଣୀ	-11.4246
▁ମହାକାଶ	-11.4246
▁నవంబర్	-11.4246
▁శీతాకాల	-11.4246
▁ನಿರ್ಮಾಣ	-11.4246
▁ಪ್ರಾಮುಖ್ಯತೆ	-11.4246
यक्तिक	-11.4246
ভিয়েত	-11.4246
েপ্টেম্ব	-11.4246
▁alpha	-11.4246
▁buffalo	-11.4246
▁economic	-11.4246
▁efforts	-11.4246
▁entrance	-11.4246
▁improve	-11.4246
▁satellite	-11.4246
▁spirit	-11.4246
▁taiwan	-11.4246
▁wednesday	-11.4246
▁منسوخ	-11.4246
▁منصوب	-11.4246
▁پوزیشن	-11.4246
▁आगन्तुकहरू	-11.4246
▁ज़िम्मेदार	-11.4246
▁टेलिव्हिजन	-11.4246
▁नाश्त	-11.4246
▁पशु	-11.4246
▁प्रोत्साह	-11.4246
▁ब्ल्याक	-11.4246
▁मोरीओरी	-11.4246
▁सोमबार	-11.4246
▁हथियार	-11.4246
▁আঠারো	-11.4246
▁খেলুৱৈ	-11.4246
▁ছাবমেৰিন	-11.4246
▁প্রতিযোগী	-11.4246
▁বার্ষিক	-11.4246
▁বাৰ্ষিক	-11.4246
▁রয়্যাল	-11.4246
▁ਕਾਰੋਬਾਰ	-11.4246
▁ਦਿਲਚਸਪ	-11.4246
▁ਦੁਰਘਟਨਾ	-11.4246
▁ਪਰਮਿਟ	-11.4246
▁ਪ੍ਰੋਗਰਾਮ	-11.4246
▁ਮਨੋਰੰਜ	-11.4246
▁અફઘાન	-11.4246
▁ધોરણ	-11.4246
▁પ્રશંસ	-11.4246
▁પ્રસ્તુત	-11.4246
▁પ્રાથમિક	-11.4246
▁વારંવાર	-11.4246
▁સરખામણી	-11.4246
▁સલાહ	-11.4246
▁હંમેશા	-11.4246
▁ପରମାଣୁ	-11.4246
▁ସ୍ଥିର	-11.4246
▁ୱେବସାଇଟ	-11.4246
▁வாரிசு	-11.4246
▁ఉత్తమ	-11.4246
▁న్యాయ	-11.4246
▁బృందం	-11.4246
▁బ్రేక్	-11.4246
▁సంభావ్య	-11.4246
▁ಅಂತಿಮ	-11.4246
▁ಅಕ್ಟೋಬರ್	-11.4246
▁ಕಚ್ಚಾ	-11.4246
▁ಕಾಪಾಡ	-11.4246
▁ಕಾರ್ಯನಿರ್ವಹಿಸ	-11.4246
▁ಪರಸ್ಪರ	-11.4246
▁ಬೂಟುಗಳ	-11.4246
▁ವರದಿಯಾಗಿಲ್ಲ	-11.4246
▁ഉപകരണ	-11.4246
▁ചാൾസ്	-11.4246
▁താഴെ	-11.4246
▁സെപ്	-11.4246
▁britain	-11.4246
▁vehicle	-11.4246
▁कॉफी	-11.4246
▁निरन्तर	-11.4246
▁मिडिया	-11.4246
▁অনুশীলন	-11.4246
▁অল্প	-11.4246
▁আফগান	-11.4246
▁মহানগৰ	-11.4246
▁ਕਲੱਬ	-11.4246
▁છૂટ	-11.4246
▁କହିଲେ	-11.4246
▁மடங்கு	-11.4246
▁నిర్వహ	-11.4246
▁ಗರಿಷ್ಠ	-11.4246
▁ಬ್ಯಾರೆಲ್	-11.4246
▁അവശിഷ്ടങ്ങൾ	-11.4246
▁കമ്മീഷണ	-11.4246
▁rugby	-11.4246
▁virus	-11.4246
▁आकलन	-11.4246
▁ब्लैक	-11.4246
▁বৰ্ণমালা	-11.4246
▁মধ্যযুগ	-11.4246
▁ଆୟୋଜ	-11.4246
▁కనిపిస్తుంది	-11.4246
▁వంగి	-11.4246
▁ഒരാൾ	-11.4246
▁مقرر	-11.4246
▁چاہیے	-11.4246
▁চারপাশে	-11.4246
▁വൈറസ	-11.4246
▁revolution	-11.4246
▁ناروے	-11.4246
▁पर्वत	-11.4246
▁ফ্ৰেন্স	-11.4246
▁ভারসাম্য	-11.4246
▁ਮਜਬੂ	-11.4246
▁କ୍ୟାମ୍ପ	-11.4246
▁कालावधी	-11.4246
▁উন্ম	-11.4246
▁ਸਰੋਤ	-11.4246
▁બલ્બ	-11.4246
▁રાહ	-11.4246
▁વગર	-11.4246
▁பதின	-11.4246
▁ಸುನಾಮಿ	-11.4246
▁അതിർത്തി	-11.4246
غرافی	-11.4246
▁material	-11.4246
▁लावला	-11.4246
▁પ્રેરણા	-11.4246
▁காரணம்	-11.4246
▁ಸದಾ	-11.4246
▁ಸೋಂಕ	-11.4246
தாழ	-11.4246
▁सङ्ख्या	-11.4246
▁অনুভব	-11.4246
▁ਰੇਡੀਓ	-11.4246
▁ಸಾಧ್ಯವಾದಷ್ಟ	-11.4246
▁जाएंगे	-11.4246
▁ਕਮਜ਼ੋਰ	-11.4246
▁స్ట్రీ	-11.4246
▁गर्नुभयो	-11.4246
▁न्यु	-11.4246
▁پڑوسی	-11.4246
▁রাষ্ট্রপতি	-11.4246
▁ৰাগব	-11.4246
▁patient	-11.4246
▁ਖਰਚ	-11.4246
▁ପ୍ରବାହ	-11.4246
▁ସଂଯୁକ୍ତ	-11.4246
▁स्टीव	-11.4246
▁ಪ್ರಭಾವ	-11.4246
▁পেশা	-11.4246
▁રેડિયો	-11.4246
▁వేగవంత	-11.4246
▁অস্পষ্ট	-11.4246
▁અર્થતંત્ર	-11.4246
▁మిగిలిన	-11.4246
▁ਨਿਰਧਾਰ	-11.4246
▁ଭାରତ	-11.4246
▁छाप	-11.4246
▁बनाउँछ	-11.4246
▁চকু	-11.4246
▁മൃഗങ്ങൾക്ക	-11.4246
▁মালভূমি	-11.4246
▁କରାଯାଉଛି	-11.4246
▁rov	-11.4246
▁পেলাইছিল	-11.4246
▁গ্যাস	-11.4246
▁ट्रिगर	-11.4246
రాయం	-11.4246
▁गोल्फ	-11.4246
▁కలిపి	-11.4246
▁depart	-11.4246
▁પામ્યા	-11.4246
▁वितरण	-11.4246
▁خرچ	-11.4246
▁zone	-11.4246
▁مہارت	-11.4246
▁পাঁচ	-11.4246
▁முன்பதிவு	-11.4246
▁native	-11.4246
▁balance	-11.4246
▁সময়ছোৱা	-11.4246
▁ఐదు	-11.4246
▁رضا	-11.4246
▁ફેડર	-11.4246
▁नकारात्मक	-11.4246
▁লিঙ্গ	-11.4246
▁वैध	-11.4246
▁ଦେଇଥିଲା	-11.4246
ंग्रेस	-11.4246
▁section	-11.4246
▁ಹಳೆಯ	-11.4246
▁agriculture	-11.4246
▁negative	-11.4246
▁trouble	-11.4246
▁পৰিবেশ	-11.4246
▁ਸ਼ਰਾਬ	-11.4246
▁கிழமை	-11.4246
▁ల్యాండ్	-11.4246
▁அடிப்படையாக	-11.4246
▁پیچید	-11.4246
▁मुकदम	-11.4246
▁آنکھ	-11.4246
▁வழங்குகிறது	-11.4246
▁पछिल्लो	-11.4246
▁રંગ	-11.4246
▁படிக்க	-11.4246
▁অলপ	-11.4246
▁लडाई	-11.4246
▁చంద్రుని	-11.4246
▁chile	-11.4246
▁खण्ड	-11.4246
▁दर्द	-11.4246
▁usgs	-11.4246
▁আগষ্ট	-11.4246
▁नॉर्वे	-11.4246
▁ಯೂರೋಪ	-11.4246
▁পেয়েছিলেন	-11.4246
▁ऑफिस	-11.4246
▁স্পেনীয়	-11.4246
▁policy	-11.4246
▁وزیر	-11.4246
▁सम्पूर्ण	-11.4246
▁ਸਟਾਰ	-11.4246
▁ସହଜ	-11.4246
▁ਗੱਡੀ	-11.4246
▁ಅಭ್ಯಾಸ	-11.4246
▁संसद	-11.4247
▁கொண்டுள்ளன	-11.4247
▁संपत्ति	-11.4247
▁అన్నారు	-11.4247
▁କରାଯିବା	-11.4247
▁দিছে	-11.4247
▁গৰম	-11.4247
▁নোৱাৰে	-11.4247
▁পরিষেবা	-11.4247
▁blood	-11.4247
▁প্রদেশ	-11.4247
পরিশোধ	-11.4247
▁ಒಳಗೊಂಡಿದೆ	-11.4247
▁variet	-11.4247
▁ମନେ	-11.4247
చర్	-11.4247
▁बल्क	-11.4247
▁आरक्षण	-11.4247
▁गतिशील	-11.4247
▁ਆਰਾਮ	-11.4247
▁ରୋଗ	-11.4247
▁ਉਪਯੋਗ	-11.4247
▁بحال	-11.4247
▁तिहाइ	-11.4247
▁महिन्यात	-11.4247
▁விஷ	-11.4247
▁ಹೊಂದಿವೆ	-11.4247
▁অণুগুলি	-11.4247
▁व्याकरण	-11.4247
▁statement	-11.4247
▁समाव	-11.4247
▁स्टेसन	-11.4247
▁उत्तरेकड	-11.4247
▁వచ్చింది	-11.4247
▁റെക്കോർഡ	-11.4247
▁ਬੱਸ	-11.4247
▁નકલ	-11.4248
▁வெளிப்புற	-11.4248
▁charl	-11.4248
▁లాస్	-11.4248
▁tut	-11.4248
▁saf	-11.4248
▁प्राध	-11.4248
▁io	-11.4248
▁heart	-11.4248
▁नीति	-11.4248
▁ಚರ್ಚ	-11.4248
▁ਵਾਹਨ	-11.4248
▁टेलिफोन	-11.4248
▁असतील	-11.4248
▁કોશ	-11.4248
▁ਸੇਵਾਵਾਂ	-11.4248
▁ধৰে	-11.4248
▁જાઓ	-11.4248
▁توڑ	-11.4248
▁बनायो	-11.4248
▁ताराहरू	-11.4248
▁ହେଲା	-11.4248
▁सञ्चालन	-11.4248
▁మృత	-11.4248
ਰਾਮ	-11.4248
▁পাঠানো	-11.4248
▁लुई	-11.4248
▁سینٹر	-11.4248
▁కావచ్చు	-11.4248
▁அடங்கும்	-11.4248
▁रडार	-11.4249
▁trial	-11.4249
▁ईसा	-11.4249
▁মহাসাগৰ	-11.4249
જનક	-11.4249
▁ನೀಡುತ್ತಾರೆ	-11.4249
▁মুখপাত্র	-11.4249
▁टापुहरू	-11.4249
▁सफारी	-11.4249
▁سمت	-11.4249
▁టోర్న	-11.4249
▁প্ৰয়োজনীয়	-11.4249
▁ਐਟਲਾਂਟ	-11.4249
ਸ਼ਟੀ	-11.4249
▁ਜਨਮ	-11.4249
▁അതേ	-11.425
▁తీసుకురావడ	-11.425
▁ਸ਼ਾਂਤੀ	-11.425
▁বতৰ	-11.425
▁કા	-11.425
▁డబ్బు	-11.425
▁పౌరులు	-11.425
ਾਣੀ	-11.425
▁personal	-11.425
▁नौसेना	-11.425
▁july	-11.425
▁आँधी	-11.425
▁मार्गावर	-11.425
▁सत्र	-11.4251
▁തകർന്ന	-11.4251
▁వెబ్	-11.4251
▁ସେବା	-11.4251
▁customs	-11.4251
▁خواتی	-11.4251
▁square	-11.4251
▁ફેલાયેલ	-11.4251
▁नव्हते	-11.4251
ੇਨੀਆ	-11.4251
ുകാർ	-11.4251
▁ادائ	-11.4251
▁इतिहासकार	-11.4251
▁feel	-11.4252
▁ಅಂಗ	-11.4252
▁मंच	-11.4252
▁تصا	-11.4252
▁காற்ற	-11.4252
മീറ്റർ	-11.4252
▁ಹೋಗಲು	-11.4252
স্বৰূপে	-11.4252
▁ஏற்பட்டது	-11.4252
▁চোৱা	-11.4253
నేషన	-11.4253
ମ୍ବର	-11.4253
▁આશા	-11.4253
ाम	-11.4253
▁দৌৰ	-11.4253
▁विद्यार्थीहरू	-11.4254
ਿਜ਼ਨ	-11.4254
ாவ	-11.4254
▁സംസ്കാരം	-11.4254
्रेंच	-11.4254
▁കഴിഞ്ഞു	-11.4254
హాల్	-11.4255
▁ਸਿਖਰ	-11.4255
▁షో	-11.4255
▁अनुस	-11.4255
▁राहिले	-11.4255
▁நான்	-11.4255
▁വെബ്	-11.4255
▁అలవాటు	-11.4256
કરણ	-11.4256
▁training	-11.4256
قد	-11.4256
▁मेंदू	-11.4257
સો	-11.4257
▁ভুল	-11.4257
▁ವಯಸ್ಸಿನ	-11.4257
▁குறுக்க	-11.4257
▁ஏற்படுத்தும்	-11.4257
మ్స్	-11.4257
▁atoms	-11.4257
▁निधी	-11.4258
▁theory	-11.4259
▁రద్ద	-11.4259
ात्री	-11.4259
▁असाल	-11.4259
वर्ती	-11.4259
▁ਆਸਟ੍ਰੇਲ	-11.426
க்கான	-11.426
▁గ్యా	-11.426
▁জেনা	-11.4261
▁सस्तो	-11.4261
▁সূর্যের	-11.4261
▁ব্যর্থতা	-11.4261
▁ಚುನಾವಣೆಯ	-11.4261
▁ଫ	-11.4261
▁नहुने	-11.4262
▁पट	-11.4263
▁सॅन	-11.4263
▁meeting	-11.4263
▁map	-11.4263
▁বাইন	-11.4264
▁ਸੋਮ	-11.4264
▁ਸਮੱ	-11.4264
▁recorded	-11.4264
▁required	-11.4264
પ્ત	-11.4264
▁చికిత్స	-11.4265
▁ଯୋଜନା	-11.4265
▁শৰীৰ	-11.4265
لیڈر	-11.4265
▁তথাপি	-11.4265
▁ప్రభావిత	-11.4265
▁अवसर	-11.4265
▁ઉનાળા	-11.4265
▁ଅନୁଷ୍ଠାନ	-11.4265
▁mob	-11.4265
▁தான	-11.4266
▁गराउन	-11.4266
▁জাপানি	-11.4267
▁যায়নি	-11.4267
ાલય	-11.4267
▁சட்டம்	-11.4267
▁स्वदेश	-11.4268
▁এক্স	-11.4268
▁ಸ್ಟ್ರೀ	-11.4269
▁ಸಮುದ್ರದ	-11.4269
▁ଉତ୍ପାଦନ	-11.4269
▁লোকেরা	-11.4269
▁গণ	-11.427
▁छोडे	-11.427
▁సె	-11.427
▁சார்ந்த	-11.427
ఖ	-11.4271
▁ନିଷ୍	-11.4271
اعظم	-11.4271
रलैंड	-11.4271
▁বুধবার	-11.4272
ਿਵ	-11.4272
▁ଜୀବନ	-11.4272
▁ઘરે	-11.4272
▁کہانی	-11.4273
▁en	-11.4273
▁primar	-11.4273
▁ব্যবসায়	-11.4273
▁கடல்	-11.4274
▁రన్న	-11.4274
सूस	-11.4276
▁முடியாது	-11.4276
▁کنار	-11.4276
ाखाली	-11.4277
▁ടെലിവിഷ	-11.4277
▁died	-11.4278
▁మార్కెట్	-11.4278
▁आपल	-11.4278
▁fly	-11.4279
▁ബി	-11.4279
ुम	-11.428
▁फ्र	-11.428
மணிய	-11.428
ெ	-11.428
▁સંક્રમ	-11.4281
▁கருப்ப	-11.4282
▁interesting	-11.4283
▁ਸਮਰੱਥਾ	-11.4283
▁డ్రైవర్	-11.4283
▁اح	-11.4284
▁কাষ	-11.4284
▁ਟਾਈ	-11.4284
ென	-11.4284
▁नियोज	-11.4285
ریز	-11.4286
ଦିନ	-11.4286
▁পূৱ	-11.4286
▁స్థితి	-11.4288
▁ತಿಂಗಳು	-11.4289
▁കൃത്യ	-11.4289
नेटवर	-11.4289
▁ஃப்ள	-11.4292
istic	-11.4292
▁थीं	-11.4293
▁ఈవెంట్ల	-11.4293
▁پڑتا	-11.4293
ডজন	-11.4294
मीटर्स	-11.4294
▁ਉਚਾ	-11.4294
▁സൈനിക	-11.4295
ಿಸ್	-11.4296
ାଉଣ୍ଡ	-11.4296
▁સ્વા	-11.4296
▁కాంతి	-11.4296
▁શંકા	-11.4297
▁യുദ്ധം	-11.4297
▁ಸಮಿತಿ	-11.4297
▁cctv	-11.4298
▁estimate	-11.4298
▁বিনোদন	-11.4298
▁పశ్చిమ	-11.4298
▁حفاظت	-11.4298
राइट	-11.4298
▁contact	-11.4298
▁ਰੇਸ	-11.4298
▁திட்டத்த	-11.4298
▁japanese	-11.4298
▁രേഖ	-11.4298
▁நடை	-11.4299
▁తగిన	-11.43
▁ஜன	-11.43
▁ৰাষ্ট্ৰপতি	-11.43
▁ପାରନ୍ତି	-11.43
ੰਪ	-11.4301
▁જગ્યાએ	-11.4302
ேறு	-11.4303
▁இழுக்க	-11.4303
▁ഗ്രീൻ	-11.4303
▁অপরাধ	-11.4303
▁వ్యాప్తి	-11.4304
herit	-11.4305
▁ଗାୟ	-11.4305
▁പദ	-11.4305
▁मिळवण्याच	-11.4306
▁প্রকৃত	-11.4306
▁cards	-11.4307
▁உயிரினங்கள	-11.4307
▁பாலின	-11.4308
▁hours	-11.4308
▁भाडा	-11.4308
▁ದಿನದ	-11.4309
▁पहुंचे	-11.4309
ਕਰੀਬ	-11.431
ುತ್ತೇವೆ	-11.4311
▁এডি	-11.4312
▁वीज	-11.4312
▁നൂറ്റാണ്ട	-11.4313
▁শিক্ষার	-11.4313
▁గుండ	-11.4313
▁घडी	-11.4314
▁માફ	-11.4315
▁bin	-11.4315
▁groups	-11.4315
▁மொழிய	-11.4316
▁कनाडा	-11.4317
▁ਐਮ	-11.4318
▁ਨੈੱਟ	-11.4319
▁ద్వీప	-11.4319
▁ਸਟੋਰ	-11.432
▁ਦਿਖਾਉ	-11.432
▁ko	-11.4321
▁ವಿದೇಶ	-11.4323
▁இருவர	-11.4323
▁ಕುಳಿ	-11.4325
▁tourists	-11.4325
ੀਲ	-11.4325
▁ದೂರದಲ್ಲಿ	-11.4326
▁నాలుగ	-11.4331
▁જોડાયેલ	-11.4332
▁ফোটন	-11.4332
▁तिर	-11.4332
▁खटल	-11.4332
▁लेखक	-11.4334
▁ਛੱਡਣ	-11.4334
der	-11.4334
▁वाइन	-11.4334
▁रानी	-11.4335
▁মাথা	-11.4336
ਵਾਈ	-11.4336
▁జే	-11.4337
▁பெற்றோர்கள	-11.4338
▁ਬਰਲ	-11.4339
▁સંબંધો	-11.4341
్లు	-11.4342
▁இருந்தார்	-11.4346
▁இங்க	-11.4346
▁કિલ્લા	-11.4347
▁اگل	-11.4348
▁ભાડ	-11.4348
▁গান	-11.4349
▁જહાજો	-11.4351
▁ನೀಡಿದ	-11.4352
▁মৰ	-11.4352
ડે	-11.4356
কাণ্ড	-11.4358
▁জাহাজখন	-11.4359
▁zo	-11.4362
▁கொண்டது	-11.4362
▁ശരിയായ	-11.4363
▁आंतर	-11.4365
શ્વ	-11.4365
▁ನಿಂತಿದ್ದರ	-11.4366
▁हल्ला	-11.4366
▁ಬರ	-11.4366
▁હવાઈ	-11.4366
▁सुधारणा	-11.4367
തുപോലെ	-11.4367
▁store	-11.437
▁८	-11.437
▁ಶಿ	-11.4371
ta	-11.4371
▁ಬೆಳಕಿನ	-11.4371
മ്പ	-11.4372
ार्‍या	-11.4372
▁ಆರ	-11.4373
▁துளை	-11.4373
▁بُک	-11.4373
▁प्राइम	-11.4374
ুড়ি	-11.4374
▁ਆਫ	-11.4377
▁indi	-11.4378
▁કરવી	-11.4381
▁کانگ	-11.4381
ਵੇ	-11.4382
ଚିତ	-11.4383
ಾಫ್	-11.4385
▁ਯੂਨ	-11.4385
▁જવાબ	-11.4386
▁ಬ್ಯಾಂಕ್	-11.4388
▁रुप	-11.4388
▁இருக்கின்றன	-11.4389
▁बाक	-11.4389
▁टोक	-11.439
▁نیا	-11.4392
ப்பட்டன	-11.4393
▁ہند	-11.4394
▁ಸೇವ	-11.4394
▁را	-11.4394
▁ସାମି	-11.4395
ूर	-11.4395
ৰু	-11.4396
▁સ્	-11.4398
ਲੀਕ	-11.4399
▁মাৰ্কি	-11.4399
▁വന്ന	-11.4399
ಪರ್	-11.44
▁గు	-11.44
▁refer	-11.4401
▁बजा	-11.4402
▁सामन्या	-11.4403
▁திரும்பி	-11.4404
▁എച്ച്	-11.4404
▁ଲୁ	-11.4404
اخ	-11.4405
▁ലി	-11.4405
న్ని	-11.4407
▁રમતો	-11.4408
বীণ	-11.4409
▁ਅਣ	-11.441
▁پہی	-11.441
▁ਅੱਡ	-11.4411
▁ms	-11.4411
ূ	-11.4413
▁સંમત	-11.4415
जण	-11.4415
నాడు	-11.4416
ण्यासारखे	-11.4417
ریس	-11.4417
بر	-11.4417
▁నిమిషాల	-11.4417
ર્ટ	-11.4418
▁val	-11.4418
isation	-11.4419
್ಯಾಷನ	-11.4419
▁ਮੌਕ	-11.4419
▁બનેલ	-11.442
ిటీ	-11.4422
▁সামগ্ৰীৰ	-11.4422
▁સાત	-11.4422
▁ಗುರುತು	-11.4424
▁શક્યતા	-11.4426
ूमध्य	-11.4427
▁నిర్మాణ	-11.4428
▁ship	-11.4429
▁ਦੁਆ	-11.4429
్ణ	-11.4429
▁சாலை	-11.443
▁വ്യത്യാസ	-11.4431
ੋਲ	-11.4433
▁শীতকাল	-11.4433
▁ಸಾರ	-11.4434
[...]
